#version: 0.2
á Ģ
Ġ áĢ
áĢ º
áĢ ¸
áĢ ¬
áĢ ¯
áĢ ±
áĢ Ń
áĢ Ħ
áĢ Ģ
áĢŃ áĢ¯
áĢ ¼
áĢ ·
á ģ
áĢº áĢ¸
áĢ Ĳ
áĢ± áĢ¬
áĢ ½
áĢ Ķ
áĢ ¾
ĠáĢ Ļ
ĠáĢ Ĳ
áĢ ķ
ĠáĢ ¡
áĢ »
ĠáĢ Ģ
áĢ Ļ
áĢ ħ
Ġ áģ
áĢ Ĭ
áĢ¬ áĢ¸
ĠáĢ ķ
ĠáĢ ŀ
ĠáĢ Ľ
áĢ Ľ
áĢ ²
ĠáĢ ľ
áĢ ®
ĠáĢ Ķ
áĢ ŀ
áĢ ļ
áĢ ģ
áĢ «
áĢ ľ
áĢ ¶
áĢ± áĢ¸
Ġáģ ĭ
áĢ °
áĢ² áĢ·
ĠáĢ ģ
ĠáĢ ĸ
ĠáĢ ħ
áĢ® áĢ¸
áĢŃáĢ¯ áĢ·
ĠáĢ Ĩ
áĢ» áĢ¬áĢ¸
áĢ ¡
ĠáĢ ĳ
áĢ· áĢº
áĢ½ áĢ±
ĠáĢŀ áĢĬ
áĢ¯ áĢ¶
áĢ¼ áĢ®áĢ¸
áĢ Ĩ
áĢŃáĢ¯ áĢ¸
áĢ¼ áĢ±áĢ¬
áĢ±áĢ¬ áĢº
áĢº áĢ·
áĢ¾ áĢŃ
áĢ ¹
Ġ Ċ
áĢ ĳ
áĢ¾ áĢ¬
áĢ ĸ
áĢ¾ áĢ¯
áĢ Ŀ
Ġáģ Ĭ
áĢ± áĢ«
ĠáĢ ĺ
áĢ¯áĢ¶ áĢ¸
ĠáĢ Ĵ
áģ Ģ
áĢŀ áĢĬ
áĢ Ĵ
áĢ° áĢ¸
áĢ±áĢ¬ áĢ·
ĠáĢĲ áĢļ
ĠáĢ Ł
ĠáĢĲ áĢħ
áĢ ĺ
ĠáĢ¡ áĢģ
áĢ½ áĢ¬áĢ¸
ĠáĢ¡ áĢĲ
áĢ» áĢŃáĢ¯áĢ¸
áĢĲ áĢļ
ĠáĢ ļ
áĢ½ áĢ²
ĠáĢ¡ áĢĻ
áĢ¼ áĢ±
áĢ± áĢ·
áĢ¼ áĢ¬áĢ¸
áĢ½ áĢ±áĢ¸
áĢ±áĢ« áĢº
áĢ Ĥ
Ġáģ ı
ĠáĢ¡ áĢĽ
ģ áģ
ĠáĢľ áĢĬ
ĠáĢ¡ áĢĢ
áĢ ī
ĠáĢ Ħ
áĢľ áĢĬ
áĢ Ł
ĠáĢ¡ áĢħ
áĢ¼ áĢ¯
ĠáĢ ¦
ĠáĢ¡ áĢķ
áĢ ı
ĠáĢ Ŀ
áĢ» áĢ¾
ĠáĢ¡ áĢĸ
ĠáĢ¡ áĢŀ
ĠáĢ¡ áĢĶ
áĢ» áĢ±áĢ¬
áĢ½ áĢ²áĢ·
ĠáĢľ áĢĢ
áĢ½ áĢ¬
áĢĽ áĢĦ
áĢ½ áĢ¾
áĢ» áĢ½
ĠáĢ¡ áĢľ
ĠáĢĽ áĢĶ
ĠáĢ Ĺ
áĢĲ áĢĦ
áĢ« áĢ¸
áĢĿ áĢĦ
áĢ» áĢŃ
áĢ½áĢ± áĢ·
ĠáĢ Ĥ
ĠáĢĽ áĢĦ
áģ ģáģ
ĠáĢ¡ áĢĳ
Ġ (
áĢ» áĢ¯
Ġáģ į
ĠáĢĻ áĢĽ
áģ Ĥ
ĠáĢĲ áĢĢ
ĠáĢ Ĭ
áĢ ¦
ĠáĢĽ áĢķ
ĠáĢŀ áĢĦ
Ġáģ Ĥ
áĢĻ áĢĲ
ĠáĢĻ áĢĬ
áĢĨ áĢĦ
áĢ» áĢ±áĢ¬áĢº
áĢĿ áĢĶ
ĠáĢĲ áĢĦ
ĠáĢĲ áĢĽ
ĠáĢĽ áĢĢ
ĠáĢ ĩ
ĠáĢħ áĢħ
ĠáĢħ áĢĢ
áĢħ áĢĬ
áĢ¼ áĢŃ
áĢ¡ áĢģ
áĢĶ áĢļ
áĢĻ áĢļ
ĠáĢ ¥
áĢ ĩ
áĢĻ áĢĬ
Ġáģ ģáģ
ĠáĢĻ áĢļ
áĢ° áĢ·
áĢŀ áĢĻ
ĠáĢŀ áĢĻ
áĢĦ áĢĶ
áĢ¶ áĢ·
ĠáĢķ áĢĬ
áĢĢ áĢĶ
áĢ¼ áĢ®
áĢ¡ áĢķ
Ġ )
áģĢ áģĢ
ĠáĢķ áĢĦ
áĢħ áĢī
áĢ ĵ
ĠáĢĨ áĢĢ
â Ģ
ĠáĢŀ áĢĲ
ĠáĢ¡ áĢĦ
áĢŀ áĢĢ
ĠáĢĲ áĢĬ
áĢ¼ áĢŃáĢ¯
ĠáĢĨ áĢĽ
ĠáĢĻ áĢŁ
áĢ Į
áĢ Ĺ
áĢ¾ áĢ¬áĢ¸
ĠáĢŀ áĢĢ
ĠáĢĶ áĢĬ
áĢĲ áĢĢ
ĠáĢĲ áĢķ
áĢĲ áĢĶ
áĢ» áĢ¬
áģ ħ
ĠáĢĶ áĢļ
áĢĽ áĢķ
ĠáĢĺ áĢļ
áĢº áĢ¹
áĢľ áĢĢ
áĢ¼ áĢŃáĢ¯áĢ¸
Ġáģ Į
ĠáĢĲ áĢĶ
ĠáĢľ áĢĻ
ĠáĢģ áĢĶ
ĠáĢ¡ áĢĨ
áĢ¼ áĢ¬
ĠáĢ Ī
áĢĶ áĢħ
áĢĽ áĢĶ
áĢ» áĢ±áĢ¸
áĢķ áĢĴ
ĠáĢĽ áĢĲ
ĠáĢĻ áĢĦ
áĢ¡ áĢĶ
ĠáĢŀ áĢĺ
ĠáĢķ áĢĲ
áģ ĥ
ĠáĢĨ áĢĶ
Ġáģ Ģ
ĠáĢĲ áĢĲ
Ġ âĢ
áĢģ áĢĦ
áģ ģ
áĢ¼ áĢŃáĢ¯áĢ·
ĠáĢĻ áĢĢ
ĠáĢŀ áĢĲáĢĦ
áĢŀ áĢĶ
ĠáĢ ĵ
ĠáĢĢ áĢľ
áĢ±áĢ« áĢ·
áĢ¾ áĢ±áĢ¬
áģ Ī
áģ Ħ
ĠáĢĻ áĢĶ
áģĢ áģģáģ
áĢĲ áĢĬ
ĠáĢķ áĢħ
ĠáĢŀ áĢľ
ĠáĢĢ áĢĻ
ĠáĢĨ áĢĦ
áĢģ áĢĶ
áĢ¼ áĢ±áĢ¸
áģ Ĩ
ĠáĢĽ áĢĽ
ĠáĢģ áĢĽ
áĢ» áĢŃáĢ¯áĢ·
ĠáĢĻ áĢĲ
ĠáĢ Į
ĠáĢĿ áĢĦ
áĢĦ áĢļ
áĢĳ áĢĻ
ĠáĢĺ áĢĢ
ĠáĢĳ áĢĢ
ĠáĢĻ áĢķ
ĠáĢĿ áĢĶ
ĠáĢ¥ áĢķáĢĴ
áĢķ áĢĦ
ĠáĢŀ áĢĶ
áĢ¾ áĢ°áĢ¸
áģ ĩ
ĠáĢŀ áĢħ
áĢ¬ áĢ·
áĢĲ áĢĻ
ĠáĢ¡ áĢĨáĢĦ
áĢ¡ áĢĢ
ĠáĢĲ áĢģ
áĢ¼ áĢ¯áĢ¶
áģ ī
áĢ¡ áĢĲ
áĢĽ áĢĢ
ĠáĢĻ áĢľ
áĢ¾ áĢ±áĢ·
áĢ ĭ
áĢĶ áĢĢ
áĢĨ áĢĶ
ĠáĢĢ áĢĶ
áĢħ áĢķ
áĢ¾ áĢŃáĢ¯
Ġáģ ĥ
áĢ¡ áĢĻ
áĢħ áĢħ
Ġ -
áĢĲ áĢĽ
Ġáģ İ
áĢĲ áĢħ
áĢĨ áĢĢ
Ġáģ ģ
ĠáĢ §
ĠáĢħ áĢĶáĢħ
ĠáĢħ áĢī
áĢ¡ áĢĳ
ĠáĢħ áĢĬ
áĢ¼ áĢ°
ĠáĢĳ áĢĦ
áĢľ áĢĦ
áĢ ¥
ĠáĢģ áĢĦ
áĢ¼ áĢ¶
ĠáĢĽ áĢģ
áĢ½áĢ¾ áĢ±
ĠáĢĽ áĢŀ
áĢĸ áĢĢ
áĢĶ áĢĬ
áĢ¡ áĢĽ
áĢ į
ĠáĢ¡ áĢĵ
áĢ¾ áĢ¶
áģģáģ ī
ĠáĢ¡áĢŀ áĢĢ
áĢĽ áĢŀáĢĬ
áĢľ áĢĻ
a n
ĠáĢħ áĢĽ
ĠáĢĻ áĢŀ
áĢĲ áĢķ
áĢĤ áĢľ
ĠáĢķ áĢĶ
áĢķ áĢĶ
áĢĢ áĢĽ
ĠâĢ ĭ
áĢ½ áĢ¶áĢ·
áĢĻ áĢĦ
áĢĢ áĢĻ
ĠáĢļ áĢĦ
ĠáĢĢ áĢĲ
e r
áĢħ áĢĢ
Ġáģ Ħ
ĠáĢľ áĢļ
o n
áĢĲ áĢľ
ĠáĢļ áĢģ
áĢĢ áĢŀ
áĢŀ áĢĲ
áĢ» áĢ®
Ġáģ ħ
áĢ ¿
ĠáģĤ áģĢáģģáģ
ĠáĢħ áĢķ
Ġ C
áĢ¡ áĢħáĢĬ
áĢ¡ áĢħ
i n
ĠáĢĽ áĢĻáĢĬ
ĠáĢĳ áĢĬ
ĠáĢľ áĢĦ
áĢķ áĢĲ
áĢŀ áĢĦ
áĢ»áĢ¾ áĢ±áĢ¬
ĠáĢĽ áĢĲáĢļ
áĢ¡ áĢľ
áĢĿ áĢĲ
Ġáģģáģ ī
ĠáĢħ áĢĲáĢĦ
áĢ¡ áĢĿ
ĠáĢĽ áĢĬ
áĢľ áĢķ
áĢ» áĢ±
Ġ M
áĢĻ áĢĽ
áĢĻ áĢŁ
áĢ» áĢŃáĢ¯
ĠáĢĢ áĢľáĢĬ
ĠáĢĳ áĢķ
ĠáĢĽ áĢļ
ĠáĢĺ áĢĿ
áģĤ áģĢáģģáģ
a r
Ġ N
áĢĻ áĢĶ
ĠáĢ¡áĢŀ áĢĦ
áĢ¡ áĢĸ
ĠáĢ¡áĢĽ áĢĦ
áĢķ áĢı
ĠáĢķ áĢĳáĢĻ
ĠáĢĸ áĢĢ
áģ į
áĢĺ áĢĢ
ĠáĢĸ áĢĻ
ĠáĢĽ áĢĻáĢļ
ĠáĢĦ áĢļ
Ġ S
áĢ¾ áĢ®áĢ¸
áĢ¼ áĢ²
áĢ¡ áĢŀ
ĠáĢ¥ áĢĢ
áĢĢ áĢķ
áĢ¼ áĢ½
e n
áĢĻ áĢĢ
ĠáĢĽ áĢŀáĢĬ
áĢ¿ áĢĶ
áĢĢ áĢľáĢĬ
t i
áĢ¾ áĢ°
Ġ A
ĠáĢļ áĢĶ
Ġáģ Ĩ
ĠáĢĽ áĢĻ
áĢŀ áĢķ
áĢ» áĢ±áĢ¬áĢ·
áĢ¼ áĢ¾
áģĤ áģĢ
áĢ» áĢ°
a l
ĠáĢŀ áĢĸ
áģ ı
áĢ« áĢ·
ĠáĢĻ áĢĸ
áĢħ áĢĦ
áĢķ áĢĻ
ĠáĢĿ áĢļ
áĢĢ áĢĭ
áĢľ áĢļ
ĠáĢ¡áĢħ áĢĬ
áĢŀ áĢħ
ĠáĢĺ áĢı
o r
áĢĽ áĢĬ
ĠáĢħ áĢĦ
ĠáĢĽ áĢľ
Ġáģ Ī
Ġáģ ĩ
ĠáĢ ¤
áĢ¾ áĢ±áĢ¸
áĢ»áĢ¾ áĢ±áĢ¬áĢº
áĢĩ áĢĦ
ĠáĢ¡ áĢļ
ĠáĢĸ áĢĲ
áĢĢ áĢĦ
ĠáĢ¡áĢĳ áĢĢ
Ġ P
ĠáĢ¡áĢĻ áĢĬ
Ġáģģ áģĢ
ĠáģĤ áģĢ
ĠáĢĲáĢĢ áĢļ
áĢ¡ áĢĨ
áĢ¾ áĢ¯áĢ¶áĢ¸
áĢ¡ áĢĿáĢĦ
áĢ¥ áĢķáĢĴ
ĠáĢĴ áĢı
ĠáĢĹ áĢŁ
áĢ» áĢ°áĢ¸
ĠáĢĢ áĢı
Ġ T
áĢħ áĢĽ
ĠáĢ¡áĢĶ áĢĬ
áĢĽ áĢĻ
áģĢáģĢ áģĢ
ĠáĢ¡áĢĽ áĢķ
ĠáĢĩ áĢĶ
áĢķ áĢĬ
áĢĢ áĢħ
ĠáĢ¡áĢĽ áĢĬ
ĠáĢĨ áĢļ
áĢĢ áĢĢ
e s
áĢŀ áĢľ
áĢĽ áĢĲ
ĠáĢĻ áĢĳ
ĠáĢĢ áĢĦ
ĠáĢļ áĢī
ĠáĢ¡áĢģ áĢĢ
Ġáģ ī
áĢĳ áĢķ
áģ ĭ
. .
áĢ¡ áĢħáĢī
áĢĢ áĢľ
ĠáĢ§ áĢĽ
áĢļ áĢĢ
áģģ áģĢ
ĠáĢħ áĢĲ
áĢĻ áĢģ
áĢĸ áĢĶ
ĠáĢĻ áĢħ
áĢħ áĢĻ
ĠáĢĸ áĢĶ
áĢĽ áĢħ
áĢ¡áĢĳ áĢĬ
áĢģ áĢĲ
ĠáĢĢ áĢĲáĢĬ
ĠáĢ¡ áĢĬ
áĢĨ áĢĽ
áĢ» áĢ¶
Ġ F
ĠáĢģ áĢĢ
ĠâĢ Į
ĠáĢĻ áĢģ
áĢ¡ áĢĦ
ĠáĢ¡áĢŀ áĢħ
i t
áĢ¼ áĢ¾áĢ¯
ĠáĢŁ áĢĶ
ĠâĢ Ī
áĢĨ áĢļ
Ġ B
ĠáĢħ áĢĻ
ĠáĢĢ áĢķ
ĠáĢ¡áĢĶ áĢĢ
ĠáĢ¡áĢģ áĢĶ
áĢ Ī
ĠáĢ¡áĢķ áĢĦ
Ġáģģáģ ħ
áĢģ áĢı
ĠáĢĶ áĢĶ
ĠáĢħ áĢģáĢĶ
ti on
Ġáģģáģ Ĥ
ĠáĢķ áĢĽ
ĠáĢĳ áĢĻ
i c
Ġ D
áĢĢ áĢĲ
ĠáĢ¡áĢģ áĢĻ
áĢĿ áĢĿ
áĢ»áĢ¾ áĢ±áĢ¬áĢ·
áĢĢ áĢļ
áĢĻ áĢľ
Ġ /
ĠáĢŀ áĢļ
áĢº áģį
áĢ½áĢ¾ áĢ±áĢ·
ĠáĢļ áĢģáĢĦ
áĢĤ áĢĲ
Ġ I
ĠáĢ¡ áĢĿ
áĢ½ áĢ¾áĢ¬
áĢ¡ áĢľáĢĢ
Ġ R
áĢĶ áĢķ
ĠáĢĢ áĢĹ
a t
áĢ¡ áĢĬ
ĠáĢĻ áĢĨ
áĢĴ áĢı
a c
ĠáĢĻ áĢĻ
L D
áĢ¯áĢ¶ áĢ·
áĢ½áĢ¾ áĢ²
Ġ G
ĠáĢŁ áĢĦ
ĠáĢķ áĢĻ
áĢ±áĢ¬ áĢ·áĢº
áĢ¾ áĢ®
ĠáĢĿ áĢĲ
ĠáĢĨ áĢĬ
ĠáĢ¡áĢĲ áĢĬ
o m
ĠáĢŀ áĢĽ
ĠáĢľ áĢħ
i s
áĢĶ áĢĿ
áĢ¼áĢ±áĢ¬ áĢº
Ġ H
Ġ K
Ġ U
ĠáĢ¡ áĢĺ
in g
áĢ» áĢ®áĢ¸
e l
ĠáĢĶ áĢĲ
Ġáģģáģ Ī
áĢħ áĢĲ
âĢ ĭ
áĢķ áĢĢ
áĢķ áĢħ
áĢĳ áĢĶ
r e
ĠáĢľ áĢĶ
áĢŁ áĢĶ
ĠáĢĢ áĢļ
áĢĳ áĢĢ
áĢ» áĢ½áĢ±áĢ¸
áĢĴ áĢĽ
áĢĿ áĢļ
ĠáĢĶ áĢħ
áĢľ áĢĶ
r o
áĢĻ áĢķ
ĠáģĤ áģĢáģĢ
i l
ĠáĢĺ áĢĦ
Ġ L
áģħ áģĢ
a s
Ġ E
Ġáģĥ áģĢ
áĢľ áĢħ
áģ Ĭ
áĢħ áĢģáĢĶ
áĢ» áĢ²áĢ·
a tion
áĢ¾ áĢ¶áĢ·
ĠáĢ§ áĢķ
ĠáĢĺ áĢĲ
áĢŀ áĢģ
ĠáĢ ©
ĠáĢ§ áĢĢ
1 9
ĠáĢĽ áĢ¡
ĠN LD
áģģáģ Ī
áĢģ áĢĽ
ĠáĢľ áĢĲ
áĢķ áĢļ
áĢĲáĢĢ áĢļ
Ġáģģáģ ĥ
ĠáĢĶ áĢĢ
en t
áĢļ áĢĦ
ĠáĢĻáĢĶ áĢĢ
áģģáģ ħ
áĢļ áĢħ
ĠáĢĿ áĢĻ
ĠáĢ¡áĢľ áĢļ
áģģáģ Ĥ
l e
áĢ¾ áĢ±
áģĤ áģĢáģĢ
Ġ "
ĠáĢĢ áĢģ
ĠáĢĹ áĢĻ
Ġ W
áĢĿ áĢĢ
I D
áĢĴ áĢķ
h e
ĠáĢĤ áĢĽ
áĢŀ áĢĸ
áĢĲ áĢģ
ĠáĢŀ áĢķ
Ġáģģáģ Ħ
ĠáĢ ī
áĢĸ áĢĲ
áĢ ĥ
ĠáĢĲ áĢĻ
ĠáĢĽ áĢħ
o o
áĢ¥ áĢĲ
áĢĺ áĢļ
o u
ĠáĢ¡áĢĲ áĢĶ
áĢĶ áĢĻ
ĠáĢ¡áĢĽ áĢĻ
ĠáĢĽ áĢĳ
áģĥ áģĢ
ĠáĢĬ áĢĶ
áĢĴ áĢŀáĢĻ
ĠáĢĲ áĢľ
áĢ¡ áĢ¡
áĢĶ áĢĦ
ĠáĢ¡áĢĻ áĢĲ
Ġáģģáģ Ĩ
ĠáģĤ áģħ
ĠáĢķ áĢĭ
ĠáĢģ áĢķ
áĢĲ áĢĲ
O V
ĠáĢĸ áĢļ
ĠáĢ§ áĢĬ
áĢĻáĢĲ áĢĶ
Ġáģģáģ ģ
áĢŀáĢĻ áĢĤ
OV ID
a m
áĢļ áĢģ
ĠáĢ¡áĢĨ áĢĢ
áĢĶ áĢĲ
ĠáĢĳ áĢĻáĢĦ
ĠáĢ¥ áĢķáĢĻ
áĢ½áĢ¾ áĢ¬áĢ¸
áĢħ áĢĶáĢħ
áĢĽ áĢĻáĢĬ
Ġáģģáģ ĩ
m ar
e d
e t
áĢ¼ áĢ½áĢ±áĢ¸
ĠáĢĶ áĢĦ
ĠáĢĢ áĢħ
o l
áĢĨ áĢĬ
áĢĽ áĢĲáĢļ
áĢ¾ áĢŃáĢ¯áĢ¸
ĠáĢ¥ áĢĽ
áĢ½ áĢ¶
áĢŁ áĢĦ
ĠáĢ¡áĢĽ áĢŀ
s t
áĢĹ áĢħ
y an
ĠáĢħ áĢĶ
ĠáģĤáģĢáģģáģ ħ
C A
an d
ĠáĢĻ áĢĤ
ĠáĢĻáĢĽ áĢĺ
ĠáĢ¡áĢħ áĢī
ĠáĢŀ áĢģáĢĦ
ĠáĢķ áĢļ
ĠC OVID
Ġáģģ áģĢáģĢ
áĢ¼ áĢ¾áĢ±áĢ¬
o w
áĢ¼ áĢ°áĢ¸
Ġáģħ áģĢ
áĢ¼ áĢ½áĢ±
ĠáģĤ áģģ
áĢľ áĢŀáĢĻáĢĤ
t er
yan mar
áĢ¾ áĢº
áĢ ¤
áĢŀ áĢĺ
áĢľ áĢĲ
áĢĽ áĢŀ
áĢ¼ áĢ¶áĢ·
áĢĴ áĢĶ
ĠáĢ¡áĢĽ áĢĢ
áģģáģ Ħ
ĠáĢĵ áĢĻ
áĢļ áĢĶ
ĠáĢĲ áĢĸ
ĠáĢĽáĢľ áĢĴ
a d
i d
ĠáĢķ áĢĢ
áĢĽ áĢģ
e c
ĠáĢļ áĢĻ
áĢ §
ĠáĢĽ áĢŁáĢĶ
áģģáģ ĩ
áģģáģ Ĩ
Ġ O
áģģáģ ĥ
Ġ ..
áĢĻ áĢĿáĢĦ
áĢĽ áĢĻáĢļ
áĢ» áĢ¶áĢ·
Ġ J
áģĤ áģģ
ĠáĢģáĢĽ áĢħ
ĠáĢĶ áĢĻ
ĠáĢĲáĢĶ áĢĦ
áĢ¼ áĢ¯áĢ¶áĢ¸
áĢŀ áĢļ
ĠáĢģ áĢı
áģ Į
ĠáģĤ áģĦ
áģĤ áģħ
u r
ĠáĢĿ áĢĢ
ĠáĢ ı
Ġ V
o f
áĢ½ áĢŃáĢ¯
ĠáĢħ áĢŀáĢĬ
ĠáĢ¡áĢĳ áĢĦ
áĢº áĢ¯
ĠáĢĩ áĢĦ
u n
áĢĶ áĢĶ
ĠáĢĢ áĢĽáĢĦ
ĠáĢħ áĢľ
áĢĴ áĢĶáĢļ
ĠáĢĽ áĢĲáĢĶ
ĠáĢĳ áĢĶ
ĠN CA
ĠáĢľ áĢķ
ĠáĢĬ áĢħ
e b
ĠI n
áĢĲ áĢĿ
ĠáĢĻ áĢĩ
áģĪ áģĪ
Ġ Y
a y
e m
áĢŀ áĢĽ
ĠáĢģ áĢĻ
ĠáĢĹ áĢħ
ĠáĢĻ áĢ¡
áģ İ
o t
u s
ĠM yanmar
áĢĸ áĢĽ
áĢ ©
áĢĻ áĢŀ
áģģáģ ģ
i r
Ġ.. .
ĠáĢĨ áĢķ
áĢĽ áĢ¡áĢĸ
ĠáĢĻ áĢı
áĢĺ áĢı
áĢĻ áĢĻ
ĠáĢĲ áĢ¦
áĢ½áĢ¾ áĢ±áĢ¸
o c
ĠáģĤ áģĤ
ĠáģĤ áģĥ
ĠáģĦ áģĢ
ĠáĢķáĢĳáĢĻ áĢĨ
ĠáģĤáģĢáģģáģ Ĩ
áģģáģī áģī
ĠáĢ ĭ
áĢĤ áĢĩáĢĦ
áģĤáģĢáģģáģ Ī
áĢĤ áĢĶ
áĢĽ áĢĽ
ĠáģĤ áģĨ
Ġáģģáģī áģī
ĠáĢ¡áĢľ áĢĦ
áģĤáģĢáģģáģ ħ
a g
áĢ¡áĢĿ áĢļ
áģģáģī áģĦ
ĠáĢŀáĢĻ áĢĤ
áĢģ áĢĻ
áĢĿ áĢĻ
oo k
áĢĽ áĢĳ
ĠáĢĴ áĢŀáĢĻ
i g
ĠáģĤ áģĩ
ĠáĢ¡ áĢĿáĢĲ
áĢĤ áĢĽ
áģĨ áģĢ
áĢ½ áĢ®
ĠáĢĢ áĢĢ
it y
áĢĨ áĢķ
ĠáģĤ áģĪ
ĠáĢĽáĢŀ áĢľ
ĠáĢŀ áĢĽáĢĢ
áĢ» áĢ½áĢ²
c h
áĢĴáĢĽ áĢļ
ĠáĢĸ áĢģáĢĦ
ĠáĢ¡áĢĲ áĢĲ
áĢı áĢĶ
áĢĳ áĢĬ
áĢĽ áĢļ
ĠáĢ¡ áĢĤáĢĲ
áĢ¡ áĢļ
in e
ĠáĢķ áĢľ
áĢĳ áĢĦ
ĠáĢĹ áĢĶ
c e
áĢħ áĢĲáĢĦ
o p
áĢŀ áĢĲáĢĦ
áĢĻ áĢħ
ĠáģĤáģĢ áģĤáģĢ
ĠáĢ© áĢĤ
áĢ¡ áĢĻáĢĲ
áģĤáģĢ áģĤáģĢ
áĢĢ áĢĽáĢĦ
ĠáĢģ áĢĲ
áĢĽ áĢĽáĢĦ
ĠáĢĴ áĢĦ
âĢ Ī
áģĤáģĢáģģáģ ī
áģĤ áģĦ
ĠA A
ĠáĢĻáĢĽ áĢķ
S A
ĠáģĤáģĢáģģáģ Ħ
ĠáĢĦ áĢĽ
es s
áģĤáģĢáģģáģ ĩ
2 0
ĠáģĤáģĢáģģáģ Ī
eb ook
áĢ»áĢ¾ áĢ¶
ĠáģĤ áģī
ac ebook
ĠáģĨ áģĢ
v er
ĠáĢĲ áĢĨáĢĦ
ĠáĢħ áĢŀ
i a
áĢ¡ áĢĽáĢĦ
áĢĢ áĢĮ
áģĢáģĢ áģĢáģĢ
ĠáĢ¡áĢĲ áĢĦ
Ġ t
m ent
áĢŃáĢ¯áĢ· áģı
áģĦ áģĢ
áģĪ áģĢ
ĠS t
áĢ ł
ĠT he
u l
áĢ» áĢ¯áĢ¶
v e
ĠáĢĺ áĢĶ
r a
Ġ p
áģĤáģĢáģģáģ Ĩ
ĠáĢĻáĢĽ áĢĲ
ĠáģĤáģĢáģģáģ ĩ
ĠáĢ¡ áĢŁ
áĢĻ áĢĸ
u m
áĢ¾ áĢ±áĢ¬áĢº
áģģáģī áģĨ
áĢ¥ áĢĢ
áģĤ áģĥ
áĢ° áģı
áĢĨ áĢħ
Ġ s
Ġ c
ĠáĢ¡áĢķ áĢħ
áĢĺ áĢĲ
áĢķ áĢĽ
t h
ĠáģĤáģĢáģģáģ ī
e w
an g
áĢº áĢ»
áģĤ áģĤ
áĢľ áĢĲáĢĶ
ĠáĢ¡ áĢ¡
áĢĤáĢľ áĢĶ
ĠáĢĻáĢĲ áĢĽ
Ġ .
áĢ¡ áĢŀáĢĢ
ĠáĢĶ áĢĤ
ĠC h
ĠáĢ¡áĢĢ áĢļ
ĠáĢĤ áĢĶ
Ġáģģáģī áģĦ
áģĩ áģĢ
i m
ĠáģĤáģĢáģĢ áģĪ
áĢ¾ áĢ¯áĢ¶áĢ·
áĢ¾ áĢŃáĢ¯áĢ·
ĠáĢĴ áĢĶ
áĢ¡ áĢĨáĢĦ
ĠáĢĦ áĢľ
áģĤ áģĨ
áĢ¾ áĢ²
o s
áĢ¡ áĢŀáĢĦ
I A
a p
ĠáĢ¡áĢħ áĢħ
áĢĳ áĢĽ
Ġ f
ĠáĢĲ áĢ¡
Ġáģĩ áģĢ
áĢº áģı
áĢº áĢ»áĢ¬áĢ¸
ĠáĢĽ áĢĸ
áĢ» áĢ¯áĢ¶áĢ¸
h t
áĢħ áĢľ
áĢĻ áĢı
áģĤ áģĩ
u p
áĢĩ áĢĿáĢĲ
ĠáĢ¡áĢģ áĢĦ
ĠáĢĻáĢĳ áĢĦ
ĠF acebook
ĠáĢ ¿
áģģáģī áģħ
ĠáĢĻáĢŀ áĢĦ
u t
ĠáĢŀ áĢı
áģĤ áģĪ
i on
áĢĲ áĢĽáĢĢ
ĠáĢĴ áĢĢ
áĢ±áĢ¬áĢº áĢ·
r i
áĢĴ áĢĦ
áģĤ áģī
Ġ of
ĠáĢĢ áĢĽ
ĠáĢĸ áĢľ
ĠáĢĲáĢķ áĢĬ
ĠáĢ¡áĢĳ áĢĬ
ĠáĢķ áĢĳ
áĢĲáĢĻ áĢĶ
áĢħ áĢĽáĢķ
ĠáĢĸ áĢĽ
áĢļ áĢī
ĠU N
at e
áĢģ áĢĢ
Ġáģģáģī áģĨ
áģĥ áģĨ
áģģáģī áģĩ
Ġáģģáģ ģáģ
an t
ĠáĢĨ áĢħ
ĠáģĤáģĢáģģáģ Ĥ
ĠáģĤáģĢáģģáģ ĥ
L A
áĢ° áģį
ĠáĢĽ áĢĺ
âĢ į
ĠáĢĹ áĢĦ
ĠáĢ¡áĢħ áĢķ
ĠâĢĭ âĢĭ
ĠáģĦ áģħ
ĠáĢ¡ áĢĿáĢĦ
áĢ¡ áĢĵ
Ġáģĥ áģħ
áĢ¾ áĢ¯áĢ¶
áĢ¡ áĢĲáĢĬ
áĢĤ áĢĽáĢĻ
Ġáģĥ áģģ
ĠáĢ º
ĠáģĪ áģĢ
Ġ m
áĢ¥ áĢķáĢĻ
ĠáĢ¥ áĢļ
ĠáĢĽ áĢĽáĢĦ
ĠáĢ¡áĢķ áĢĲ
u c
ĠáĢĢ áĢŀ
áĢĻ áĢĨ
a b
ation al
áģĤáģĢáģĢ áģĪ
ĠáĢľ áĢĨáĢĶ
ĠáĢĻ áĢĲáĢĢ
áĢ¡ áĢ¦
ĠáĢ¡áĢŀ áĢĲ
ĠáĢĻ áĢĲáĢĬ
ar d
a il
o g
ĠáĢĲ áĢĸáĢĢ
áĢ¶ áģı
áĢķ áĢĳáĢĻ
ou r
D A
áĢ» áĢ²
ĠâĢ ĵ
áĢĲ áĢĨ
áĢŃáĢ¯ áģį
áģĥ áģħ
e v
ĠK N
ĠáĢ ĥ
ĠáĢĦ áĢĲ
o d
Ġ 1
áĢĺ áĢĿ
ĠáĢ¡áĢģ áĢĲ
áĢļ áĢģáĢĦ
âĢ Į
ĠáĢĻ áĢĿáĢĦ
áĢķ áĢľ
ĠáĢĴ áĢĽáĢļ
is t
áĢĢ áĢı
ĠáĢ¡áĢĺ áĢļ
áĢļ áĢĻ
áĢ® áĢ·
a k
ĠáĢĤ áĢıáĢĶ
áģĤáģĢáģģáģ Ħ
ĠáĢĲ áĢŀ
ĠáĢ ¹
ĠáĢĽáĢĻ áĢľ
áĢ¡ áĢĿáĢĶ
ĠP ro
áģģáģī áģĪ
áĢ»áĢ¾ áĢŃáĢ¯áĢ·
ĠáĢģáĢĽ áĢĻ
es t
áĢ§ áĢĢ
ĠáĢĩ áĢļ
áĢĬ áĢĻ
Ġáģģáģī áģĩ
ĠáĢĻáĢĽ áĢŀ
ĠáĢ Ń
ĠáĢļ áĢĢ
áĢĿ áĢķ
ĠáĢĹ áĢľ
ĠR C
ĠáĢ¡áĢĲ áĢĢ
ic e
o b
Ġáģī áģĢ
ĠáĢĻáĢĶ áĢĬ
áģģáģ ģáģ
ĠáĢĵ áĢĶ
D P
ĠáĢ¡áĢĢ áĢĶ
ĠáĢĻáĢĽ áĢĶ
ĠáĢŀáĢĶ áĢĬ
ti c
áĢģ áĢŀáĢĬ
ĠáĢ¡áĢľ áĢĻ
ĠáĢķ áĢģ
Ġáģģáģī áģĪ
ĠáĢĻ áĢŀáĢĶ
ĠáĢķáĢĳáĢĻ áĢ¡áĢĢ
P P
ĠN ow
áĢħ áĢĶ
áģĥ áģĩ
áĢĽ áĢľ
áĢ»áĢ½ áĢ¶
C C
or t
áĢĩ áĢĿáĢĦ
u b
ĠM r
áĢĻ áĢĳ
i p
ĠáĢ ±
Ġáģħ áģĢáģĢ
Ġ d
áĢĮ áĢĶ
ĠáĢķáĢĽ áĢŁ
a w
S S
ĠáĢķ áĢľáĢĢ
áĢ© áĢĩ
áĢĴ áĢļ
áĢĸ áĢĻ
Ġáģģáģī áģħ
ĠáĢĹ áĢĢ
ĠáĢĵ áĢľ
N LA
ĠáĢ¡áĢĦ áĢļ
e p
ou n
ĠáĢĴ áĢĤ
áģĦ áģħ
ĠáĢķáĢĳáĢĻ áĢ¦
B S
á Ĥ
ĠáĢĸ áĢĦ
ĠáĢ¡áĢľ áĢĢ
i al
áĢĬ áĢħ
áĢĩ áĢĶ
áĢħ áĢľáĢĦ
áĢĴ áĢĻ
áģģ áģĢáģĢ
áĢ¡áĢķ áĢĦ
ĠáĢļ áĢĻáĢĶ
áģī áģĢ
Ġ b
ĠáĢĺ áĢĽ
ĠáĢĻáĢĲ áĢĲ
ĠS h
ter n
áĢ¬ áģĮ
ĠC om
áģĥ áģģ
ĠáĢ¡áĢĵ áĢĻ
áĢĴ áĢĢ
Ġ =
I C
áģĤáģĢáģģáģ Ĥ
Ġáģģ áģĢáģĢáģĢ
N LD
áĢ¡áĢĳ áĢĢ
ĠC on
Ġáģĩ áģħ
il l
ĠáģĤáģĢ áģģáģĢ
áĢĨ áĢĲ
Q u
áģĩ áģħ
ĠáĢ¡áĢķ áĢĶ
ĠáĢĨ áĢĲ
e f
áĢħ áĢĲáĢħ
áĢ¡áĢģ áĢĦ
ĠáĢĲ áĢĿ
ĠK IA
ĠáĢĽ áĢŁ
o v
ĠáĢķ áĢķ
áģĥ áģĪ
áĢ§ áĢĽ
e g
ĠáĢ¡ áĢ¦
ĠáĢĴ áĢħ
u re
er s
al l
Ġ and
ag e
Ġ 20
ĠáģĪ áģĪ
áĢĿ áĢŀ
áĢŁ áĢħ
áģĤáģĢ áģģáģĢ
ĠáĢ¥ áĢħ
áĢºáĢ¸ áģį
ĠáĢĶ áĢķ
v en
ĠKN U
áģĤáģĢáģģáģ ĥ
ĠáĢ¡áĢĳ áĢķ
Ġáģĥ áģĢáģĢ
I n
áĢĽ áĢ¦
ti ve
ĠU n
áĢ¡ áĢĲáĢĶ
áĢ¾áĢ¯ áĢŃ
ĠáĢ¡áĢĸ áĢĻ
ĠáĢĻ áĢľáĢĬ
ĠáĢĽ áĢ¦
áģĥ áģĥ
ĠáĢ ł
áĢºáĢ¸ áģı
ar t
ĠáĢ¡áĢľ áĢĲ
ĠáģĤ áģĢáģĢáģĢ
ĠáĢŁ áĢħ
ec t
áģħ áģĢáģĢ
áģĨ áģĨ
Ġ â
ĠáĢº áĢ¸
Ġ w
on e
ĠáĢ¡áĢĽ áĢĶ
i z
0 0
ĠáĢŁ áĢĢ
ĠáĢĬ áĢķ
áģĥ áģī
áģĥ áģĦ
áĢĤ áĢıáĢĶ
Ġáģĥ áģĨ
ĠáĢĺ áĢĿáĢĲ
áĢĨáĢķ áĢľ
áĢ¡ áĢŁ
- -
ĠáĢ© áĢĩ
ĠáģĤáģĢáģģáģ ģ
áĢº áģĭ
áĢ» áĢ¾áĢ¬
áĢ¡ áĢľáĢĦ
ĠáĢĦ áĢĶ
ĠáĢķáĢĳ áĢĿ
ĠáĢĩ áĢĢ
áĢĿ áĢķáĢĲ
ĠáĢŀ áĢĴ
ĠáĢĬ áĢĢ
áĢ¡ áĢŀáĢĲ
el l
id e
áĢĿ áĢĽ
ĠáĢĲáĢĽ áĢķ
u st
p p
áĢĿ áĢı
ĠáĢŀ áĢģ
ĠáĢķ áĢľáĢĲ
a v
on g
ev el
áĢĢ áĢĨ
áĢĲ áĢŀ
s e
áĢ¼áĢ± áĢ·
u d
E C
Ġáģĥ áģĩ
ĠáĢ ¾
_ _
áĢ±áĢ· áĢ«
ĠáĢĴ áĢļ
P C
ail y
c om
or m
ĠI C
ĠáĢľ áĢħáĢī
ar e
ew s
ĠT NLA
ĠáĢķ áĢī
ĠáĢĻ áĢĲáĢĦ
ģ ł
ĠáĢŀáĢĺ áĢĦ
i ver
ĠáĢ¡ áĢľáĢĬ
i f
ĠáĢĸ áĢĨáĢķáĢľ
Ġ l
áĢĢ áĢģ
áĢĹ áĢŁ
F C
Ġ Qu
áĢĦ áĢĦ
or k
a in
áĢį áĢķ
ig ht
áĢ»áĢŃ áĢ°áĢ¸
ĠáĢģáĢı áĢģáĢı
ĠáĢ¡áĢĽ áĢĲ
ĠáĢ© áĢħáĢĲ
Ġáģģáģħ áģĢ
áĢĽ áĢĵ
áĢ¾áĢ¯ áĢ¸
áĢĵ áĢĺ
áĢķ áĢŀ
ĠáĢľ áĢģ
ĠT h
Ġáģĥ áģĦ
Ġ in
áĢģ áĢķ
ro up
áģĪ áģħ
r y
áĢ½ áĢ«áĢ¸
as s
ĠRC SS
ĠáĢĬ áĢĬ
ĠáĢĽáĢŀ áĢĸ
áĢĿ áĢľ
tern ational
áģĥ áģĤ
ĠT r
e e
ac k
m a
áĢĢ áĢĿ
q u
ĠA s
i k
i b
ĠáĢĻ áĢĿ
e ar
ĠáĢŁ áĢļ
as k
áĢº ..
áĢĲ áĢ¦
an ce
áĢ»áĢ¬áĢ¸ áģı
áĢĵ áĢĻ
ĠáĢ¡áĢĽ áĢħ
g e
Ġáģĥ áģĥ
Ġ 2
áĢ¡áĢĶ áĢĢ
e x
áĢ¡ áĢľáĢĻ
ĠáĢŀáĢĶ áĢķ
ar ant
ĠA n
S t
áĢĻ áĢĶáĢĢ
oc k
áģĤáģĢáģģáģ ģ
áĢĢ áĢĽáĢĢ
Ġ 3
Ġáģĥ áģĪ
áĢķ áĢģ
ĠáĢĽ áĢĨ
áģĤ áģĢáģĢáģĢ
ĠU P
ĠáĢģ áĢľ
ĠáĢ¥ áĢķ
o st
ĠP h
áĢĹ áĢĢ
áĢĵ áĢĢ
arant ine
ĠáĢĲ áĢĻáĢĦ
Ġ Ġ
áĢº âĢĭ
áĢ¡ áĢĨáĢĢ
áĢŀáĢĺ áĢĦ
áĢĩ áĢļ
áĢ¡áĢĳ áĢĶ
áĢ¡áĢĢ áĢļ
áģħ áģħ
» ¿
ï »¿
áĢĽ áĢĤ
áģī áģī
áĢĢ áĢĴ
áĢĶ áĢģ
ar k
en ce
Ġ Z
ĠáĢķ áĢĢáĢĲ
áĢ» áĢ½áĢ±
âĢ Ŀ
p h
an s
d uc
l d
áĢĮ áĢĢ
ow n
ĠáĢķ áĢĴ
áģģáģī áģĪáģĪ
áĢĲ áĢĸ
or e
ĠáĢĨ áĢĻ
áĢ¼ áĢ½áĢ¬áĢ¸
ĠáĢĻáĢĽ áĢģ
le ven
w w
áĢĻ áĢ¡
áĢĸ áĢľ
áĢĩ áĢŀáĢĲ
ac e
áģĨ áģħ
áĢ¾áĢ¯ áĢ·
ĠáĢ¡áĢĽ áĢĨ
áĢĺ áĢĻ
om e
áĢĹ áĢĶ
l ic
C h
áģĦ áģĪ
áĢ»áĢ¬ áĢºáĢ¸
Ġáģģáģīáģī áģĢ
ĠáĢĤ áĢĻ
oo d
áĢŁ áĢķ
ĠáĢĩ áĢľ
ĠáĢĽáĢĲ áĢĲ
ĠáĢĻáĢĽ áĢĽ
ĠáģĨ áģħ
l an
W SA
áĢĻ áĢĤ
áĢĸ áĢļ
o ver
Ġáģģáģī áģĪáģĪ
ĠáĢĢáĢĶ áĢ¦
áĢĺ áĢĶ
ĠáĢĿ áĢķ
l y
M yanmar
ĠE n
ĠáĢķ áĢ¡
as e
ec h
ĠáĢ¡áĢĽ áĢ¡
ĠáĢĽáĢŁ áĢĲ
un g
ĠáĢĻáĢĨ áĢľ
ĠáĢ¡ áĢĿáĢĶ
ĠáĢŀáĢĻ áĢĿ
ti t
I O
áĢ» áĢº
a i
is s
áĢ¡áĢľ áĢļ
J C
ĠáĢĤ áĢĲ
en d
Ġt he
ĠáĢ ½
n e
E A
p er
ĠA c
ĠáĢ¡ áĢŀáĢĬ
ĠáģĦ áģĢáģĢ
ĠY BS
áĢĵ áĢŁ
Ġáģĥ áģĤ
Ġáģħ áģħ
evel op
or d
ad e
áĢ¡ áĢĻáĢĬ
áģģáģīáģī áģĢ
ĠáĢ¡ áĢĴ
ĠC ent
D JC
i v
p ort
er v
ĠáģĦ áģĪ
ĠáĢ¡ áĢŁáĢĶ
ĠáĢ¤ áĢĢ
H O
ĠáĢĺáĢĿ áĢĢ
áĢĻáĢĲ áĢĽ
ĠáĢ¡áĢĽ áĢľ
áĢ¸ áģĭ
ĠáĢķ áĢı
M C
ĠáĢŀ áĢŁ
áĢļ áĢ¥áĢĢ
áĢŀ áĢĳ
áģĦ áģĩ
áĢĹ áĢı
C OVID
áĢĢáĢĽ áĢħ
ĠNLD áĢķ
áģī áģħ
ed ia
as t
áĢ¼áĢ¯ áģį
DA A
ĠáĢ¡ áĢı
ĠáĢĲ áĢĳ
Ġ 7
s h
ĠA l
ĠE x
in t
ĠáĢĻ áĢŀáĢĻ
áĢķ áĢķ
Ġ g
iver s
ar y
an k
áĢºáĢ¸ áģĮ
T V
Ġ Â
áĢĩ áĢī
en c
Ġ ï»¿
ĠUN FC
ac h
ĠA pp
it e
ĠáĢ ¬
Ġáģħ áģĢáģĢáģĢ
áĢĢ áĢĳ
Ġ h
áĢĶ áĢĽ
u e
áĢĤ áĢħ
em ent
r am
ĠIn ternational
áĢķ áĢŀáĢĻáĢĤ
áĢĿáĢĿ áĢĢ
Ġáģĥ áģī
áĢĨ áĢľáĢĦ
ĠA r
ĠUP DJC
M E
Ġáģĥ áģĢáģĢáģĢ
áĢ»áĢ¾ áĢŃáĢ¯
ĠáĢļ áĢķ
or ld
t p
áĢĹ áĢĻ
re d
áĢĥ áĢĶ
ĠáĢĻ áĢŀáĢĢ
ic al
is m
ĠáĢĳ áĢļ
âĢ ľ
áģĦ áģĦ
áĢľ áĢĿ
áĢĢ áĢľáĢĢ
an c
áĢ¯ áĢŃáĢ¯áĢ·
ð Ł
ĠP r
R C
ow er
ĠU WSA
ĠáĢķ áĢľáĢķ
ĠáģĨ áģĨ
áĢ¡áĢĶ áĢĸ
G O
áĢŀ áĢķáĢĲ
ht tp
ĠáĢŀ áĢĿáĢı
áĢļ áĢĿáĢĶ
f f
F A
áĢĲáĢķ áĢĲ
áĢģ áĢĴ
y st
I T
i an
áĢŃ áģı
ĠáĢ ¼
N A
o x
a x
Ġ n
o ice
áģħ áģī
S SA
áĢĬ áĢĦ
ĠD aily
ĠáĢ¡áĢĨ áĢħ
Ġâ ģł
ĠáĢ¡áĢħ áĢĢ
áĢļ áĢŀáĢĻ
áĢŀ áĢı
ĠáģĦ áģĨ
20 1
áģĥ áģĢáģĢ
áĢ¾ áĢ±áĢ¬áĢ·
er al
ĠáĢ¡áĢĿ áĢļ
ĠáĢĤ áĢĽáĢĻ
a h
/ /
áĢ¡ áĢĽáĢķ
ĠáĢĻ áĢĨáĢĶ
áĢĻáĢĲ áĢĢ
áĢĶ áĢĨ
ĠáĢĬ áĢĦ
ĠA R
evelop ment
ol d
áĢĢ áĢĿáĢĲ
ul t
ĠCom m
áĢĻáĢĲ áĢħ
ĠáĢĺ áĢĺ
ĠW HO
ĠQu arantine
c t
: //
o k
áĢ½ áĢ«
áĢĢáĢĶ áĢ¦
áĢĺ áĢĦ
áģĩ áģĩ
áĢº "
b er
t d
ĠáĢĲáĢĶ áĢĬ
ĠáģģáģĤ áģĢ
áĢĨ áĢģ
áģģáģħ áģĢ
ĠáĢĻ áĢģáĢĦ
T A
áģģáģīáģĨ áģĤ
w it
ĠáĢĲ áĢĻáĢĶ
ĠáĢħ áĢĿ
ĠC P
ĠáĢ¡ áĢĤ
ĠU S
ivers ity
ĠáĢĨ áĢľáĢĦ
áĢŀ áĢģáĢĦ
Ġf or
yst em
o y
ĠG roup
S PP
ĠáĢ¡áĢĽ áĢĽ
Ġáģģáģħ áģĢáģĢ
B C
ĠáģĦ áģĦ
áĢ»áĢ¾ áĢ¬áĢ¸
p e
áĢĽ áĢĺ
áģĨ áģī
áģģáģīáģĦ áģĩ
ĠáĢĻáĢĽ áĢĻ
ĠáĢĤ áĢħ
s tit
áĢĻ áĢĴ
ĠáģĦ áģĩ
ĠáĢ¹ áĢ¸
áģģ áģĢáģĢáģĢ
in d
ĠG r
il e
áĢĿáĢĿ áĢĿ
ĠáģģáģīáģĦ áģĩ
Ġáģħ áģĨ
ĠáĢ¡áĢĶ áĢħ
ĠáģĦ áģĤ
áĢºáĢ¸ âĢĭ
ĠC or
ĠJ MC
c on
áĢ½áĢ¾ áĢ¶áĢ·
áĢ¡áĢĽ áĢĬ
i ti
ĠáĢĩ áĢĽáĢķ
i re
áģĦ áģī
ĠáĢĽáĢģ áĢĢ
ĠáĢ £
ĠáĢĢ áĢĳ
áĢĢ áĢĲáĢĬ
Ġáģħ áģī
ĠáĢĹ áĢļ
áĢ¡áĢŀ áĢħ
p r
am p
Ġ 4
ĠB l
áģĤáģĢáģĢ áģī
oc ial
o h
ĠáĢľ áĢŀ
ĠáģĨ áģĢáģĢ
áĢ¡áĢĻ áĢĦ
áĢ¡áĢģ áĢĶ
áģĨ áģĩ
ĠK IO
B A
áĢĸ áĢĤáĢĶ
en g
l ob
áģģáģī áģĢ
P h
S P
ĠIn d
áĢŃ áĢ·
ĠáĢ¡ áĢĭ
áĢ¯ áĢ¯áĢ¶áĢ¸
ĠR es
A O
ĠáĢŀ áĢĳ
áģĦ áģĤ
ĠN ational
h er
ĠáĢĳ áĢħ
N DAA
ĠM ask
ĠáĢĹáĢŁ áĢĶ
ĠD r
áģĦ áģĨ
ĠáģĪ áģħ
i o
l ine
ĠáĢĩ áĢĻ
ĠáĢĻ áĢĺ
ĠáĢĢ áĢĳáĢĢ
ĠáģĤáģĢáģĢ áģī
ĠN ews
áĢĭ áĢĢáĢĲ
en s
ĠáĢŁ áĢĻ
áĢ»áĢ¯ áĢ¸
ĠáĢ¡áĢĨ áĢĶ
r ic
áĢľ áĢĽ
Ġ20 1
áĢķ áĢĹ
ig n
ĠáĢĢ áĢĬ
ĠNLD áĢĢ
ĠE leven
P ro
ĠB us
áĢĢ áĢľáĢķ
in ess
áĢĻ áĢģáĢĶ
E R
áĢ¡áĢģ áĢĻ
áģħ áģĨ
N P
ĠáĢļ áĢĲ
ol og
it al
j ect
ĠáĢĢ áĢľáĢĢ
i e
i es
ĠáĢĻ áĢĴ
ang on
red it
ac t
áĢĦ áĢĲ
Ġ e
-- --
áģĤáģĢáģĢ áģĩ
ĠáĢĲ áĢĺáĢĢ
ĠáģģáģīáģĨ áģĤ
oun t
áĢĢ áĢĹ
ĠáĢ¡áĢĨ áĢĻáĢĲáĢĶ
ur ma
ĠáĢĶ áĢĸ
ĠáĢ¡áĢĸ áĢĲ
un d
ĠáĢĤ áĢļáĢĢ
ĠáģĦ áģĥ
Ġ st
áģĪ áģī
T he
is e
ĠáĢ§ áĢĢáĢĽ
ĠáĢĶ áĢĿáĢĲ
ĠáĢ¡áĢĻ áĢĽáĢķ
oo l
Ġ on
áĢ²áĢ· áģı
áĢ¡áĢģ áĢĢ
áĢ¡áĢķ áĢĲ
ĠáģĦ áģī
ĠV oice
= =
ĠáĢĤ áĢĦ
in a
on d
ĠR e
D F
áģģáģīáģĦ áģĪ
P S
ĠM an
áģĩ áģĨ
over n
áĢĻ áĢĿ
ĠC l
ĠáĢĢáĢľ áĢķ
ĠP ol
áĢĻ áĢľáĢĬ
Ġ 5
Ġt o
on t
I V
is h
x x
ĠáĢħ áĢ¥
áĢĢ áĢĵ
ĠáĢĬ áĢī
as h
lob al
áĢļ áĢĹ
oun d
ĠáĢĴ áĢĲ
wit ter
Ġ ?
ĠáĢŀáĢĲ áĢĬ
ĠáģĪ áģĢáģĢ
M A
ĠáĢ ¯
áĢĳáĢĻ áĢĦ
ĠáĢĻáĢĸ áĢĲ
Ġ v
áĢģ áĢĹ
Ġ '
áĢĬ áĢĢ
áĢĴ áĢģ
ĠW orld
ĠC o
ĠS SPP
ĠáĢŀáĢŁ áĢĩ
áĢĲ áĢĽáĢķ
áĢĽ áĢ¡
m er
áĢĽ áĢĿ
Ġ r
or y
áģĪ áģĨ
áĢ¥ áĢĽ
re en
ĠAR SA
__ __
ĠáĢĽ áĢŀáĢĻ
L O
áģĦ áģĥ
ĠáĢĻáĢĽ áĢ¡
ĠáĢ¡áĢĬ áĢħ
e a
f orm
áĢ¡ áĢĨáĢĶ
áĢ½ áĢŃ
ĠáģĤáģĢáģĢ áģĩ
S C
ĠáĢĽ áĢĽáĢĶ
áĢ¡áĢĶ áĢĬ
ut e
áĢ¡ áĢĺ
áģħ áģĤ
P N
ĠCom p
áĢĤ áĢĹ
áĢº áģĬ
a tive
ĠáĢĢ áĢĽáĢĢ
ĠN R
Ġ X
áģī áģĩ
Ġáģĩ áģĢáģĢ
áĢ¯ áĢ¸
ro w
áĢ» áĢ¸
ĠáĢĽ áĢĿ
t he
áĢĽ áĢĸ
i ve
s s
ĠáĢĲ áĢĨ
ot el
or g
ĠáģĤ áģħáģĢ
áĢ§ áĢķ
ub lic
ĠIC J
ĠáĢĲ áĢĿáĢĢ
Ġáģħ áģģ
ov id
ĠS c
áĢĲ áĢĳ
ĠáģģáģĢ áģħ
áĢŃ áĢ¸
áĢķ áĢŀáĢĬ
ĠáĢĢ áĢĴ
áģĦ áģĢáģĢ
ĠáĢĺ áĢľ
in k
ĠáĢĽ áĢĲáĢĢ
an n
ĠáĢ¥ áĢĲ
Ġ &
Ġáģģáģī áģĢ
Ġáģħ áģĪ
i um
ĠO r
ĠáĢĻáĢĽ áĢľ
Ġ a
áģĨ áģĪ
ĠáĢĽ áĢħáĢī
ĠF DA
ĠáĢŀ áĢĻáĢĲ
áģĩ áģĪ
áĢį áĢĻ
re e
E D
u g
ĠáĢĻ áĢĨáĢĦ
ĠâĢ Ĥ
u tion
ĠáĢĻ áĢħáĢī
áĢĲ áĢĤ
d own
áĢ¡áĢľ áĢĲ
ĠF or
áĢĢ áĢ¡
ĠáģĨ áģĪ
áĢ±áĢ«áĢº áģĮ
C om
ĠH e
Ġ 19
áģī áģĪ
áĢķ áĢĻáĢĬ
ĠáĢ¡áĢĻ áĢļ
áĢĢ áĢĢáĢĶ
ĠA g
áĢĬ áĢĶ
Ġ http
áĢ¬ áĢº
Ġáģħ áģĦ
ĠáĢŀáĢĻ áĢĦ
ad d
ĠM y
áĢŀ áĢĨ
Ġáģĩ áģĤ
ĠáĢĲáĢķ áĢĲ
Ġáģħ áģĤ
ĠáģĦ áģģ
S EA
Ġáģī áģħ
ĠG en
ĠáģĦ áģĢáģĢáģĢ
áģĩ áģĤ
áģī áģĦ
ĠP e
áĢĢ áĢĳáĢĢ
ĠáĢģ áĢĻáĢĬ
ĠS p
Ã Ĺ
áĢħ áĢŀáĢĬ
áģģáģīáģĦ áģħ
ĠNR PC
ĠáĢ¡áĢĶ áĢļ
ĠáĢĻ áĢĲáĢĶ
ĠáĢŁ áĢĲ
ĠáģģáģīáģĦ áģĪ
I S
ĠáĢĻáĢŀ áĢĲ
ĠáĢĹ áĢĲ
áĢľ áĢ¡áĢĲ
ĠM NDAA
áģĦ áģģ
ĠáĢĻáĢĢ áĢĦ
ĠáĢķ áĢĵ
ĠáĢĲ áĢľáĢĶ
áĢ¡ áĢĲáĢĦ
I CA
ic h
áģģáģī áģĨáģĢ
ĠáĢ¡ áĢĩ
áĢĻáĢĶ áĢķ
ĠáĢĦ áĢĦ
áģ ¾
ab le
áĢĳ áĢħ
A R
ĠA d
at er
iz ation
ĠS ocial
ĠY angon
áĢºáĢ· áģĬ
ech n
m an
g le
ĠáģģáģĢáģĢ áģĢáģĢ
Ġ re
ock down
áģī áģĨ
ĠáĢĲ áĢĸáĢĶ
ĠáĢķáĢĳáĢĻ áĢĶ
áģĤáģĢáģĢ áģĨ
ol l
ĠN ew
ĠáĢĤ áĢļ
il d
f er
ra in
A A
ti v
overn ment
F P
t on
áģĤáģĢ áģĤáģģ
ĠT witter
at h
ĠCent er
duc ation
áĢĲáĢĶ áĢĦ
ĠD evelopment
áģĨ áģĦ
ĠáĢĩáĢľ áĢĹ
áĢĤ áĢĢ
áĢŃ áĢ°
a ir
áģĤáģĢáģĢ áģħ
ĠN GO
olog y
ĠáĢĲáĢķ áĢĦ
ĠáĢģ áĢĿ
ĠáĢĺ áĢĿáĢĦ
Ġáģħ áģĩ
ĠáĢĢ áĢĿ
ĠS ch
áģģáģī áģĪáģĢ
ĠP l
áģĥ áģĢáģĢáģĢ
ĠUn iversity
ĠáĢħ áĢľáĢĦ
áģħ áģĢáģĢáģĢ
a f
ĠG lobal
áĢ» áĢ¯áĢ¶áĢ·
ĠáĢ¡áĢĽ áĢĳ
Ġ 0
Ġp ro
ot o
t e
áģħ áģĦ
ĠáĢĩ áĢĲ
ĠP lan
áĢĻ áĢ¡áĢĶ
áĢģ áĢģ
ĠáĢ¡áĢĽ áĢĸ
áģħ áģĪ
M F
ĠáģĤáģĢ áģĤáģģ
oc i
áģī áģĤ
áĢº /
ĠáĢĸ áĢħ
ra w
áĢķ áĢĭ
ĠI S
D C
P T
áģģáģĤ áģĢ
ĠM ar
ĠáģĢ áģĢ
ĠáĢĦ áĢĻ
ĠáĢķáĢĳáĢĻ áĢķ
oo gle
S h
áĢļ áĢķ
áĢħ áĢĻáĢĲ
ir us
áĢļ áĢĲ
áģģáģīáģĪ áģī
erv ice
áĢŀ áĢĽáĢĢ
ĠáģĨ áģĦ
ĠT im
áģĨ áģĤ
áĢĽ áĢĲáĢĶ
Ġáģģáģĥ áģĢ
ĠAs s
ĠáģĨ áģĩ
ĠáĢľ áĢŁ
áĢĲáĢľ áĢĶ
ĠO n
stit ute
ĠC C
H R
e as
ĠáĢĴ áĢĽ
áĢı áĢĢ
áĢ½ áĢ®áĢ¸
e am
áģħ áģĩ
Ġáģħ áģĥ
ĠC ovid
ĠM A
T h
t y
ĠáĢ¡ áĢĺáĢĢ
enc y
L td
âĢ ¬
ĠáģĨ áģĤ
ĠH IV
m it
ĠáģģáģĪ áģĢ
ĠM o
i ew
ĠáĢĲ áĢŀáĢĢ
ĠA NP
áĢĸ áĢĿ
on s
ide o
áĢħ áĢĲáĢĶ
âĢ ĵ
áĢħ áĢļ
áĢķáĢĳáĢĻ áĢĨ
Ġ 6
n er
r uc
a áĢĢ
à ¸
ĠáĢ¡áĢŀ áĢĶ
N G
ĠáĢģ áĢļ
U n
R I
con om
a z
âĢ Ĥ
un ity
os i
áģħ áģĥ
Ġáģĩ áģĥ
tic al
ĠBus iness
u k
m e
u al
Ġáģī áģī
l og
â ģł
ĠáĢ¡áĢħ áĢĽ
áģģáģī áģĩáģĢ
áĢľ áĢŀ
ĠG u
áģĪ áģĦ
ĠáģĨ áģī
Ġáģģáģī áģĪáģĢ
1 0
áĢº âĢĿ
an y
n al
ĠáĢ¡áĢĸ áĢĢ
áģģáģī áģħáģĢ
add y
áĢ¯ áĢ·
C o
áģĨ áģĥ
ĠM S
il ity
áĢº )
áģĪ áģĤ
áĢ¿ áĢĻ
áĢĩ áĢĢ
N CA
w ork
áģĩ áģĦ
ĠâĢ ľ
c ess
ĠM edia
ĠáĢ¡áĢĶ áĢĸ
ĠCP B
ĠRC áĢĲáĢħ
áĢĻáĢĲ áĢĲ
áĢĹ áĢĦ
ĠáĢ¡áĢħáĢħ áĢ¡áĢĽ
áĢĢ áĢĬ
ĠáĢ¡áĢĽ áĢĲáĢħ
n ing
ĠáĢķáĢĳáĢĻ áĢ¡áĢĨáĢĦ
ĠO ne
ap p
ĠáĢ¹ áĢ±
M S
ĠF r
áĢĻáĢĲ áĢ¦
et h
áĢŀáĢĶ áĢĮ
ĠA ir
ĠáĢĺ áĢ¦
ou s
áĢ¼ áĢ¾áĢŃ
áĢ¡áĢĵ áĢĻ
ak e
u ter
ĠáĢĻáĢĽ áĢĢ
ĠáģĤáģĢáģĢ áģħ
ĠáģĤáģĢáģĢ áģĨ
ion al
M P
ĠáĢĢ áĢĨ
ĠáĢļ áĢħ
o int
áĢŃáĢ· áĢ¯
ĠáģģáģīáģĪ áģī
Ī Ĵ
ĠH otel
es e
ĠáĢĩ áĢħ
Ġáģĩ áģĪ
áģĩ áģĥ
ĠCon t
ĠáĢŁ áĢķ
it ed
ear ch
áģħ áģģ
e i
k y
ĠáĢĻ áĢĢáĢĶ
p l
Ġ 8
áģĤáģĢáģĢ áģĦ
ĠáĢĽáĢŀ áĢĦ
ĠB r
áĢ¯ âĢ¬
g ram
ĠáĢĻ áĢĿáĢļ
áĢĿ áĢĹ
ro l
Ġáģģáģī áģĨáģĢ
D ay
N E
ĠE ducation
áĢ¥ áĢļ
ĠL e
A P
áĢŁ áĢĢ
áģĩ áģģ
áĢĿ áĢĵ
ĠáĢĻáĢĢ áĢķ
ĠáĢŀáĢĽ áĢĸ
ĠáĢĤ áĢł
of t
G B
ou t
ĠS ME
ĠH E
ĠáĢĻ áĢħáĢĦ
ĠáĢĨ áĢĭ
ĠáĢĦ áĢķ
Ġ i
áĢĲ áĢ¡
ĠáģģáģĤ áģĢáģĢ
ĠE AO
ĠS NLD
ĠáģĨ áģĥ
ĠáĢĻáĢĳ áĢĬ
g an
áģĨ áģĢáģĢ
o ad
áĢĹ áĢľ
áģĤáģĢáģĢ áģĥ
a ve
ĠáĢĿ áĢı
áĢĵ áĢŀ
ĠM ark
áĢŁ áĢģ
Ġ20 19
áĢĽ áĢŀáĢħ
ðŁ ļ
áĢĲ áĢ¡áĢĸ
ĠáĢĤ áĢĢ
ĠTr ans
A T
áģī áģĥ
ĠGr ade
áĢ»áĢ¾ áĢ°áĢ¸
our nal
C ent
áĢ¶ áģį
ĠáģĤáģħ áģĢáģĢ
C R
Ġáģĩ áģĦ
Ġ 9
áĢŀ áĢŁ
ww w
áĢĽ áĢŁ
ac y
ĠáĢĺ áĢĻ
áĢ² áģĮ
ĠáģĨ áģĢáģĢáģĢ
ik e
ĠáĢ »
sh ip
1 2
raw addy
et y
Ġ x
ĠS up
ĠáĢ¬ áĢ¸
ðŁļ ¥
ĠáĢĲ áĢĨáĢĢ
ot e
M I
ĠáĢ¡áĢħ áĢģ
áģĨ áģģ
áĢ§ áĢĬ
S O
Ġáģĩ áģģ
BS DF
áģģáģĪ áģĢ
c o
áģĪ áģĥ
ob ile
áĢº (
eb s
áģĩ áģī
od e
if e
áĢº áĢŃáĢ¯
áĢŀ áĢĻáĢĲ
áĢŀ áĢĻáĢļ
áĢģ áĢĽáĢħ
e y
IC M
Ġáģģáģī áģĩáģĢ
áĢĺ áĢĽ
ĠáĢ¡áĢħ áĢĻ
Ġáģģáģģ áģĢ
ĠáĢĴ áĢĻ
áĢ»áĢº áĢ¬áĢ¸
áĢķ áĢĿ
ou th
CC I
ĠL ockdown
ou se
K BA
ĠS ec
áģĦ áģĥáģĨ
Ġáģģáģģáģ ħ
áĢĶ áĢĤ
áĢĽ áĢħáĢĽ
as ter
ĠáģģáģīáģĦ áģħ
áģĪ áģģ
ĠI m
áĢĤ áĢŁ
m in
ĠÂ ł
áĢĲ áĢĿáĢĦ
áĢĻ áĢŀáĢĲ
ĠAs ia
áĢŁ áĢŀ
l es
áģĪ áģĩ
it h
ti f
ĠáĢŀ áĢĩáĢĦ
ĠC ity
ĠâĢĪ âĢĪ
osi tive
áĢĮ áĢĻ
Ġáģĥ áģħáģĢ
ĠáĢľ áĢĿáĢĢ
ĠáĢĶ áĢĿ
S c
ĠSt ay
f or
áĢĻ áĢľáĢĦ
ĠáģĤáģĢáģĢ áģĦ
ebs ite
ĠáĢĶ áĢĴ
SEA N
r ess
ĠáĢľ áĢģáĢĶ
ĠáĢĻáĢĦ áĢļ
ĠP ower
ĠáĢħ áĢĸ
áĢ¼áĢ½ áĢ¾áĢ¬
áĢĴ áĢĤ
ĠNow áĢĢ
ĠB urma
et work
ĠáģĤáģĢáģĢ áģĥ
ðŁļ¥ ðŁļ¥
t o
áĢŀáĢľ áĢħ
ĠáĢ§ áĢĢáĢĶ
ĠP ublic
áĢĦ áĢľ
áĢĳ áĢĿáĢĦ
ĠáĢ¡áĢħ áĢĦ
ĠáĢ¡áĢĶ áĢĶ
am e
áģģáģīáģĩ áģĦ
D aily
áĢĻ áĢĺ
ĠáĢĳ áĢĽ
ĠUS DP
ĠW h
ĠáģģáģĦ áģĢ
ĠJ ICM
Ġc om
at or
ag ement
um an
c l
p or
ĠáĢļ áĢļ
at a
ĠB ank
Ġ ac
áĢ½áĢ² áģį
ĠC ol
ation s
y s
áģģáģī áģĤáģĢ
ĠC ar
áģ ½
áĢ¡ áĢĽáĢĢ
ĠM O
ĠR ep
f l
H ome
áĢĽ áĢĨ
ĠR FA
ĠáĢ© áĢĿ
ĠPro ject
ĠáģĪ áģĦ
Ġáģĩ áģĨ
ĠáĢĸ áĢľáĢĦ
áĢĨ áĢĻ
al th
av irus
in s
A C
er n
K IA
Ġáģģáģīáģī áģĨ
l and
áĢ¡áĢĽ áĢĻ
b log
Ġáģģáģīáģĩ áģĦ
ig h
ee k
áĢ¶ áĢ¸
Ġáģī áģĤ
áĢ¡ áĢĺáĢļ
áĢĻ áĢĽáĢķ
E leven
áĢĻ áĢħáĢĢ
i el
áĢĴ áĢĸ
ĠC N
el f
áĢĤ áĢĽáĢĢ
Ġáģģáģī áģħáģĢ
áĢĲ áĢĹ
al ity
T r
r om
ĠH ome
ĠáĢĻ áĢģáĢĶ
áģģáģīáģī áģī
ĠEn g
ĠáĢ¡áĢĽ áĢģ
ĠáĢķáĢĳ áĢĻáĢĲáĢĶ
áĢº áģĮ
áģī áģģ
ĠáģģáģĨ áģĢ
on avirus
ĠS ystem
Ġáģī áģĢáģĢ
áģģáģīáģī áģĥ
Ġáģģáģīáģī áģĩ
ĠC E
áĢķ áĢ¿áĢĶ
O B
ĠOn line
áĢ¯ áĢŃ
ĠN o
ĠCC TV
et ing
g y
áĢĢ áĢķáĢĦ
áĢľ áĢľ
áĢĤ áĢĦ
m y
áĢĹ áĢĲ
ĠM iss
áģħáģĢ áģħ
ĠáĢŀ áĢĹ
Ġáģģáģĥ áģĢáģĢ
ur al
áģģáģīáģĦ áģĨ
conom ic
r al
R ef
1 1
c ount
áģģáģīáģī áģĩ
R TA
ĠáĢĻ áĢĨáĢĢ
Ġáģģáģīáģī áģħ
ĠM I
ĠáĢĲ áĢľáĢĦ
áĢ±áĢ« áĢ¸
a j
m l
áĢĻ áĢĳáĢĦ
F acebook
Ġáģģáģī áģĤáģĢ
ĠP ost
HR D
ĠG DP
ur m
ĠCh ina
ĠSh are
áĢ¡ áĢŀáĢĶ
e ed
Ġ Q
áģģáģģáģ Ħ
C on
y n
ĠIn stitute
áĢ¼áĢ±áĢ¬ áĢ·
ĠF l
áģģáģīáģĦ áģī
ĠG reen
ĠG oogle
C redit
ĠV ideo
ĠáĢĲ áĢŁ
áĢ¡ áĢļáĢĢ
ĠU E
ĠL aw
áĢĻáĢĲ áĢľ
ang e
w ard
áĤ Ĭ
E n
Ġáģĩ áģĩ
áģģáģīáģħ áģĪ
ound ation
at ch
c tion
v est
â Ļ
áĢģ áĢĽáĢĻ
ĠâĢ Ŀ
áĢĺ áĢľ
áģĪ áģĢáģĢ
áģĤáģĢáģĢ áģģ
ĠY RTA
Ġáģģáģīáģī áģī
o on
áĢ¸ (
áĢģ áĢľ
áĢ¡ áĢĶáĢļ
ĠáģĦ áģĥáģĨ
ar m
áģģáģīáģī áģħ
a ti
t ure
áĢħ áĢĸ
L P
Ġ :
áģĤ áģħáģĢ
ĠáĢħ áĢŀáĢĸ
ĠáĢ¡áĢĽ áĢľáĢĬ
áģģáģīáģĨ áģĥ
ire ct
D B
G roup
ĠáĢ¥ áĢĴ
ĠáĢĲ áĢľáĢĢ
Ġ ch
ic ro
áģĢ áģĪ
A g
ĠáĢ¥ áĢĻáĢĦ
ĠW ork
ĠáĢ¡áĢŀ áĢĽ
ĠA SEAN
Ġáģī áģĨ
áģģáģīáģī áģģ
áģģáģģáģ Ĥ
ĠM R
ĠJ ICA
áģģáģīáģī áģĦ
---- ----
our ce
áĢķ áĢĪ
áĢºáĢ· áģĭ
ĠáĢ¡áĢĽ áĢĲáĢĽ
ĠD PN
áģģáģīáģī áģĤ
ig ital
r on
áĢĴ áĢ¿áĢĻ
ĠM od
ĠK G
c k
ĠáĢĨ áĢľ
en e
ĠáĢĳ áĢĺ
ĠĠ ĠĠ
áģĤáģĢáģĢ áģĤ
áĢ¥ áĢķ
G overnment
i tion
Ġáģģáģīáģī áģĦ
ise ase
m m
áĢŃ áĢ¶
áĢŃ áĢºáĢ¯
áĢº áĢ°
áĢĦ áĢĽ
áģ ¥
Ġáģģáģīáģī áģĥ
iti es
A N
~ ~
le ct
ĠM in
ht ml
áĢĽ áĢĿáĢķ
Ġáģģáģģáģ Ħ
áģģáģīáģĩ áģħ
E x
áĢ»áĢ¬ áĢº
t s
ĠT echn
áģģáģīáģĨ áģĦ
áģģáģīáģī áģĨ
T NLA
Ġáģĩ áģĢáģĢáģĢ
ĠW e
mar t
ĠáģĪ áģĨ
i ence
áĢĲ áĢľáĢĦ
ĠApp le
ĠáĢĻ áĢĽáĢĦ
áģģáģīáģĦ áģĤ
ĠáĢĻáĢĽ áĢĸ
áĢ¾ áĢ²áĢ·
áĢľ áĢŁ
ĠáģĪ áģĤ
ĠD KBA
Ġáģģáģĥ áģħ
ĠáĢ¡áĢľ áĢĶ
ĠáģĨ áģģ
w e
Ġáģģáģĩ áģĢ
áģģáģīáģī áģĪ
A n
T E
ĠC he
áĢķ áĢī
Ġáģģáģģáģ Ĥ
ĠáģĤáģĢáģĢ áģĢáģĢ
ĠSch ool
ĠSt ate
a u
ĠáĢľáĢĻ áĢĦ
áģģáģī áģĥáģĢ
ĠUE HRD
ĠU EC
ir st
V B
ĠáģĤáģĢáģĢ áģĤ
ĠM s
ĠIn t
áĢĻ áĢĩ
ĠáĢ¥ áĢķáĢħ
al ay
ĠáģĤáģĢáģĢ áģģ
ĠáĢĻ áĢĸáĢĢ
ĠP art
Ġáģī áģĪ
ĠKN PP
ic y
áģģáģĥ áģĢ
áģģáģīáģĨ áģģ
ĠáĢĴ áĢ¿áĢĶ
== ==
áĢĻ áĢĢáĢĻ
oh n
ĠáĢ¡áĢĽ áĢĴ
áĢ¼áĢ¾ áĢ±áĢ¸
Ġáģĩ áģī
it t
Ġáģģáģīáģī áģĤ
ĠCor onavirus
áĢĲ áĢľáĢĬ
áĢŃ áĢº
áĢĸ áĢģáĢĦ
ĠáĢ¡áĢĽ áĢļ
k ill
ĠáģĦ áģħáģĢ
ĠáĢĻáĢķ áĢħ
áĤ ı
r es
N GO
áĢŀáĢĶ áĢĬ
áģģáģīáģħ áģĥ
ĠáĢľ áĢĽ
ĠáģģáģīáģĪ áģĤ
____ ____
ĠáĢ ª
áĢ¡ áĢħáĢķ
áĢ© áĢĤ
ĠáĢ¡áĢģ áĢĽ
l i
ĠáĢķáĢĬ áĢĲ
ĠáĢĽáĢŀ áĢħ
Ġs h
áģģáģīáģĩ áģĤ
o om
ĠáĢĿ áĢħ
ĠM obile
f ess
ĠPe ace
U N
áĢĻ áĢĿáĢĶ
áĢĻ áĢŀáĢĦ
áĢĽ áĢŀáĢľ
áĢ¡ áĢĤáĢĲ
ĠâĢ ĥ
ĠT om
áģĦ áģĢáģĢáģĢ
O R
ĠA BSDF
ĠáĢĢáĢı áĢĶ
om a
tic s
áĢ¯áĢ¶ -
ĠáĢĻáĢľ áĢĦ
form ation
áģĩ áģĢáģĢ
ĠP N
s on
ĠáĢĻáĢĽ áĢŀáĢĬ
ĠS ervice
T I
ĠC ap
áģģáģĢ áģħ
ĠáĢĿ áĢ¥
áĢĴ áĢĲ
ĠA I
ĠP C
at t
Ġáģĥ áģĢáģĢáģĢáģĢ
y l
a o
áĢį áĢĶ
ult ure
MF CCI
ĠE m
ic es
ic ation
at ed
i x
Ġ ;
Ġ Ã
ĠW in
U S
áģģáģīáģĨ áģħ
áģģáģīáģħ áģī
a e
áĢĿ áĢħ
ĠR eg
et er
Ġ is
áĢħ áĢĳáĢĽ
ĠáĢĺ áĢħ
ĠP re
ĠT V
Ġáģģáģīáģī áģģ
K N
o e
ĠáĢĲ áĢı
ec tion
2 2
áģģáģħ áģĢáģĢ
ĠáĢ» áĢ¬áĢ¸
ĠáĢĲáĢĬ áĢĦ
áģģáģīáģħ áģĨ
5 0
ĠC B
y m
ĠM ed
ri v
áĢ¯ áĢ¯
ĠáĢ¡áĢĽ áĢŁ
ĠC ard
ĠCent re
A r
áĢĨ áĢľ
Ġáģī áģģ
ic k
ĠD NA
Ġt h
ĠA b
áĢĿáĢĿ áĢĿáĢĿ
áģģáģīáģħ áģĤ
Ġ le
áĢĲ áĢĨáĢĦ
ĠP ark
ĠF AO
ĠáĢģ áĢħ
er áĢĢ
ir rawaddy
áģģáģīáģĦ áģĢ
al e
is ion
ĠThe Daily
ĠáĢĲ áĢĤ
ĠáĢĻ áĢħáĢħ
Ġáģģáģīáģī áģĪ
áĢ»áĢ¾ áĢŃáĢ¯áĢ¸
ĠáģĪ áģĥ
r ate
ĠP ar
áģģáģīáģĦ áģģ
áĢ® áĢ½
ĠT eam
on al
re at
Ġf acebook
ĠáĢķáĢĳ áĢĻáĢĲáĢħ
áģģáģī áģĥáģī
ĠJ ournal
N ews
P E
C l
ĠáĢķ áĢĿ
áĢ¡áĢģ áĢĲ
In d
áĢĢáĢľ áĢħ
ĠAA áĢĢ
ĠNLD áĢ¡áĢħ
R es
áĢ« áģį
ing s
áĢ¿ áĢķ
D I
ĠáģĪ áģĢáģĢáģĢ
A c
Ġáģī áģĩ
ĠáĢĴ áĢķ
7 0
al k
áĢĳ áĢĽáĢħ
Eleven áĢŀáĢĲáĢĦ
áĢĲáĢĽ áĢļ
8 0
ĠáĢĽ áĢĻáĢĶ
er ation
ĠM us
ĠE U
am s
ĠOr gan
áĢĢ áĢĲáĢĦ
ĠáĢ¡áĢľ áĢħ
ĠU MFCCI
áģģáģīáģĨ áģĪ
ro p
ĠáģģáģĦ áģĦ
i áĢĢ
s p
ĠM on
ĠT our
ĠK h
ĠBl ack
áĢĿ áĢł
ĠáĢŀáĢľ áĢĦ
oy al
ĠTim es
v el
ĠâĢĮ âĢĮ
ĠCh ar
w ay
ĠáĢĻáĢķ áĢĲ
áģģáģīáģħ áģĦ
áĢ« áĢº
ĠD is
áģģáģĨ áģĢ
ĠáģģáģīáģĨ áģĦ
r is
y d
áĢº áĢ¬
Ġáģī áģĥ
áĢ²áĢ· áĢ·
áģĨ áģĢáģĢáģĢ
ĠTheDaily ElevenáĢŀáĢĲáĢĦ
áĢºáĢ¸ "
ĠF OB
pr ess
áĢĽ áĢŁáĢĶ
ID S
áĤ Ģ
ĠComm unity
ĠH u
and ard
ight s
at es
urm ese
áĢŀ áĢľáĢĦ
ĠáģĪ áģĩ
áĢħ áĢľáĢĻ
ĠáģĪ áģģ
ĠL td
ĠáĢķáĢĳ áĢĻáĢĲ
ub e
ĠáĢ¡áĢķ áĢľ
or n
O A
ĠP age
áģ ¤
ĠM IC
ĠUN DP
áģģáģīáģĩ áģĨ
ĠD em
b le
ĠA m
i tical
ĠD e
áĢ¤ áĢŀáĢĬ
ĠC amp
ven tion
T C
ĠáĢ¡ áĢĹ
Ġáģħ áģĢáģĢáģĢáģĢ
ĠP er
H CR
ĠáĢķ áĢŀ
3 0
I P
áĢĮ áĢĻáĢĲáĢĶ
ĠR ec
M edia
it s
ĠM ess
ĠO ff
r ation
ĠáĢĲ áĢĺ
ĠáĢĢ áĢĲáĢĦ
áĢ¼áĢŃ áĢ¸
ĠáĢĻáĢĳ áĢŀ
ĠI DP
anc ing
ĠáĢħ áĢĲáĢĻ
H A
áĢĴ áĢħ
at Home
ĠSt ar
iel d
Ġ k
áĢĽáĢĻ áĢľ
ĠPro gram
Ġáģģáģīáģĩ áģħ
R A
ĠáĢĤ áĢĽáĢķ
Ġáģģáģģáģ ĥ
áĢĲ áĢĿáĢĶ
ĠáĢĲ áĢĴ
ĠT ax
ĠIn ter
áĢĲáĢķ áĢĬ
ĠL evel
ĠáĢŀ áĢĿ
Ġ1 0
ĠM e
ĠAn d
r or
ĠáĢĽ áĢĭ
áĢĹ áĢļ
ĠF ood
áģģáģīáģĪ áģħ
p le
ĠáģĢ áģī
áģģáģī áģĥáģĨ
ĠN M
ĠP S
In ternational
ĠS ing
ĠáĢ¹ áĢ·
erv ices
ĠS ur
eek ly
D evelopment
Â ł
ti m
ust om
Ġáģģáģģáģ Ī
ĠáģģáģĤ áģħ
rain ing
n ess
áĢĲ áĢĺ
er y
L F
ĠR ef
áģģáģīáģĨ áģĩ
y e
re ed
ĠáģģáģīáģĨ áģĥ
ĠA LP
Ġáģī áģĦ
g en
er t
ur es
lic ation
ĠP ositive
áĢĵ áĢĶ
áģģáģģ áģĢ
ĠáģģáģīáģĦ áģĨ
N ow
o em
áĢĿ áĢħáĢī
ĠáĢļ áĢĻáĢĢ
or row
Ġ ~
ĠáĢ¡ áĢĿáĢĿ
ĠáĢŀáĢĽ áĢı
ĠáģģáģīáģĦ áģī
áģģáģīáģħ áģħ
Ġ LD
Ph one
ĠáĢ į
i ef
u th
ĠF ac
at eral
áģģáģīáģĪ áģĤ
uter s
áĢ² ..
ĠN etwork
ĠSt ud
ĠáĢĻáĢĽ áĢĽáĢĦ
ĠM aster
ĠH uman
N C
p t
áģģáģģáģ ħ
PS T
ruc ture
ĠáģĪ áģī
áĢļ áĢĻáĢĶ
ĠE conomic
d er
áĢ¬ ..
áģĢ áģī
NLD áĢķ
áģģáģī áģĥáģĪ
ĠáĢľ áĢĨ
os e
Ġ at
ĠáĢĲ áĢľáĢĻ
ĠP PST
ĠF in
ĠD VB
ĠUn ion
vest ment
e ach
ĠT el
en ti
one y
P lan
T S
ĠL and
áĢĩ áĢĿ
áĢ»áĢ° áĢŃáĢ¸
ur ity
irect or
h ip
ĠM PT
Ġd e
A pp
I F
O M
ĠP R
oci ation
A l
ĠáĢĽ áĢĴ
l a
Ġ y
ĠáģĤáģĢ áģĥáģĢ
ĠB ar
in c
Ġ _
Ġáģ ¾
ĠáĢķáĢĳáĢĻ áĢ¡áĢģ
ĠG old
áģģáģīáģĨ áģī
i am
G F
áĢ½áĢ¬áĢ¸ áģį
áģģ áģĢáģĢáģĢáģĢ
re am
op h
Ġâ ĪĴ
E F
ĠM icro
ĠD igital
ĠW ebsite
áĢĻ áĢ¡áĢķ
Â °
ĠáĢ¡áĢĳ áĢĻ
* *
w are
Ġáģģáģħ áģĢáģĢáģĢ
ĠI s
y a
ĠáĢĽ áĢĿáĢĻ
áĢĩ áĢľáĢķ
ĠI LO
ĠCE O
Cent er
ĠM and
ib er
t or
â ĸ
n ow
áĢ« áģĭ
eng er
mer ic
ĠUN HCR
PN CC
u le
Ġ ]
áĢħ áĢĵ
áĢĽáĢķ áĢĲ
Ġ. áģĭ
per ation
Ġ \
áĢĽ áĢħáĢī
M r
ĠS er
áĢĬ áĢĬ
ĠC oun
ĠD ay
âĢĪ âĢĪ
Ġp h
Ġ ex
in es
le y
oc r
áĢļ áĢķáĢĲ
ĠáĢĻáĢĸ áĢĻ
ĠB BC
Ġáģģáģģáģ ĩ
ann el
áĢĴ áĢĳ
M an
ĠáĢķ áĢļáĢĦ
er ing
ĠJ ohn
áģģáģīáģĩ áģī
ĠPro duc
ĠáĢĽ áĢĻáĢĦ
E N
ĠáĢ¡áĢĸ áĢĶ
áģĥáģĢ áģĤ
Ġw ww
T O
ĠáĢĦ áĢķáĢľ
ĠáģģáģīáģĪ áģħ
áģģáģīáģħ áģĩ
Ġ ðŁ
áĢ¸ áĢº
áĢķ áĢ¡
áĢľ áĢģáĢĶ
âĢ Ķ
am b
B Z
Ġáģģáģīáģĩ áģĨ
KN U
ĠáĢĲáĢħ áĢĦ
ĠO p
uc k
s ia
áĢŀ áĢĽáĢĶ
áģģáģīáģĩ áģĥ
ak a
l ish
ĠáģģáģīáģĨ áģħ
áģģáģīáģĩ áģĩ
v is
áĢº áĢ±
ĠáĢĻ áĢĿáĢĲ
ĠM P
ĠR ed
ol ution
ĠáĢ± áĢ¬
ĠGen eral
Ġáģģáģī áģĥáģĢ
tif ic
W C
le d
ĠC redit
at ing
áĢĻ áĢĲáĢĦ
ĠáĢĶ áĢĽáĢķáĢĲ
áģģáģĦ áģĢ
ĠáģģáģīáģĦ áģĤ
áģģáģīáģĪ áģĨ
1 7
i ang
ĠN DAA
ĠF PNCC
p ro
le ge
Ġáģģáģīáģħ áģĪ
áĢĹ áĢĬ
ĠD isease
stit ution
E S
s c
s áĢĢ
ĠA FP
ĠáĢĽ áĢŀáĢĢ
Qu arantine
ĠC r
ĠMo U
ĠNM SP
áĢħ áĢŀ
áĢģ áĢħ
ĠS SA
re ement
b y
i er
r id
áĢĤ áĢĻ
ĠáĢ¡áĢĦ áĢĲ
ĠáĢĻáĢģ áĢĢ
ul ar
ĠK y
ra ph
a ung
áĢŀáĢĶ áĢķ
iz z
ĠInd ust
S ystem
o tion
o ard
Â ´
ĠG AP
ĠáģģáģĪ áģĢáģĢ
áĢĲ áĢģáĢĦ
áĢ²áĢ· ..
ĠáĢ¡áĢĢ áĢĦ
áģģáģĩ áģĢ
I N
op le
od y
ĠáĢ¥ áĢĻ
il ateral
áĢĲ áĢĩ
áĢĬ áĢģ
er o
ec ial
orm al
ĠáĢĿ áĢľ
áģģáģī áģĥáģĩ
ĠC O
ĠR ev
áĢ±áĢ·áĢ« áģĭ
C P
O r
Ġáģģáģģáģ Ĩ
áĢº -
Ġáģ ¤
ti ce
ĠáģģáģĨ áģĢáģĢ
im a
ÃĹ ÃĹ
áĢĸ áĢĬ
áĢĻáĢĢ áĢĦ
ĠR el
ers hip
c il
h a
ĠâĢĭ áģĭ
et t
áĢ¯áĢ· áĢŃ
reed om
O T
áĢ¼áĢ¯áĢ¶ áĢ·
it or
ĠR oyal
áģģáģīáģĩ áģģ
ist ancing
ĠáĢ¡ áĢĦáĢĶ
ĠW ater
áģģáģīáģħ áģģ
ĠáĢķáĢĳáĢĻ áĢģ
áĢĽáĢľ áĢĴ
ĠáģģáģĦ áģĢáģĢ
en z
ĠA ut
áĢĢ áĢĢáĢĦ
Ġáģģáģīáģħ áģĥ
fess ional
C S
áĢ ª
P l
áĢĲ áĢĸáĢĢ
Un iversity
ic s
Ġb y
G S
o le
ĠáĢĲáĢħ áĢĬ
fer enc
o ve
ĠáĢĩ áĢĽ
d ay
áĢĳ áĢĽáĢĶ
Ġ1 2
áģģáģīáģĪ áģĩ
iss ion
ĠComp any
I M
áĢº .
ĠI d
ĠPN LO
ĠCon s
an áĢĢ
ĠI CC
ĠG e
áģģáģĥ áģĢáģĢ
ĠáģģáģīáģĪ áģĨ
áĢħáĢĽ áĢħ
ĠF oundation
im ited
áĢ® áģı
áģĪ áģĢáģĢáģĢ
ĠP ass
ĠF ree
ad em
ĠáģģáģīáģĨ áģģ
Ġáģģáģīáģĩ áģĤ
ĠAl l
áĢ¡ áĢĿáĢĲ
áĢĸ áĢħ
ul l
aw ei
áĢ¡áĢĳ áĢĦ
áģĤáģĢ áģĥáģĢ
ĠI T
Ġ0 9
áĢº áĢŃ
ĠS u
áĢ« "
áģģáģīáģĨ áģĨ
Ġáģĥáģħ áģĢáģĢ
Ġáģģáģīáģħ áģĨ
eg ative
áĢŀáĢĻ áĢĶ
áģĥ áģħáģĢ
ĠS um
ot a
ĠMan agement
1 5
Ġáģģáģģáģ ī
ĠáģģáģīáģĪ áģĩ
Ġ an
el t
ĠW eekly
ĠO IC
u ild
áĢľáĢĢ áĢĲ
áģģáģģáģ ī
ti s
â ĪĴ
áĢĻ áĢŀáĢĶ
ĠáĢħ áĢľáĢħ
er c
áģģáģīáģĩ áģĪ
m ail
áĢŀáĢļ áĢĽ
áģģáģīáģĦ áģĦ
ĠStay atHome
1 4
i or
Ġ j
it er
ĠE lect
ĠV ol
im e
ĠáģģáģīáģĨ áģĪ
R e
un e
L M
ĠáĢ¥ áĢŀ
ar i
ĠS oft
ĠáĢķ áĢŁ
at s
ĠE d
ĠáĢĲ áĢĻáĢľ
áģĩ áģĢáģĢáģĢ
áĢ« ..
ĠD ep
E T
Ġ [
áĢŀ áĢŀ
áĢĻáĢĽ áĢĸ
00 0
er m
ĠA T
Ġáģģáģīáģĩ áģĥ
ĠáĢĵáĢĶ áĢŀáĢŁ
p ing
áĢĽ áĢľáĢĢ
ĠAc tion
p ar
áĢº áĢ·áĢº
áĢ»áĢ¬ áĢ·
ĠD o
f r
áĢº áĢ»áĢ¬
ĠF irst
ĠH ar
am a
ra k
ĠS ky
ĠMR TV
en n
ĠT est
ĠáĢ£ áĢĶ
A d
áĢĽ áĢĻáĢŁ
áĢĽ áĢĺáĢĢ
ĠáĢ¡áĢĽ áĢ¡áĢŀ
áģĤáģĢáģĢ áģĢáģĢ
E SC
áĢĻ áĢĵ
ĠNCA áĢľáĢĢ
Ph oto
ĠáĢĲ áĢģáĢĶ
áĢ¥ áĢĻ
ĠFor um
oci ety
ĠáĢĢ áĢĢáĢĶ
ĠáĢļ áĢĻáĢĦ
ĠáĢ§ áĢģ
T U
ĠH ouse
ĠáģģáģīáģĨ áģī
E M
ĠáĢŀáĢĻ áĢķ
ĠS elf
ĠV al
art ment
áĢºáĢ¸ /
ap an
1 3
áĢĵ áĢĿ
áĢ¥ áĢĴ
ĠIn tern
Ġt r
S R
ĠáĢĲ áĢĿáĢĦ
áģģáģī áģĥáģħ
ĠF A
ĠB GF
áĢĴáĢĢ áĢĲáĢĢ
P A
ĠáĢĲ áĢĶáĢļ
áĢ¡áĢĽ áĢŀ
ĠáĢĻáĢħ áĢĶ
Ġp ost
áģģáģīáģĪ áģĦ
ĠAn ti
ocr acy
d om
áĢ¬ "
ect or
n ews
t op
áĢºáĢ¸ ..
ĠS w
áĢ¸ âĢĭ
áģģáģīáģĪ áģĥ
áĢ¸ áģĬ
ĠS mart
ĠA C
Ġáģģáģīáģĩ áģĪ
ĠáĢĻáĢĽ áĢĬ
áĢ¿ áĢļ
at ure
ferenc ing
ĠáĢ¡áĢĽ áĢ¡áĢģ
ĠA DB
ĠáģģáģĢ áģģ
9 5
ĠS ub
áĢ¡áĢĨ áĢħ
ĠL ab
ĠáĢĻáĢĲ áĢķ
ĠM H
is a
ĠL ike
us iness
Ġm ask
áģģáģīáģĪ áģģ
1 6
áģ ¼
ĠA t
ĠáģģáģĢ áģĪ
CC T
201 6
O C
áĢĶ áĢĸ
ĠáĢĽ áĢ¡áĢĻ
an a
ĠAA áĢ¡áĢĸ
ĠGr and
F or
e ver
Ġ +
áĢŃáĢ¯ áĢ¯áĢ¸
áģģáģĤ áģĢáģĢ
ĠFacebook áĢĢ
Ġ app
áĢºáĢ¸ áģĭ
áĢŁ áĢĻ
ĠRes earch
ĠPol itical
o áĢĢ
ol ar
áĢ¤ áĢŀ
ot h
ir d
ĠMS ME
áĢ µ
áĢŀ áĢ¡áĢĶáĢĸ
Ġáģħ áģħáģĢ
ar ch
ĠB ilateral
ĠH igh
Ġi Phone
C or
áĢĢ áĢĢáĢĻ
ĠS AR
ĠE l
áĢº áĢ¬áĢ¸
ĠM PC
ĠHe alth
I m
áĢĵ áĢĿáĢĦ
ĠC SO
ĠS un
ĠáģģáģīáģĨ áģĩ
IT I
áĢĻ áĢľáĢĢ
áĢĩ áĢľ
áģĢáģģáģ ī
W orld
áĢ² áĢ²áĢ·
áĢ¸ áģı
ber g
A ss
ar g
ĠL ife
áģĤáģħ áģĢáģĢ
áĢ¼ áĢ¾áĢ¬áĢ¸
Ġáģģáģīáģĩ áģī
âĸ ł
Ġ ĠĊ
áģī áģĢáģĢ
áĢĴ áĢľ
ĠáĢŀáĢĻ áĢĶ
ĠB i
ĠR oad
ĠáģĦ áģĢáģĢáģĢáģĢ
ĠIC T
H e
Ġ em
ti l
is ter
áģģáģĦ áģĦ
ĠáģĤáģĦ áģĢ
áĢ½ áĢ¸
id ent
Ġáģģáģīáģĩ áģģ
ĠáĢĵáĢĶ áĢĽ
ĠáĢ½ áĢ¾
201 3
ĠRe uters
áĢĲ áĢŀáĢĲ
ĠáĢĲ áĢĽáĢĦ
ĠáģĤ áģĥáģĢ
ĠáĢĻáĢĩ áģ¥
Ġáģģáģīáģħ áģĤ
ĠTom orrow
áĢĸ áĢĦ
áĢĲáĢĽ áĢŀ
Ġáģĩ áģħáģĢ
ĠH R
ĠRep ort
ĠáĢĳ áĢĽáĢĶ
áĢĻáĢĲ áĢĸ
es h
us h
ĠOrgan ization
ĠáĢ¡áĢħ áĢ¡áĢĶ
ad ing
ri b
iv il
I I
áģ ¨
por ation
r and
áĢĬ áĢķ
áĢĤ áĢļ
ĠáĢķáĢĳáĢĻ áĢ¡
ĠáĢķáĢĳáĢĻ áĢķáĢĲ
ĠD el
ĠW E
of f
áĢĢáĢĮ áĢĢ
ĠáĢĩ áĢĿ
ĠB ox
ĠL ive
áģģáģīáģĦ áģĥ
ĠáģģáģīáģĪ áģĦ
ĠUn ited
ear ning
ĠáĢĺ áĢĽáĢĶ
ĠA P
mar k
ount ry
ĠáĢĶ áĢķáĢĶ
áĢŀáĢļ áĢĲ
ĠTechn ology
ĠG o
áĢķáĢĳáĢĻ áĢ¡áĢĢ
ĠáĢĲ áĢĿáĢĶ
ĠB A
áģģáģĤ áģħ
ra b
2 5
Ġ or
ĠD irector
ĠáģĨ áģħáģĢ
ĠP ay
ĠB ook
ĠCo Ltd
ams ung
u ro
áĢĢ áĢıáĢĶ
ch ool
ell ig
à ¤
ĠáģģáģīáģĦ áģģ
ĠMand alay
i et
ĠO x
ĠH er
áĢĲáĢĨ áĢĻ
ill ion
v ir
ĠáĢĺáĢĿ áĢŀáĢħ
le x
ine ering
le t
ĠáĢ¿ áĢĶ
oem aka
R O
ĠáĢĽ áĢĤ
ĠS ervices
ĠP PE
áģĤáģĢáģģáģĪ áģĤáģĢáģģáģī
K NLA
u y
w in
or s
re et
riv ate
ĠáĢħ áĢ¡
ĠáĢ¡áĢĽ áĢ¡áĢĢ
ĠA meric
Ġáģģáģģ áģĢáģĢ
Ġc on
P ol
f ord
Ġ up
Ġ qu
ĠáĢĲ áĢĲáĢĶ
áĢĻ áĢ¡áĢĦ
ĠáĢĽáĢĢ áĢĶ
Ġáģģáģī áģĥáģī
os s
áģģáģģáģ ĥ
Ġáģģáģīáģħ áģħ
áĢº áĢº
áĢĢ áĢĸ
áĢ¾ áĢ«áĢ¸
Ġáģģáģīáģħ áģī
ĠZ h
ĠáĢĽ áĢĹ
ĠáĢ¡áĢķ áĢļ
ĠáģĤ áģĤáģĢ
áģģáģī áģģáģĪ
ĠC y
ĠG ood
ĠIn vestment
áĤ ħ
if ic
áĢ¡áĢĲ áĢĲ
ĠN V
ĠáĢķáĢĳáĢĻ áĢľ
ĠPol icy
ĠMus ic
1 8
a ur
áĢĻ áĢĭ
ĠáĢĿ áĢĿ
ĠI NGO
um p
y áĢĢ
áĢķ áĢĳ
ĠáĢ¡áĢĽ áĢľáĢĢ
áģģáģĢ áģģ
ĠB urmese
ĠSh ow
s et
áĢĿ áĢĨ
áĢĿ áĢĲáĢĽ
ĠS en
ĠY ou
Ġáģģáģīáģħ áģĩ
ĠáĢĻáĢļ áĢī
ustom er
ĠáĢĻ áĢ¡áĢķ
ĠA S
ĠW Y
Ġ xx
áĢ± áģı
áĢ± ..
ĠáĢ¡áĢĻ áĢĢ
ĠáĢħáĢĢ áĢĦ
ĠS af
ĠTim e
4 0
D R
r en
ĠáĢħ áĢĻáĢĲ
ar a
ĠU p
áĢĻáĢĲ áĢ¡
al s
ĠáģģáģĢ áģĥ
Ġáģģáģīáģħ áģĦ
tiv ity
uild ing
Ġ !
ĠáĢĲ áĢľáĢĬ
ĠáĢľáĢĢ áĢĶ
áģĦ áģħáģĢ
ĠS an
ĠM ul
áĢĲ áĢĸáĢĶ
áĢľ áĢĨáĢĶ
Ġáģģáģīáģĩ áģĩ
ĠAr t
ðŁļ¥ðŁļ¥ ðŁļ¥ðŁļ¥
t r
ĠD ata
ĠáĢ¾ áĢ¯
S p
áĢĢ áĢ¿áĢķ
áĢºáĢ· áĢ·
ĠáĢĺ áĢĴ
ĠB RI
ĠG al
qu e
Com p
is k
ad y
ĠAc count
ĠHu awei
áĢĲ áĢŀáĢĻ
on om
ĠT raining
B ank
B urma
h an
et ter
E P
ing ton
el s
am es
ĠáģģáģīáģĪ áģĥ
ĠáĢŀáĢĽáĢı áĢĤ
áĢĻ áĢ¡áĢľ
áĢ¬áĢ¸ ..
ĠáĢĽ áĢŀáĢĶáĢĬ
áĢĽ áĢĲáĢķ
áĢļ áĢĨ
áĢŃáĢ¯áĢ· áĢº
ĠT ra
N O
ĠáĢĺ áĢŀ
áģģáģĥ áģħ
iz er
ĠáĢ ·
ĠS ex
es ign
Ġáģģáģīáģħ áģģ
ĠBr and
M O
áĢ¥ áĢĶ
ĠS al
U P
a ign
áĢĻ áĢĦáĢļ
ĠCont rol
t ain
ĠáĢĻáĢŁ áĢĶ
Ġáģģáģī áģĦáģĢ
áĢ¡áĢĨ áĢĻ
ut y
ĠÂ Ń
IT E
201 4
ĠSAR S
áĢļ áĢ¡áĢĢ
áĢľ áĢģ
áĢĸ áĢĽáĢĶ
on y
áģģáģģáģ ĩ
iv es
áĢºáĢ¸ (
áĢ¯áĢ¶ áĢ¯
ĠáĢĬ áĢĲ
in al
ĠĠĠĠ ĠĠĠĠ
u an
áĢŁ áĢĲ
Ġ201 8
ĠáĢĽáĢŀ áĢĲ
ĠC er
ou d
ĠáģģáģīáģĨ áģĨ
F M
ĠáĢĻ áĢĶáĢħ
ĠS e
ĠEn ter
ĠáĢĲ áĢĹ
áģģáģģáģ Ĩ
ax y
o il
ar ing
ent s
ot her
Ġ' '
áģ »
on ment
áĢĲ áĢ¡áĢŀáĢĦ
ĠL ine
us e
izz ima
áĢ¸ )
áĢ¬áĢ¸ "
áĢĺ áĢģ
in ation
ĠS outh
ec om
u ment
áĢĽ áĢ¡áĢĶ
Ġáģĥ áģĨáģĢ
ĠA ward
ĠSt andard
M ark
m oemaka
ĠáĢĺ áĢĺáĢĢ
ĠM ED
ag er
y c
áĢ± "
áĢ¾ áĢ«
áĢĻ áĢĶáĢħ
áĢħ áĢĿ
áĢ¡ áĢľáĢĬ
áĢĻáĢĲ áĢĬ
ĠSt rate
ĠPr es
ĠáĢ¡áĢĻ áĢľ
Ġ20 0
ĠAss ociation
NE W
áĢĲ áĢĴ
ĠáĢĿ áĢĭ
ĠD own
áģĪáģĪ áģĪ
áģĥáģĩ áģĨ
En g
áĢ² áģĭ
ĠáĢ¡áĢĽ áĢ¡áĢĻ
ĠáĢŀáĢĸ áĢĶ
fer ence
C ol
áĢ¡ áĢĲáĢĢ
ĠU K
ĠáĢľáĢģ áĢħ
ĠMark et
fl u
ĠU SA
am il
ĠáģħáģĢ áģħ
ĠáĢĩ áĢĶáĢĢ
áģģáģī áģģáģĦ
Ġc l
Ġac id
C ont
ĠáĢĢáĢľ áĢħ
áĢĭ áĢĢ
áģģáģī áģĤáģĥ
ĠáĢķáĢĳáĢĻ áĢĢ
ĠáģģáģĢáģĢ áģĢáģĢáģĢ
N DP
t el
áģ ¿
ĠC le
c es
h old
6 0
C N
áĢĻ áĢ¡áĢĸ
áģģáģģáģ ģáģ
O S
Ġ al
Ġáģĥ áģĥáģĢ
ĠáĢĽ áĢħáĢĽ
áģģáģī áģĥáģģ
ĠA LD
ĠL i
áĢĻáĢŀ áĢĲáĢĦ
Ġr es
ĠF reedom
ĠB as
oc al
áģģáģģáģ Ī
ud d
U WSA
ĠáĢĢ áĢŀáĢħ
ĠáģģáģĢ áģĦ
ĠáĢĻáĢĨ áĢķ
ĠNCA áĢħ
O P
áģħ áģħáģĢ
ĠáĢĲáĢģ áĢĻ
ĠáĢĻáĢħ áĢĲáĢĦ
Ġáģģáģĩ áģĢáģĢ
r up
ĠáĢĽ áĢı
re a
ĠáĢĽ áĢĩ
ĠáĢĶ áĢĿáĢĦ
ĠC ase
áģģáģĪ áģĪáģħ
ĠUN A
-------- --------
P r
ĠP PP
ri al
GB T
áĢº áĢºáĢ¸
Ġáģģáģī áģĥáģĪ
ĠáĢķáĢĳáĢĻ áĢŀ
ĠáģĥáģĢ áģĤ
ĠEAO s
G u
u x
ĠáĢĲ áĢĳáĢķ
ĠáĢķ áĢĽáĢĻ
ĠF DI
st ruc
l or
Ġáģģáģī áģĢáģĢ
ĠH ill
re t
Ġe Government
p s
áĢ¡ áĢħáĢħ
RC áĢĲáĢħ
ESC O
e en
ĠP an
ĠIn s
ĠIn formation
ers on
e h
y pe
ĠáĢ °
ĠáĢ¡áĢĽ áĢ¡áĢľ
ĠT er
ro und
ot t
áĢ© áĢħáĢĲ
ul y
ĠPh oto
ord er
ink ing
ĠMED IA
L aw
M ar
áĢĲ áĢŀáĢĬ
ĠáĢĿ áĢĽáĢĻ
Ġáģģáģī áģĥáģĩ
ang u
our t
N T
ĠK BC
ĠV OA
ĠAc adem
Ġ he
ĠáģĬ áģĬ
áģģáģī áģĤáģħ
ĠáģģáģĢ áģĨ
ĠKN LA
ak er
o an
áĢĦ áĢĻ
ĠáĢ¥ áĢ©
ĠáģģáģĢ áģī
ĠUN ESCO
BS ITE
ĠWE BSITE
m unity
ĠN ov
vir onment
E L
áĢĻáĢĽ áĢĲ
ĠáģģáģĤ áģĢáģĢáģĢ
ult ural
3 9
A S
ĠáĢĻ áĢľáĢĢ
ĠE v
Ġp l
os p
áĢķ áĢĶáĢļ
ĠF B
em ber
ĠIC RC
ĠPh D
8 8
Y angon
ĠáĢĻ áĢ¦
ĠáĢĶ áĢĿáĢĻ
áĢľ áĢĲáĢĽ
ĠW eb
ĠáģĤáģĩ áģĢ
M D
áĢĻ áĢĢáĢĶ
ĠD ec
ĠáģĦáģħ áģĢáģĢ
ĠPro fessional
' '
a ul
áĢĤ áĢı
áģĢáģģáģ Ĥ
or th
Ġáģī áģĢáģĢáģĢ
ĠF MI
áĢ¬ âĢĭ
ĠáĢ¡áĢŀ áĢķ
áĢĽáĢģ áĢĢ
ĠO ut
ĠáģģáģīáģĪ áģģ
ĠWHO áĢĢ
ĠMO U
~~ ~~
N ER
áĢĻ áĢ¡áĢĻ
ĠáĢĺáĢĿ áĢĢáĢĶ
or ed
or ity
ĠPro cess
ĠAg ency
áĢ²áĢ· âĢĭ
ĠS pe
ri end
áĢļ áĢĻáĢĢ
ĠC D
ĠA G
âĢĭ âĢĭ
of the
Ġc ont
Ġáģģáģģáģ ģáģ
ĠA ung
ĠL imited
ĠPS LF
K y
áĢ°áĢ¸ áģĭ
áĢ»áĢŃ áĢ°áĢ·
ĠC EC
ĠN CCT
ĠI MF
ĠSp ecial
ĠáģĤ áģģáģĢ
ĠC MP
ĠF und
ĠCh in
Ġw ith
áĢĽáĢŁ áĢĲ
3 5
P e
T our
áĢĢ áĢĲáĢĶ
áģĤáģĢ áģĤáģĤ
f acebook
áĢ° áĢ°
ĠáĢĳ áĢĻáĢĶ
áĢĩ áĢŀ
ĠD av
áĢĻáĢĨ áĢľ
ĠPart y
an e
re f
ip l
ĠMess enger
ĠS amsung
ĠáģĨ áģĢáģĢáģĢáģĢ
ing áĢĢ
ĠY U
us s
áĢºáĢ¸ áģĬ
ĠH y
ĠCh ild
ĠTr ade
áĢļáĢĹ áĢľ
ĠSum mit
l am
ĠáĢĻ áĢĻáĢĬ
áĢĽ áĢĩ
áģĢ áģħ
ĠáģģáģĪ áģĪáģħ
ĠáģģáģĦ áģħ
20 0
eg a
ust ain
M G
ro ss
Ġ áĤ
áģģáģī áģĥáģĦ
ĠM or
ĠR ad
áĢº áĢ±áĢ¬
Ġáģģáģī áģĥáģĨ
ĠM art
ro om
Ġs p
ĠCh annel
y o
ĠJ un
In stitute
fr ast
N ational
S Q
a id
ĠáĢ¡áĢĽ áĢħáĢħ
en ge
ĠH and
ĠJ apan
Ġï»¿ áĢ¸
áĢĥáĢĶ áĢı
ĠComm itt
N ew
ĠáĢ ¸
áĢ¼ áĢ¸
ĠáĢŀáĢĺ áĢĢ
il it
C B
áĢ¼ áĢ½áĢ¬
áĢ°áĢ¸ ..
áĢĢáĢĢ áĢĽáĢĦ
om en
Co V
ĠCommitt ee
áĢĶ áĢĿáĢĲ
in ic
ĠH ard
ĠáģĤáģħ áģĢáģĢáģĢ
R T
ĠC ode
ĠN ation
ĠT op
ĠW ar
oo peration
B l
áģ ¦
ĠáĢĻ áĢĳáĢĻ
áĢĻ áĢ¡áĢģ
ĠáĢ¡áĢĽ áĢĺ
Ġáģĥ áģĪáģĢ
áģģáģī áģĤáģĦ
áģģáģī áģĤáģī
ĠáģĪ áģĢáģĢáģĢáģĢ
áĢĢáĢĢ áĢļ
th er
+ +
h am
áĢ· áĢ»
áĢ±áĢ· áĢ¬
ĠáģĢ áģĢáģĢ
ĠE ITI
20 22
M ask
áĢ® áĢ¯
in o
ap ore
ĠRes p
ĠEng lish
ellig ence
h u
áĢ» áģĭ
áĢ¹ áĢ½
ĠáĢĲáĢħ áĢĢ
áĢĻáĢĲ áĢķ
ĠSc ience
enti al
S M
ĠáĢļ áĢĩ
áĢħáĢĻ áĢĻ
ĠáģģáģĤ áģĦ
ĠL a
IC EF
ex t
ĠJMC U
s áĢĲ
áĢŃáĢ¯ áĢº
áĢĬ áĢĲ
er g
ĠN H
ĠT each
ĠF ed
Ġáģģáģħ áģħ
ĠL ight
áģĤáģĦ áģĢ
eas ures
ĠCol lege
ĠáĢĤ áĢĥáĢĶáĢı
áĢ¡áĢĳ áĢħ
ur n
áĢĻáĢĲ áĢĻ
áģģáģī áģģáģī
áĢĢáĢŀ áĢħ
s áĢĻ
áĢ» áĢ·
ĠáĢĻáĢĽ áĢģáĢĦ
ĠP oint
ĠB re
o or
áĢĢ áĢĩ
ĠáĢĻáĢĽ áĢļ
ĠáģģáģĢ áģĤ
ĠR ights
ĠL eg
ur ance
ĠSec urity
________ ________
tific ate
frast ructure
Ġ `
áĢŃ áĢŃáĢ¯
ĠáĢķáĢĳáĢĻ áĢĻ
ag on
ĠáģĤáģĪ áģĢ
ĠUP WC
SC N
p ly
v iew
Ġáģģáģī áģĥáģħ
áģĤáģĢ áģĤ
ĠL og
Ġ1 8
ĠáģĥáģĨ áģĢáģĢ
ĠEx press
Ġ im
ĠA p
end er
ĠCN F
áģĥ áģĤáģħ
ĠS kill
ag es
M e
áĢŁ áĢķáĢĲ
ĠMyanmar Now
ĠAA PP
ist ry
iti z
âĢĶ âĢĶ
ĠáĢ¡áĢĽ áĢ¡áĢķ
in áĢĢ
ac ific
ĠL ED
oo t
ĠOp en
áģ ±
áĢĲ áĢŁ
er gy
ĠN egative
áģģáģĢ áģĪ
ĠE th
ĠCon vention
Pro ject
ĠTax i
ĠFac ility
A ir
F l
Ġ #
Ġ î
áĢ¯áĢ¶ áģį
ĠáĢĦ áĢĸ
áĢĮ áĢĴ
ĠL ib
ĠIn st
áģĤáģĢáģģáģĩ áģĤáģĢáģģáģĪ
Ġs c
==== ====
áĢ¼ áģı
áĢĽ áĢĿáĢĶ
áĢ±áĢ¸ áģĭ
ĠS em
ĠH old
ro id
ap er
ep end
M NDAA
N I
ĠáĢĻ áĢī
at her
all enge
ash ington
vis ional
ĠáĢħ áĢĶáĢĢ
ĠáĢŀáĢĻ áĢĢ
ĠáĢĻáĢĢ áĢĢ
ĠE qu
ĠV ir
h i
Ġ $
ĠâĢ į
ĠP op
ud e
ĠComm un
ĠLe ad
ĠMI CC
ĠTour ism
struc tion
G en
P I
is c
ĠL GBT
ĠáģģáģĨ áģĪ
ĠAr my
ĠLD U
ĠáĢ¡áĢħ áĢ¥
ĠN e
ĠáģĪ áģĪáģĪáģĪ
he m
ĠApp lication
D áĢĢ
áĢ¡ áĢŀáĢĬ
ĠR ob
ers onal
ĠGold en
ĠCP I
T ube
áĢ± )
áĢ¾ áĢ¾áĢ¯
áĢĻ áĢ¡áĢĽ
ĠáĢħáĢĢ áĢĶ
ĠáĢĻáĢĶ áĢĶ
ĠN g
áģģáģĢ áģĨ
ĠD oc
ĠCap ital
ĠFOB áĢĲáĢħ
áģģáģī áģģáģĩ
áģģáģī áģĤáģĤ
áģģáģī áģĤáģĪ
ĠM ich
ĠK BZ
us tice
áģ Ŀ
er e
ĠáģĪ áģħáģĢ
Ġp r
ĠAg reement
< áĢ½
ĠA D
ĠB al
og ue
AC E
angu age
áĢºáĢ¸ -
áĢĲáĢĽ áĢĲ
ĠáĢķáĢĳáĢĻ áĢ¡áĢŀ
ĠáģĤáģĦ áģĢáģĢ
ri p
C áĢĢ
M ed
e el
ĠS D
ĠS E
ac ity
ĠG overnment
ĠIS IS
M EC
s y
Ġ Ì
ĠáĢĻ áĢħáĢķ
ĠáĢĤ áĢŁ
ĠáĢĲáĢĽ áĢħáĢķ
ĠL earning
ĠO b
Ġ201 3
ĠChe ck
ĠGal axy
2 6
H E
o id
áĢ½ áĢ·
ĠáĢĽ áĢĻáĢĽ
ĠáĢ¡áĢĽ áĢĹ
ĠS il
ĠF ore
áģĤáģĢáģģáģī áģĤáģĢáģĤáģĢ
ustain able
ĠáĢ ²
ĠS K
áģĤáģĢ áģģ
ĠáģĤáģĢ áģĤáģĤ
ab ility
A sia
T est
m ed
áĢ¼ áĢº
ĠáĢĢ áĢĬáĢĦ
áģĨ áģħáģĢ
ĠáĢķáĢĳáĢĻ áĢħ
ur g
ĠáĢ± áĢ»
Y A
r rawaddy
áģģáģī áģģáģĤ
ĠC ountry
ep h
C O
d r
ĠáĢĲ áĢĴáĢĦ
ĠN DF
ĠN NER
ĠP al
ĠK ar
oc us
ch ange
T eam
ĠáģģáģĤ áģĥ
ĠI R
ĠW atch
áĤĢ áĢĢ
S ervice
T echn
áĢĲ áĢĲáĢħ
ĠáĢħáĢķ áĢļ
ĠA IDS
ĠW is
ant s
C D
áĢħ áĢľáĢħ
ĠáĢŀ áĢī
ĠáĢħ áĢĽáĢĶ
áĢĿ áĢĴáĢĲ
áĢĲáĢĽ áĢĸ
ar th
áĢĽáĢĻ áĢħ
ĠK ing
O n
S I
áĢ± áģį
ĠP at
ĠáĢŀ áĢĻáĢļ
áģĤ áģĨáģĢ
oc ide
ĠUN ICEF
ib le
áĢĢ áĢĽáĢĶ
áĢ±áĢ¸ âĢĭ
ĠáĢ¡áĢĳ áĢħ
áĢľáĢĻ áĢĦ
ac ter
Ġâ Ļ
ĠPr ess
ĠSup er
Or gan
4 7
B usiness
W h
Ã ĵ
áģĢ áģĨ
áģģáģī áģĤáģĩ
áģģáģī áģĥáģĤ
og raph
ĠInd ia
k e
r ist
ĠáĢĢ áĢ¡
áĢ¬áĢ¸ âĢĭ
ĠáĢŀ áĢĻáĢĲáĢĢ
áĢŁ áĢļ
ĠáĢĹ áĢĬ
ĠN on
áĢ¼áĢ¾ áĢ±áĢ¬áĢº
ĠB ro
ĠG l
le ction
ag ue
ve y
row n
L e
áĢģ áĢĻáĢĶ
ĠC ivil
ĠáģģáģīáģĦ áģĦ
ak h
ore a
n ership
áĢĽ áĢĴ
ĠáĢļ áĢŀ
ĠP rivate
ĠH ot
ĠJ oint
ef ire
áĢĻ áĢĳáĢķ
áĢ°áĢ¸ "
am in
ur y
ĠáģĤáģĢáģģáģĪ áģĤáģĢáģģáģī
Ġáģģáģģáģ ģ
ĠCor poration
áģĢ áģĥ
áĢĻáĢĲ áĢŁ
áĢºáĢ¹ áĢ¬
ĠáĢĢáĢľ áĢĶ
ic er
P ower
áģ ³
ĠáĢĽ áĢĿáĢĿ
ĠáģĬ -
ĠB E
ĠV s
ev en
Ġw h
ĠMark eting
G oogle
ĠáĢĻ áĢĴáĢĻ
ĠáģģáģĢ áģĩ
ĠáģĤáģĢ áģħáģĢ
ic a
ĠL ist
Ġáģģáģĥ áģĪ
áģģáģĤ áģĦ
áģĪáģĪ áģĪáģĪ
Ġp ol
Ġ1 3
ĠYU PT
P art
s oft
ĠM D
ĠV iber
ell ow
ĠCoun cil
áĢģ áĢĸ
ĠáĢĻáĢĶ áĢĦ
áĢĲáĢĻ áĢĻ
ĠIn n
ĠCent ral
Tr ans
rup tion
ĠáĢĽ áĢĻáĢĲ
áģģáģī áģĤáģģ
on es
es ter
ĠáģĤáģĢáģģáģĩ áģĤáģĢáģģáģĪ
2 1
2 4
b urma
ĠáĢĴ áĢ¿áĢĻ
Ġáģĥ áģĤáģĢ
ĠT oy
ĠB ang
ĠáģģáģĤ áģĪ
ĠI P
ĠW FP
ĠCon f
ĠMod el
p o
áĢĲ áĢ¡áĢĶ
áĢĲ áĢģáĢı
ĠáĢ¡áĢĽ áĢ¡áĢĽ
ĠáĢķáĢĳáĢĻ áĢĽ
ĠF ace
g ic
y le
ĠáĢĻ áĢĻáĢľ
ĠáĢĸ áĢĿ
ĠáĢĸ áĢĽáĢĶ
áģģáģī áģĥáģĥ
ĠS eas
or ge
áģĥáģĢ áģĦ
ĠO ver
ron ic
led ge
r an
áĢŀ áĢľáĢĢ
áĢļ áĢĢáĢĢ
áĢĨ áĢĨ
ĠáĢĲáĢĢ áĢĻ
áĢĵ áĢĽ
ĠM Y
áĢ¡áĢĸ áĢĻ
ĠQu ality
S ec
áĢľ áĢ¡áĢħ
ĠM el
en or
ĠT o
ĠF M
ĠL ink
ĠY ear
ew ork
ĠCl ub
áĢĽ áĢĿáĢĻ
ĠP ort
ĠG PS
ĠU W
ake hold
l er
áĢ¬áĢ¸ áģį
ĠA NC
Ġáģģáģĩ áģħ
ĠCN N
D r
L C
d ate
áĢĢ áĢĢáĢķ
áĢ¡ áĢĦáĢļ
áģĤ áģĥáģĢ
ĠM ay
at ural
áģĥáģħ áģĢáģĢ
ĠSh op
iv ing
u f
Ġ |
áĢºáĢ· âĢĭ
ĠáĢĹ áĢĽáĢĦ
áĢŀáĢĻ áĢĿ
ĠV IP
ĠCom ment
ĠEx port
ĠAd v
âĻ ª
ĠRev iew
G E
i ation
ĠC ustomer
ĠV ision
ĠSt reet
osp ital
I R
ĠV isa
Ġ1 5
all y
Ġ3 0
amp ion
r u
áĢ £
áĢ¼ áĢ¾áĢ°
ĠáĢĲ áĢŀáĢĶ
ĠáĢħ áĢļ
áĢĺ áĢĺ
áĢħáĢĢ áĢĢ
ĠN et
ĠP ri
ĠW ill
un te
ER P
2 3
b e
áĢĲ áĢĲáĢĶ
áĢĻ áĢĺáĢı
ĠáĢķ áĢĩ
ĠáĢ¡áĢķ áĢĢ
ĠN SCN
ĠD ef
ĠK SPP
áģģáģĤ áģĥ
Ġf l
P ay
ĠS P
ef f
Cent re
ored oo
7 7
i j
áĢĻ áĢģáĢĦ
ĠáĢĴ áĢľ
ĠM ir
áģģáģĢ áģī
ĠE IA
ĠáĢ© áĢĺ
Ġs ystem
ĠPl ay
ĠAT M
ĠIntern et
a ff
áĢĲ áĢ¡áĢľ
ĠáĢĻ áĢĻáĢģ
áĢĺ áĢĿáĢĢ
ĠáĢ¡áĢĽ áĢĨáĢĢ
áĢĿáĢĿ áĢĿáĢĢ
ac c
Ġ1 6
Ġb l
RC SS
eas efire
ĠáĢ¡áĢĻ áĢĽ
ĠáĢ¡áĢĽ áĢĤ
áĢ½áĢ¾ áĢ®
áģĩ áģħáģĢ
áĢħáĢĻ áĢ¡áĢĢ
ĠáĢķáĢĽ áĢĿáĢı
ĠW ave
Ġcom p
áĢķ áĢĢáĢĶ
áĢ« áģı
áĢľ áĢĸ
áĢ° áĢ¶áĢ¸
áĢ¥ áĢħ
áĢĢáĢľ áĢĶ
ĠF il
ĠH on
il ot
Ġm ess
áĢŃáĢ¯ ..
áĢĻ áĢŀáĢĻ
áĢ·áĢº áĢ·
Ġáģĥ áģĩáģĢ
ĠF ram
ĠPro t
ĠáĢĶáĢĿáĢĲ áĢ¡áĢĶáĢĸ
li ance
amil y
L and
W ork
u w
Ġ un
áĢ¬ /
ĠáĢĻáĢķ áĢĦ
er a
ĠM izzima
ĠâĢĮ áĢ±
ĠH all
A D
H C
áĢŀ áĢĿ
ĠáĢħáĢĢ áĢĲ
at form
ĠG GS
ap top
ial ogue
ĠáĢĻ áĢĻáĢļ
ĠáĢĴ áĢĿ
ĠáĢ¡áĢĽ áĢ¡áĢĦ
ĠáĢĬ áĢĺáĢĢ
áĢŀáĢĶ áĢķáĢĬ
ĠM ind
ĠG SP
id d
ĠCl ass
ĠComp uter
ĠDo ing
arch ives
f t
áĢ« âĢĿ
ĠáĢļ áĢķáĢĦ
Ġáģģáģī áģĤáģĥ
ĠM N
ĠM ag
now ledge
ĠAmeric an
z e
áĢĲ áĢģáĢĽ
áģĢ áģĩ
ĠC all
ĠS ociety
ĠáģĤáģĢ áģĤáģħ
ĠB e
ĠMr s
eth od
A IDS
ĠáĢĻáĢĽ áĢŀáĢľ
ĠáĢŀáĢĻ áĢĽ
ar b
ĠáģģáģĤ áģģ
ĠáģģáģĨ áģħ
ĠAs ian
ĠPh ys
ĠMy tel
cl us
n a
ĠáĢĻ áĢĩáĢĦ
ĠáĢŀ áĢĤ
áģĢ áģĦ
ĠáĢ¡áĢĽ áĢ¡áĢĨ
ĠáĢĲáĢķ áĢĶ
áģģáģī áģĢáģĢ
ĠM et
ĠM LM
ĠV iew
ĠPro visional
áĤ ĭ
IF T
u el
ĠáĢĻ áĢħáĢĬ
áĢĸ áĢĨáĢķáĢľ
áĢĲáĢĽ áĢħ
ĠC re
áĢĻáĢĽ áĢĺ
id er
rak an
l oad
m un
y i
áĢº áģİ
ĠáĢķáĢĳáĢĻ áĢĨáĢĦ
áĢĢáĢĢ áĢĲ
ent al
ĠCh ief
A BSDF
O E
áĢ· áĢ«
áĢĻ áĢ¦
ĠáĢĬ áĢĻ
ĠáĢĲáĢĽ áĢĸ
Ġáģģáģī áģģáģĪ
ti st
ĠáģĤáģĨ áģģ
ĠáģģáģīáģĦ áģĥ
t ual
ĠáĢĶ áĢĽáĢŀ
ĠáĢĻáĢķ áĢĶ
ĠáĢĲáĢģ áĢı
on áĢĢ
Ġáģģáģĥ áģĤ
ĠO m
our ces
ist ration
Ġ2 5
tain ment
N o
áĢĻ áĢĽáĢĦ
ĠáĢĽ áĢľáĢĬ
áĢģ áĢĿ
áĢ¡áĢķ áĢħ
áģĢáģģáģ ħ
ĠC ID
ĠM a
ĠN E
ĠA ust
as ed
he d
ĠáģģáģĨ áģĨ
ĠIn stitution
op e
i en
i ed
áĢ±áĢ¬ áĢ¸
áĢĻ áĢĽáĢĶ
áĢĲáĢĻ áĢĢ
Ġáģĥ áģĤáģħ
ĠM C
ĠM ain
ĠB M
áĢļáĢĻ áĢ¡áĢŀáĢĦ
St ud
áģ¨ áĢ¬
4 5
H otel
áĢĸ áĢĽáĢĦ
ĠáĢĻáĢĽ áĢı
ĠC al
in ance
áĢ»áĢ± áĢ®
ĠF air
SS PP
o j
áĢľ áĢķáĢĲ
áĢ¶ áĢ¶
ĠáĢĦ áĢĢ
áģĥ áģĨáģĢ
ĠS m
Ġáģĩ áģĢáģĢáģĢáģĢ
ĠB elt
ac tion
ĠáģģáģĦ áģĩ
áģĥ áģĢáģĢáģĢáģĢ
ĠB OT
áĢ§ áĢĢáĢĢ
ĠCamp aign
M iss
S up
Ġ ed
áĢĻ áĢĶáĢĬ
áģģáģī áģģáģģ
in n
áĢĽáĢĲ áĢĲ
id ence
ĠáĢĲáĢĳ áĢħ
anc ial
ĠM al
ĠáģĤáģĢ áģģ
em b
áģĤáģĨ áģģ
ri ti
SEA O
áĢ¬áĢ¸ /
áĢĽ áĢħáĢħ
áĢ² "
ĠC ash
ĠM oney
ĠáģģáģĤ áģĨ
ĠE C
ĠWh ite
Ġem ail
ĠáĢŀáĢĻ áĢľ
ĠD evelop
áĢ¤ áĢĢ
Ġ1 1
ĠNV C
ĠWis dom
F und
y t
à ¹
áĢĲ áĢĲáĢĽ
áĢĢáĢĶ áĢĶ
áĢ¡áĢĽ áĢĨ
ĠC ur
ĠM E
áģģáģĢ áģĥ
ĠH il
ĠáģĤáģĨ áģĢ
Man agement
w o
áĢĻ áĢŀáĢĬ
áĢĻ áĢĨáĢĶ
áģĢ áģģ
ĠáĢ¡áĢĶ áĢĲ
at ory
ĠW ashington
Ġc ap
Res earch
E conomic
S chool
áĢĬ áĢĿáĢĲ
áĢ½áĢ± áĢ±
áģĤ áģĤáģĢ
it a
yd ro
A G
R ep
áģģáģī áģģáģħ
ti g
em p
20 19
Myanmar Now
r act
Ġ el
áĢį áĢĲ
at ter
ĠE ast
áģģáģĦ áģħ
ess ment
ĠPh il
duc t
mer ce
AT H
flu enz
H S
M R
s er
Ġ ÃĹ
áĢŃ áĢ»
áĢħ áĢŀáĢĲ
áĢºáĢ· âĢĮ
áĢĳ áĢļ
áģĥ áģĥáģĢ
ĠB oard
ĠáģģáģĤ áģĤ
ing áĢľ
ĠL ee
ĠO B
ce an
ĠáĢ± áĢ¸
ĠPe ople
ĠðŁ ĺ
w ord
áĢħ áĢľáĢĶ
ĠS ource
es tiv
ĠD at
et s
ĠáģĤáģĪ áģĢáģĢ
ul ation
ĠHe ad
áģ¾ áĢ¡áĢĢ
ĠUSA ID
F oundation
G lobal
M H
ĠM ot
ĠM ax
Ġáģģáģĥ áģĨ
tit y
ĠIndust ry
C ity
áĢĢ áĢĬáĢĦ
ĠáĢĻáĢľ áĢķ
ĠP ACE
áģģáģĢ áģĤ
áģģáģĩ áģģ
ĠKNU áĢĢ
áĢ¯áĢ¯ áĢ¯áĢ¯
He alth
unte er
h ar
áĢĲ áĢĴáĢĤ
ĠáĢ¡áĢĽ áĢĽáĢĶ
ĠáĢĬ áĢľ
áģģáģī áģģáģĢ
ĠGu ide
3 7
ĠáĢĽ áĢĨáĢĽ
áĢŀ áĢŀáĢĬ
áĢľ áĢĢáĢĶ
áĢĿ áĢĢáĢĻ
ĠR h
áģģáģĨ áģĢáģĢ
ag an
áĢķáĢĽ áĢŁ
M in
S D
S T
S ocial
áĢ¡ áĢĢáĢĶ
ĠáĢļ áĢĢáĢĢ
ĠáģĤ áģĤáģħ
Ġáģģáģħ áģĢáģĢáģĢáģĢ
ĠáĢĻáĢĻ áĢģáĢĦ
Ġw ebsite
ric ulture
ĠSec ond
ĠSoft ware
G I
K IO
O DC
ĠSh aring
ack age
ĠPr om
Pro gram
G A
a el
m ing
ĠáĢĲáĢħ áĢķ
ĠáĢĵ áĢĬáĢĿáĢĲ
ĠC R
ĠA F
áģģáģĪ áģĢáģĢ
Ġ1 7
Ġ1 00
ĠGen ocide
ĠDav id
ĠUW SP
w ar
áĢĲ áĢĽáĢĶ
áĢĽ áĢĨáĢĽ
ĠR isk
ce pt
ĠEn d
ĠVoice áĢĢ
ĠMul ti
CN F
c ed
ĠáĢĴ áĢľáĢŁ
áĢ±áĢ¬áĢ· ..
áĢĺ áĢŀ
áĢ¼áĢ¬áĢ¸ áģĮ
áĢĲáĢĻ áĢĦ
ĠS ea
ip p
ĠEn ergy
ĠEng ineering
estiv al
O N
t re
áĢ± áĢ¼
áĢ»áĢŃ áĢ°
áĢĲáĢĶ áĢĬ
ĠáĢ§ áĢĲáĢĴáĢĤ
áĢį áĢħ
ĠM ac
ĠG rab
ĠáĢģáĢı áĢĲáĢĸ
ut ure
ĠMed ical
I L
r ary
áĢĻ áĢĺáĢĿ
ĠáģģáģĤ áģħáģĢ
Ġw ork
fluenz a
M y
Ġáģ ¿
áģĪ áģħáģĢ
ĠB en
at ty
ĠO f
ĠáģĤáģĩ áģĢáģĢ
Ch at
3 70
ĠáĢĲ áĢ¡áĢĶ
ĠáĢ¡áĢĻ áĢĶ
áĢ½áĢ¾ áĤĬ
it ness
ĠáģģáģĤ áģĩ
áģģáģĨ áģħ
ĠáģĤáģĨ áģĢáģĢ
iver y
St ate
enc es
ĠBl ue
ĠInt elligence
S ource
Ġ op
áĢĲáĢĻ áĢĤáĢĶ
ĠM ah
it ch
ĠR ock
ent er
áģģáģĦ áģĢáģĢ
ot os
ak ing
art oon
D O
g et
áĢĻ áĢ¡áĢĢ
áĢŀ áĢĻáĢĬ
ĠáģĢ áģģ
ĠáĢĻáĢĢ áĢħ
ĠD ICA
re g
áģģáģĤ áģĤ
port s
0 9
g er
áĢ¸ âĢĮ
áĢĻ áĢĶáĢļ
áĢĻ áĢĹ
ĠáĢħ áĢģ
ĠáĢĬ áĢģ
ĠS M
ic tion
op y
Ch ar
ampion ship
áģĦ áģĤáģĢ
ĠáģĦ áģĤáģĢ
Ġáģģáģī áģĤ
ĠR ap
il le
ad a
Ġp er
ri tical
áĢĲ áĢĶáĢļ
áĢ½ áĢ±áĢ¬
áĢķ áĢĢáĢĲ
Ġáģģáģī áģģáģĩ
ĠS U
áģģáģħ áģĢáģĢáģĢ
áģģáģĩ áģħ
ir l
ĠáģĤáģĥ áģĢáģĢ
ain t
Ġon line
áģ¾ áĢ¡áĢģ
ĠToy ota
6 5
H ouse
T im
i ro
áģĥ áģĤáģĨ
ĠáģĢ áģħ
ĠáĢ§ áĢĢáĢľ
Ġáģģáģī áģĥáģģ
ĠP et
ĠG TI
el ine
ou ch
ĠáĢģáĢı áĢĢ
áģĤáģĪ áģħ
per ty
sp ot
Ġtr ans
ĠYou Tube
m ission
Ġ ro
áĢļ áĢĽ
áĢºáĢ· /
áģħ áģĢáģĢáģĢáģĢ
ĠáĢ§ áĢĢáĢĢ
ĠC are
ĠJ uly
ĠV er
ĠIn frastructure
áĤ Ľ
ĠOff ice
F ood
G o
g r
áĢķ áĢľáĢĲ
ĠáģģáģĪ áģĢáģĢáģĢ
ĠSup ply
ĠFA Q
2 9
p os
u j
u ff
ĠáĢĲ áĢĵ
áĢ½áĢ² áĢ²
áĢĤ áĢĴ
áĢ¡áĢĽ áĢħ
ĠS ave
áĢĨáĢĽ áĢŀ
ĠB o
ĠáģģáģĦ áģĪ
ĠCon ferencing
ov ation
iz e
xx xx
org an
G áĢĢ
T el
áĢ± áĢ¯
áĢ¹ áĢ¸
áģĤ áģĩáģĢ
áĢĵ áĢľ
Ġáģģáģī áģĤáģĤ
áĢĻáĢĽ áĢļ
áĢ¡áĢĸ áĢĶ
ĠS EA
en áĢĢ
ĠáģģáģĤ áģĢáģĢáģĢáģĢ
ĠY outh
os ph
A E
W in
áĢ» áĢ°áĢ·
áĢĺ áĢķ
ĠáĢĻáĢĳ áĢĢ
am ine
ib ility
ĠZ one
overn ance
ĠEnter tainment
A B
I s
P R
S E
e an
Ġ ad
áĢ± âĢĭ
áĢŃáĢ¯ áĢ»áĢ¸
áĢ¾ áĢ°áĢ·
áĢľ áĢĺ
áĢ¼áĢ¯ áĢ¾
ĠC ooperation
ĠR ight
ĠK TV
ĠE conom
he ck
ĠSt at
2 8
i ous
áĢ¯ áĢŃáĢ·
ĠáĢĲ áĢĻáĢĲ
áĢĻ áĢŀáĢĢ
ĠáĢ¡áĢħ áĢľ
Ġáģģáģī áģģáģī
ĠM M
ĠN ote
ĠáģĪ áģģáģħ
ĠG ame
ver s
ĠIC U
ĠáĢ¼ áĢ±áĢ¬
201 5
áĢģ áĢŀ
ĠáĢŀáĢĻ áĢĳ
ĠâĢ Ķ
áģī áģĢáģĢáģĢ
áĢĻáĢĢ áĢĳ
ĠáģĤáģĢ áģĤ
Ġáģī áģĨáģī
Ġy ou
ĠSaf ety
' s
P ar
n et
ĠáĢľ áĢĴ
áĢĿ áĢĺ
ĠáĢĺáĢĿ áĢķ
en tity
ĠáĢĻáĢĸ áĢļ
ic ial
ĠI I
ent ation
ec tive
oc ra
ĠSh we
ĠáĢ¥áĢĴ áĢŁ
E ducation
H IV
n ic
ĠáĢħ áĢĶáĢĬ
ĠáĢĲáĢĽ áĢĢ
ĠáĢĩ áĢī
ĠáĢ¡áĢĦ áĢĻ
ĠáĢĢáĢĻ áĢĶ
ĠC ulture
Ġáģģáģī áģĥáģĦ
es áĢĢ
ĠB ig
ec u
Ġf rom
Ġ20 20
ĠáĢ¹áĢ¸ áĢ±
0 3
áĢ» áĢ¾áĢŃ
on ic
Ġáģģáģī áģģáģħ
ĠM em
ĠA rakan
ĠB C
ĠáĢĻáĢĻ áĢĻ
Ġ" "
áģģáģīáģĢ áģĨ
ĠFor ce
Ġhttp s
. ]
áĢ°áĢ¸ âĢĿ
on a
ĠI D
ĠG A
ĠK orea
ou g
wit h
oll ow
mit t
O ff
n i
p ost
áĢ¬ áģı
áģ ¢
áĢĻ áĢħáĢķ
áĢľ áĢħáĢī
áĢ»áĢ¯ áĢ·
ar s
ĠN a
it age
ĠD an
Ġáģģáģĥ áģĥ
NLD áĢ¡áĢħ
ĠUS DA
Ġ4 0
M B
Ġ %
áĢķ áĢĻáĢļ
áĢŀ áĢĴ
áģĢ áģĤ
ĠM c
ĠG I
et her
ĠUn ivers
com e
ne y
uth ority
g mail
i as
áĢ»áĢ¯ áĤĭ
Ġáģģáģī áģĤáģĦ
ĠI B
ect ed
riti sh
d e
k i
k ok
u ch
Ġ z
ĠáĢ¡áĢĽ áĢ¦
áģĢáģģáģ Ī
ĠM B
ar mer
ĠF orm
ĠR ich
ĠG reat
iz ed
ĠMan ager
ĠDem ocracy
ĠDep artment
ĠCy ber
ĠCer tificate
ĠFore ign
B ook
W F
áĢŃ áĢ»áĢ¯áĢ¸
ĠáĢĳ áĢĽáĢħ
áģģáģī áģĤáģĨ
Ġáģģáģī áģĤáģī
om an
ĠáĢı áĢĢ
em ic
oc h
Ġ201 7
ĠSME s
C ar
ĠáĢĻ áĢģáĢĲ
ĠáĢĹ áĢĽ
ĠáģĤ áģĤáģĢáģĢ
áĢĩ áĢķáĢľ
áĢĲáĢĽ áĢĻ
áĢ¡áĢĳ áĢķ
Ġáģģáģĩ áģģ
ĠV ic
Ġp H
ĠáģĤáģĢáģģáģī áģĤáģĢáģĤáģĢ
ĠÂ ª
ĠInd epend
ug h
ĠMod ern
ĠOx ford
udd h
N etwork
o ti
áĢ ³
áĢ¹ áĢ±
ĠW ind
am m
yan d
ĠáģĦáģĪ áģĢáģĢ
ĠRad io
9 9
D em
áĢŃ /
ĠáĢĻ áĢ¡áĢĢ
ĠáĢĻ áĢĻáĢĢ
áĢħ áĢ¡
áĢŀ áĢ¡
áĢ®áĢ¸ áģĮ
ĠáĢĳ áĢľ
áĢĨ áĢŀ
ĠáĢļ áĢĳ
ĠT O
ĠU LA
áģģáģĪ áģĪáģĨ
ur ch
od ay
if t
A W
E U
V oice
Ġ are
áĢķ áĢľáĢĢ
ĠH or
ou l
ĠY ork
ĠSt akehold
os is
Ġáģĥáģħ áģĢáģĢáģĢ
Ġm an
ĠAc t
ĠOr ch
ĠAd min
ĠCle an
ilit ary
w a
áĢĻ áĢĨáĢĢ
áĢĲáĢĻ áĢ¡áĢĢ
ĠC ERP
ĠS am
ĠS ustainable
áģĤáģĢ áģĤáģħ
ĠI rrawaddy
ĠL NG
et he
Ġp lan
Ġ201 6
C DC
O ne
g o
áĢĻ áĢĢáĢķ
áĢħ áĢŁ
áĢĽ áĢŀáĢĢ
áĢĻáĢĽ áĢŀ
áĢĻáĢĽ áĢģ
al a
ĠL ove
ag ram
ĠSt op
ĠAn g
ens ion
ĠáĢĶáĢĿ áĢĽáĢĲ
ĠAnd roid
inc ip
Im age
P ublic
b ack
m yanmar
áĢĻ áĢħáĢħ
áĢľ áĢĳ
ĠM F
ĠB uilding
ĠO per
ri es
ma z
qu are
ach in
ĠáĢ¼ áĢ·
Ġn ews
ĠAss ist
ĠHR W
u i
áĢķ áĢģáĢĽ
ĠáĢģ áĢģ
áĢĲáĢĽ áĢľáĢĢ
Ġáģī áģħáģĢ
ĠB io
ĠK ey
Ġ1 4
ĠáĢĻáĢĴ áĢĽáĢķ
Ġv ideo
ĠGen eration
ĠHil ton
? ?
l in
áģĤ áģĪáģĢ
áĢĩ áĢĻ
ĠP acific
ĠáģģáģĪ áģĪ
ĠE ver
áģģáģħ áģħ
ĠJ ustice
ag ing
app y
ĠIndust rial
Ġan ti
A M
P age
r ay
áĢ® âĢĭ
áģģáģī áģģáģĨ
ĠC DC
ĠB y
Ġáģģáģĥ áģĩ
Ġof f
IO N
olog ical
âĻ «
ĠMicro soft
8 7
u z
áĢ¬áĢ¸ áģĭ
ĠáĢ¡áĢĽ áĢŀáĢĢ
áģĤ áģģáģĢ
ti me
áĢ¾áĢ° áĢ¶áĢ¸
ĠáĢķáĢĽ áĢĨ
ĠáģģáģĦ áģĥ
Ġs ocial
ut t
aw a
ĠZ ero
ecu tive
F r
J ournal
ĠáĢĸ áĢ¡
áĢ¡ áĢĽáĢĶ
ĠáĢĻáĢĽ áĢħ
áĢĢáĢĶ áĢĦ
ĠáĢĻáĢĲ áĢħ
ĠS ol
ĠD esign
ĠR oom
ĠH t
áģģáģĪ áģĤáģĦ
áģģáģģ áģĢáģĢ
all ery
ĠTr ading
ĠEn vironment
áģģáģīáģĢ áģĪ
6 4
R eg
U B
áĢŃ áĢŃ
áĢĽ áĢĽáĢĶ
áĢĺ áĢĿáĢĲ
Ġáģĥ áģĦáģĢ
ĠN orth
ĠáĢ¡áĢļ áĢī
ĠD istancing
ĠD DR
ĠD ialogue
ĠáģĤáģĢáģĢ áģĢáģĢáģĢ
ĠL IFT
áģģáģĤ áģĨ
ir c
Ġs up
ĠCon ference
ĠTh ird
St ay
áĢĮáĢĻ áĢ¡áĢĢ
ĠTechn ical
Ind ust
ĠStrate gic
L E
Ġ one
áĢ° áĢ°áĢ¸
ĠáĢ¡áĢĽ áĢŀáĢĲ
áĢĻáĢĢ áĢĺ
ĠA BC
ĠáģĨ áģħáģĢáģĢ
ail and
ĠTNLA áĢĢ
Sc ience
ĠMon itor
ĠSing apore
k in
áĢĻ áĢŀáĢĺ
en se
ĠP eter
tic le
áģĥáģĥ áģĥ
ĠFram ework
S DP
v es
áĢĲ áĢĻáĢĲáĢĶ
ĠáĢĲ áĢĨáĢļ
áĢĻ áĢĺáĢļ
áĢĿ áĢĿáĢĶ
ĠR em
ĠUNFC áĢĢ
** **
ĠProduc t
Comp any
F ac
l ing
l ines
m on
u áĢĢ
áĢĲ áĢĺáĢĢ
áĢĻ áĢľáĢĻ
áĢºáĢ· "
ĠáĢĽáĢĶ áĢļ
ĠáĢĮ áĢĢ
áĢ¡áĢħ áĢĦ
ĠN O
el y
ĠL ong
us ic
ĠUN ODC
ĠQuarantine áĢĿáĢĦ
ĠáĢĶáĢĿ áĢĻáĢĲáĢĶ
ĠFAO áĢĢ
itiz en
0 1
M on
P ost
e áĢĢ
áĢ±áĢ¸ "
Ġáģģáģī áģģáģĦ
ĠS he
ti an
áģģáģĤ áģĩ
ĠW omen
ĠY M
20 20
ĠCh allenge
ut ri
our se
áĤ ļ
sh op
ĠEx c
ĠMess age
Ġqu arantine
w h
ĠáĢĿ áĢĤ
Ġáģĥ áģīáģĢ
ĠáģĦ áģĪáģĢ
ĠáģģáģĪ áģĪáģĨ
ov ement
Ġle vel
S ing
u es
áĢĲ áĢī
ĠáģĦ áģĦáģĢ
Ġáģģáģī áģĥ
ĠS im
ĠD ipl
Ġáģģáģĥ áģħáģĢ
ĠáģĤáģī áģħ
Ġf ree
ist s
Ch ina
out ube
2 7
R E
R el
T om
c ord
n est
p act
Ġ áĤı
ĠáĢĢ áĢ¿áĢķ
ĠáĢĽ áĢħáĢĻ
áĢ½áĢ¾ áĢ®áĢ¸
ĠáĢĤ áĢķ
ĠáĢĻáĢĽ áĢŁ
áģĤ áģĤáģħ
al y
ĠF act
ĠNLD áĢĶ
ĠO cean
op les
um b
áĢºâĢĭ áĢ¸
iti ative
off ee
1 00
R FA
t ra
áĢ² áĢ¶
ĠáĢ¡áĢĶ áĢĻ
Ġáģģáģī áģĤáģģ
ĠáĢķáĢĳáĢĻ áĢĳáĢķ
ĠF ord
ĠV an
Ġc ar
ĠAR T
ĠLockdown áĢģ
Ġáģģáģģáģħ áģĢ
blog spot
I B
l l
o i
Ġ as
áĢ±áĢ¬ áĢ¬
áĢ« âĢĭ
áĢ²áĢ· áģĭ
ĠáĢ¡áĢĽ áĢĽáĢģ
áģĥ áģĪáģĢ
ĠC oll
áģģáģĢ áģĦ
ĠáģģáģĤ áģī
áģģáģĤ áģĪ
and er
ur a
ĠáģĤáģī áģĢ
ĠáĢ¥áĢķ áĢĵ
R S
áĢ±áĢ¬áĢ· "
Ġáģĥ áģĩáģħ
in ar
ĠF ocus
ĠW all
Ġd own
ĠWe Chat
G reen
I SA
g ress
áĢĻ áĢĨáĢĽ
áĢĿ áĢģ
ĠáĢ¡áĢĢ áĢķ
ĠM at
áĢĻáĢĽ áĢĽ
ĠS ir
ĠD eb
et a
ĠO DA
áģģáģĥ áģĤ
ard en
ĠCon struction
ĠĠĠĠĠĠĠĠ ĠĠĠĠĠĠĠĠ
n am
áĢĿ áĢ¥
áĢĴ áĢľáĢĦ
ĠáĢĻáĢĽ áĢŀáĢĸ
er ry
ĠL ock
ou ble
ĠY oma
ĠTh inking
ĠáĢ¼ <áĢ½
Ġ201 5
CP B
ĠFed eral
C E
C ap
D KBA
f rom
r ong
áĢĢ áĢĨáĢĢ
Ġáģ ļ
ģáģ Ĥ
an i
Ġáģģáģī áģĤáģĩ
ĠS MS
ĠT able
ĠR ule
is on
áģģáģĥ áģĪ
áģĤáģħ áģĢáģĢáģĢ
ĠCh air
im ate
og ether
ĠáģĥáģĨ áģħ
ell a
ĠTr ust
ĠáĢ¯ áĢ¸
ĠSc reen
ĠDis c
3 3
H T
r ant
ĠáĢ ¶
ĠáĢ¡áĢĽ áĢĻáĢŁ
áģī áģħáģĢ
áĢĭ áĢĢáĢĵ
ic ine
áĢ© áĢĿ
ĠáģĦáģħ áģĢáģĢáģĢ
IC J
ĠTh ai
duc tion
mark et
ĠCommun ication
9 0
A m
D e
K O
c y
Ġ ï
áģ ´
áĢĻ áĢĨáĢĦ
ĠáĢ¡áĢĽ áĢĶáĢļ
ĠáģĦ áģĦáģĩ
it ing
ĠB ill
ĠB ody
ĠK nowledge
il ities
áģģáģĪ áģīáģĢ
ĠV ote
ĠCh rist
our s
oun g
erv ation
pr ise
ond on
ĠSing le
ĠRef orm
i us
ĠáĢ¡ áĢ¿
áĢŃáĢ¯áĢ· ..
ĠáĢĦ áĢĿáĢĶ
ĠáĢĻáĢĽ áĢĻáĢĢ
áģĥ áģĥáģĪ
Ġáģģáģī áģĤáģĪ
áĢĻáĢĢ áĢľáĢĬ
ĠW est
oo th
mar y
Ġc or
ĠCh ange
ĠPro f
P re
áĢ¬ áģĭ
ĠáģĤ áģģáģĨ
áĢĵ áĢĢáĢĻ
ĠP aul
ĠT ok
áģģáģĪ áģĨ
ĠáģģáģĦ áģĨ
áĢĻáĢĺ áĢŀ
ĠFl ight
Ar my
ĠVal ue
ĠMSME s
ĠSen ior
ĠAcadem y
ĠVir tual
clus ive
ocra tic
g ov
áģ µ
áĢħ áĢľáĢĢ
áĢ® )
ĠáĢĢáĢĶ áĢĶ
an th
Ġáģģáģī áģĥáģĤ
ĠM J
ĠP ot
áĢĿáĢĿ áĢĢáĢĶ
ac id
ĠáģģáģĨ áģģ
áģĥáģĨ áģĢáģĢ
ĠUn der
if ication
Ġin d
uk i
ĠSNLD áĢķ
way s
Media áĢĢ
R oad
áĢĢ áĢĺ
áĢĲ áĢĨáĢĢ
áĢ¾áĢ¬ ..
ĠáĢŁ áĢĴ
ĠáĢĲáĢħ áĢħ
ĠC T
ĠA f
ĠD ist
Ġáģģáģĩ áģĨ
ĠO oredoo
ĠMA I
ĠOff icer
ĠTel enor
H I
h ib
i áĢĲ
áĢĻ áĢĻáĢĬ
áĢ¾áĢŃ áĢ°
áĢĢáĢĻ áĢĸ
Ġáģģáģī áģĥáģĥ
ĠM IT
ĠI t
he el
yan g
ĠSt ep
Ġc ard
im al
áģĤáģī áģħ
áĢĲáĢĽáĢķ áĢħ
Ġxx x
A FP
D istancing
L B
c c
i ences
u it
¸ ı
ï ¸ı
áĢĢ áĢ¡áĢħ
ĠáĢŀ áĢĽáĢķ
ĠâĢ İ
ĠM EC
ĠA k
ĠR est
ĠE uro
áģģáģĪ áģħáģĤ
Ġs ec
ok e
ĠChe m
M T
ã Ģ
ĠáĢ ³
ĠN A
ĠN atural
ĠáĢĻáĢĸ áĢĶ
ĠáģĪ áģħáģħ
áģģáģĪ áģħ
ĠáģģáģĨ áģĤ
ĠáģģáģĨ áģĦ
Ġp ass
Ġáģĥáģĩ áģĨ
áģģáģīáģĢ áģħ
ĠIS O
Pol icy
M od
Z one
m edia
áĢ½áĢ¾ áĢ¶
ĠG as
ĠH a
áģģáģģáģ ģ
ell o
ĠáĢĻáĢĺ áĢŀ
az a
ĠGu ard
ĠGe orge
Techn ology
ĠAust ral
d o
h áĢĢ
áĢº âĢĮ
áĢ¬ áĢ¬
ĠáĢħ áĢĲáĢĶ
ĠM ore
ĠS ee
ĠP ilot
ĠáģģáģĦ áģĤ
ir m
ĠSt ory
ill a
la ing
rid ge
Organ ization
C ons
L ife
ĠáĢĽ áĢģáĢĦ
áĢĺ áĢħ
ĠáĢĬ áĢ¡
ĠC an
ĠA maz
es c
ĠB illion
ĠL aptop
Ġáģģáģĥ áģģ
ĠáģģáģĦ áģģ
ĠáģģáģĦ áģĢáģĢáģĢ
st er
ow s
ur ing
Ġ201 4
osi tion
ĠFin ancial
onom y
M easures
i A
ĠáĢĻ áĢĻáĢĽ
ĠáĢĽ áĢ¡áĢķ
áĢ¡ áĢħáĢĢ
áĢ¡áĢĽ áĢĲ
Ġáģģáģī áģģáģģ
ĠA v
ĠT ech
ĠT ype
ĠR EC
ĠG SM
ĠáģģáģĪ áģĤáģĦ
Ġáģģáģĥ áģĢáģĢáģĢ
áģĤáģĢáģģáģĨ áģĤáģĢáģģáģĩ
áĢĿáĢĿáĢĿ áĢĿáĢĶ
ĠPl us
par ency
8 5
H ar
u ang
áĢŃáĢ¯ áĢ¯áĢ·
áĢĽ áĢŀáĢĲ
áĢ½áĢ± ..
áĢĿ áĢ¡
ĠáĢĤ áĢľ
áĢĻáĢĲ áĢĳ
ĠD a
ĠR iver
ĠH ack
ĠK o
áģģáģĤ áģħáģĢ
Ġf ac
áĢ¡áĢ¦ áĢĢ
tern et
ĠICJ áĢĢ
8 1
V ote
e in
i ent
ĠáĢĽ áĢ¡áĢĽ
âĢ Ļ
ĠáĢĻáĢĢ áĢļ
en a
om b
ĠK im
re w
ĠL A
Ġáģģáģĩ áģĢáģĢáģĢ
ad er
ĠV OM
Ġm ore
ĠMir ror
L evel
T ax
ĠáĢĲáĢĲ áĢķ
ĠH el
ĠE co
ĠáģģáģĨ áģĩ
ĠáģģáģĨ áģĢáģĢáģĢ
ĠJ ames
ĠIn c
ĠIn f
ay s
ĠáĢ¡áĢŁ áĢĻ
áģĥáģĩ áģĩ
ĠUEC áĢĢ
áĢķáĢĳ áĢĿ
yc le
sy ch
F arm
Q C
b ook
w ide
Ġ ag
áĢĢ áĢĢáĢħ
ĠáĢĲ áĢĨáĢĲ
áĢ»áĢ±áĢ¬ áĢ¸
áĢĲáĢĽ áĢĽ
ĠS ector
Ġáģģáģħ áģĥ
ĠO ri
uc ation
eg r
ud get
iver se
Ġ2 1
row th
ĠVol unteer
ĠTra vel
B i
C ovid
V A
áĢ¯ áģı
áĢ¾áĢ¬ áĢ·
áģĦ áģĤáģĩ
Ġáģģáģī áģģáģĢ
el le
ĠáģģáģĪ áģī
ro s
áģģáģĥ áģĩ
form ance
ĠTrans port
áģ¦ áĢĶ
B ox
f inance
k a
ĠáĢĻ áĢĻáĢĶ
áĢ² .
áĢ¼áĢ®áĢ¸ áģĬ
áģĤ áģģáģĤ
áĢĩ áĢĲ
áĢ¡áĢķ áĢĶ
áĢĹ áĢĴ
er man
ĠM aj
ĠP y
it es
ĠY ang
áģĤáģī áģĢ
In t
ĠáĢĢáĢĬ áĢĶ
ĠáģģáģīáģĢ áģĨ
Ġpro ject
ĠCont act
ĠâĢĪâĢĪ âĢĪ
oma tic
ĠPN O
ĠStud y
G old
áĢ¸ áĢ±
áĢ² áģį
áĢ¶ -
áĢ°áĢ¸ áģį
ĠáĢ¡áĢĽ áĢ¡áĢŀáĢĢ
ĠáĢĦ áĢħ
áĢŁ áĢľ
ĠáĢĬ áĢĿ
ĠáģĤ áģģáģĪ
áĢŀáĢĻ áĢľ
ĠáĢĢáĢľ áĢĦ
áĢ¾áĢ±áĢ· áģĮ
ĠC ourt
ĠN Y
áĢĢáĢĢ áĢĢ
ĠB est
Ġáģģáģĥ áģĦ
ĠáĢļáĢĻ áĢĻáĢĦ
áĢ© áĢħáĢĽ
ĠUn it
ene ur
ĠPart nership
dr ome
R ice
r ig
áĢ±áĢ¬ "
ĠáĢ¡áĢĽ áĢĺáĢļ
áĢı áĢŀ
áĢĹ áĢĳ
áģĢáģģáģ ĥ
áģģáģī áģĤ
ĠC ab
ĠC ritical
ĠM NA
ĠM MA
áĢĻáĢģ áĢĢ
áģģáģĦ áģĪ
ĠRCSS áĢĢ
201 2
ĠRe al
Ass ociation
áĢĢ áĢľáĢĦ
áĢĲ áĢľáĢĢ
ĠáĢ¡ áĢī
áĢĻ áĢĳáĢĢ
ĠáĢģ áĢĻáĢĶ
ĠáģĢ áģīáģĩ
al ent
or ation
ĠR et
áĢŀáĢļ áĢĸ
ay a
In ter
ĠPol ice
ĠMS DP
ĠMP U
arg et
Col lege
F DA
I áĢĢ
K h
P D
W HO
i h
Ġ }
ĠáĢ¡ áĢĴáĢĻ
áĢĽ áĢĲáĢħ
ĠáĢĨ áĢľáĢĲ
áĢĴ áĢĽáĢħ
ĠáĢ¥ áĢ¥
áģĥ áģĤáģĢ
áĢŀáĢĶ áĢĢ
áĢħáĢĢ áĢĲ
Ġáģģáģī áģĤáģħ
ĠáĢķáĢĳáĢĻ áĢħáĢħ
ĠA B
Ġáģī áģĢáģĢáģĢáģĢ
ĠáģģáģĪ áģħ
áģģáģĪ áģĪ
ĠJ os
ĠMyanmar áĢĢ
áģĤáģĥ áģħ
ign ment
áģ¾ áĢĢ
ĠMiss ion
Cont rol
W ater
l ist
Ġ ar
Ġ ter
ĠáģĤ áģģáģħ
áĢŀáĢĻ áĢĦ
ĠáĢĻáĢĢ áĢŀ
áģģáģī áģĥ
áĢĢáĢĽ áĢĿ
ĠB ea
as ia
ĠáģĤáģģ áģĢáģĢ
áģģáģĨ áģĨ
ang er
ĠCon n
ast e
ber t
ĠáĢĶáĢĿáĢĲ áĢħáĢħ
mitt ee
6 7
Ã ©
áĢħ áĢģ
áĢ·áĢº âĢĭ
áĢĺ áĢĩ
ĠáĢĲáĢĽ áĢħ
áģĢáģģáģ Ĩ
ĠáģĦ áģĥáģĢ
ĠC CC
ĠC easefire
ĠS l
ĠáģĤáģĢ áģĪ
es tern
ĠF amily
as y
and a
ĠCh at
pr eneur
ĠAb d
ĠAm b
ĠKy aw
4 4
Ġ am
áĢ± áĢºáĢ¬
ĠáĢĽ áĢľáĢĻ
áģĥ áģĥáģĩ
ĠA M
Ġáģģáģħ áģĩ
ĠE ff
le ar
ur b
ĠIC OE
Ġl ockdown
ĠAl liance
ach el
ox id
A t
P ark
b io
c ol
Ġ out
áĢ±áĢ¬áĢº ..
ĠáĢĻáĢĢ áĢĻ
ĠM oh
ĠN ik
ĠáĢŀáĢĽ áĢĩ
ĠáģģáģĪ áģīáģĦ
ĠNLD áĢĽ
ĠW WF
un t
Ġt witter
onal d
ĠJun ction
C amp
K it
ĠáĢĲ áĢŀáĢĦ
áĢ±áĢ¸ áģį
áĢĢáĢĻ áĢĶ
áĢ¿ áĢĴ
in i
ĠS OP
ĠP i
áģģáģĢ áģĩ
ĠH ospital
ĠW TO
ĠAn n
ĠCor ruption
ĠRes ort
Ġr ad
Con ferencing
yn drome
C ard
T H
áĢŃáĢ¯ áĢ¯
áĢĲ áĢĲáĢĬ
áĢĻ áĢŀáĢħ
Ġáģĥ áģĤáģĥ
ĠN FA
ĠT re
ĠL ocal
áģģáģĤ áģģ
ĠCOVID áĢĢ
ĠO MediaáĢĢ
ĠY V
Ġt est
ech an
ĠEx ecutive
ĠDr one
ĠPC G
ĠElect ronic
TU M
On line
Tim es
N D
r ub
Ġ ,
áĢº áĢ¾
áĢ· áĢ·
ĠáĢĺáĢļ áĢĢ
Ġáģħ áģħáģĢáģĢ
ĠC IA
ic t
ĠI Q
om o
ĠE ss
Ġáģģáģģ áģĢáģĢáģĢ
ĠNCA S
tic k
áģģáģīáģĢ áģĦ
ĠSup port
ĠâĢĪâĢĪ âĢĪâĢĪ
J ohn
T D
áĢ¼ áĢ¾áĢ®áĢ¸
áģĢáģģáģ ĩ
áĢį áĢĢ
áģģáģī áģģáģĥ
ĠC IT
ĠM ail
ĠT own
.. ..
ĠF estival
om as
oc ol
Ġs elf
St andard
ank ing
P ositive
r el
áĢºáĢ¸ )
ĠáĢĽ áĢĻáĢŁ
ĠáģĤ áģģáģĩ
ĠC SR
ĠM yan
en ing
ĠP ersonal
re ak
ĠL anguage
ĠE r
áģģáģĪ áģīáģĦ
Ġáģģáģĥ áģī
ĠW i
Ġáģģáģĩ áģĦ
um ber
ĠCh ampionship
EC D
ĠAr ch
ĠInd ex
mer g
H t
R ec
d m
áĢħ áĢŀáĢĸ
áĢŀ áĢĶáĢħ
ĠáĢĳ áĢģ
ĠáĢĻáĢĽ áĢĻáĢģ
áĢºáĢ¹ áĢŃáĢ¯
áĢ±áĢ«áĢ· ..
Ġáģĥ áģģáģĢ
ĠS Q
ĠP f
ĠG et
ĠH ong
áģģáģħ áģĦ
ĠW al
ĠáģģáģĦ áģī
ul a
Ġin ter
ĠCo ord
ĠTomorrow áĢĤ
Tour ism
acc ine
3 8
L ine
P er
y p
áĢ± áĢ»
ĠáĢ¡áĢģ áĢħ
ĠáĢħáĢĢ áĢĢ
áĢĮ áĢĿáĢĲ
áĢĤáĢľ áĢŀ
áģģáģĪ áģĩáģĪ
ĠáģĤáģĩ áģħ
ap e
ens ive
Ag reement
iam ond
ĠAcadem ic
I G
l ess
p ir
ĠN P
ĠN ations
ĠS ar
al ue
ĠP T
ĠR IT
ĠáĢĻáĢĻ áĢħ
Ġáģģáģĩ áģĥ
ĠáģĤáģĤ áģĦ
Ġp age
Ġb ook
áģĪáģħ áģħ
ĠComm ission
Com merce
ĠSur vey
ĠShop ping
A b
Y O
Y ear
d es
i od
l o
s and
áĢ± áĢ°
áĢ° /
áĢ±áĢ¬áĢº áģı
áĢ»áĢ½ áĢŃáĢ¯
áĢĮ áĢ¦
áĢĲáĢħ áĢĢ
ĠC ross
ĠS A
Ġáģģáģħ áģģ
ĠY O
con t
ĠFDA áĢĢ
Ġpro t
UP DJC
Pe ace
ĠResp ons
ĠOB OR
ĠUnivers al
ĠYV QC
G r
G AP
áĢ± áĢº
ĠáĢŀ áĢĽáĢĻ
áĢŀ áĢĢáĢĶ
ĠáĢ¡áĢķ áĢĳ
ĠC artoon
ar ian
ĠáĢĻáĢħ áĢĻ
ĠF riend
ĠB ritish
Ġáģģáģħ áģĤ
ĠO peration
áģģáģĥ áģĨ
ĠTr end
St ar
ĠMicro finance
ĠRel ief
Eng ineering
ĠOrch id
Ġ us
Ġ all
áĢ¯ áĢ°
áĢ¾ áĢ·
Ġáģĥ áģĤáģĢáģĢ
Ġáģĥ áģĤáģĨ
ĠS pr
or al
it amin
ĠG ym
áģģáģĪ áģī
ol a
un ction
ĠáģĤáģĥ áģī
av y
MA R
Tr ade
uy en
Ġpr int
5 5
H uman
M IC
S F
l ar
u ation
áĢ· áĢ·áĢº
áĢ¬áĢ¸ áģı
áĢ¡ áĢĴ
áĢŃáĢ¯áĢ¸ áģį
áģĥ áģĦáģĢ
it an
ĠB Sc
ĠáģĤáģĥ áģħ
ist ory
Ġd is
In s
PC O
anc ed
ĠCons ult
ĠMich ael
D E
b ox
áĢ¬ áĢ¯
áĢĲ áĢķáĢĦ
ĠáĢĲ áĢĿáĢĻ
áĢ±áĢ¸ áģı
Ġáģģáģī áģģáģĤ
ĠP H
ĠáģģáģĢ áģħáģĢ
áģģáģĢ áģħáģĢ
ĠáģģáģĪ áģĨ
ur i
ot s
Ġáģĩáģħ áģĢáģĢ
ĠSp ace
ĠFr anc
ĠLD C
Ġáģ¾ áĢĢ
ĠPay ment
ĠStrate gy
ĠNVC áĢĢáĢĲ
6 8
E d
R ev
W e
s in
áĢ¯ áĢ»
áĢ± áĢŃ
áĢĲ áĢŀáĢĦ
áĢŀ áĢĩáĢĦ
áĢģ áĢľáĢħ
ĠáĢ¡áĢķ áĢĻ
ĠáĢĤ áĢĽáĢĶ
áĢ¼áĢŃ áĢ·
ĠáĢĺáĢĿ áĢĸ
ĠB er
Ġáģģáģħ áģĨ
ĠH laing
as c
and ing
ik ip
An d
ĠHold ings
ĠProm otion
P G
f ul
p ol
â ĺ
áĢŃ áĢ®
áĢĢ áĢĲáĢħ
áĢĽ áĢĲáĢĢ
áĢľ áĢĿáĢĲ
ĠáĢĿ áĢĽáĢĶ
ti es
ĠH appy
ĠáģĥáģĢ áģĦ
áĢĥ áĢĻáĢŁ
ĠCl oud
Ag riculture
ĠMe eting
~~~~ ~~~~
áĢĢ áĢĽáĢķ
áĢ½áĢ± âĢĭ
áĢį áĢı
er áĢĲ
ĠC H
es tion
ĠB and
ĠáģģáģĪ áģĩáģĪ
áģģáģĦ áģĩ
id es
ĠJ ack
ĠáģĤáģĢáģģáģĨ áģĤáģĢáģģáģĩ
Ġf atty
nest y
áĢ¾ áĢ¾
ĠáĢŀáĢĲ áĢĲ
áĢĲáĢĽ áĢ¡áĢĻ
or a
ĠH an
áģģáģĪ áģīáģĪ
Ġb e
ĠÂ ·
ett ing
ĠWill iam
ĠRich ard
3 4
B F
J P
P oint
Ġ ab
ĠáĢĻ áĢĻáĢĦ
Ġáģ ½
ĠáĢ¡áĢħ áĢĸ
ĠáģĦ áģĤáģħ
ĠáĢķáĢĳáĢĻ áĢĸ
ĠS ong
ĠF re
ĠF ort
ro gen
áģģáģĪ áģīáģħ
ĠIn fluenza
áģĦáģħ áģĢáģĢ
if f
ph oto
iss an
Ġg en
Ġï»¿ ï»¿
ens or
ĠHe art
ĠMar c
áĢ±áĢ¸ ..
áĢ½áĢ¬ áĢ·
áģĦ áģĢáģĢáģĢáģĢ
ĠA st
ĠP ackage
ĠF e
ĠD i
ĠáģģáģĨ áģī
áģģáģĦ áģĨ
ag o
ang oon
ĠPro v
Ġ2 4
ĠPe oples
ĠBank ing
ĠCap acity
---------------- ----------------
hu a
ĠGGS áĢĢ
a ing
c er
áĢĻ áĢľáĢķ
áĢħ áĢĻáĢĲáĢĶ
áĢŀ áĢĹ
áĢ° âĢĭ
áĢŁ áģ¼
ĠáģĦ áģĩáģĢ
ĠC A
ĠA id
ĠB ack
ĠáģģáģĪ áģĪáģī
as m
ap y
ab it
áģĥáģĩ áģħ
ĠKIA áĢĢ
ĠPh otos
âĢĤ âĢĤ
MS T
ys is
Ġáģ¾ áĢ¡áĢĢ
ĠProduc tion
ĠAut o
ĠInst agram
ced ure
S kill
Ġ @
áĢŃáĢ¯ "
áĢŃáĢ¯ âĢĭ
ĠáĢĲ áĢĻáĢļ
áĢĻ áĢ¡áĢĲ
áĢ±áĢ«áĢ· "
ĠC NG
ĠA rea
ĠP LA
ĠT ik
es is
ĠáĢ¡áĢĿ áĢĢ
ĠH en
ĠU B
ĠL ou
áģģáģĤ áģĢáģĢáģĢ
and emic
áģģáģĥ áģģ
ell ing
ĠPh one
ograph y
ĠInn ovation
g a
i tics
áĢ» áĢ±áĢ·
ĠáĢľ áĢľ
áĢ® áĢº
ĠáĢħ áĢĲáĢĬ
áĢĿ áĢĩ
ĠC a
ĠS S
al áĢĢ
áĢļáĢĢ áĢ¡áĢĸ
Ġáģģáģħ áģĦ
ĠR am
is tic
ĠW alk
Ġp ower
ep t
Ġáģĥáģĥ áģĢáģĢ
ĠZ oom
anc er
ĠBl og
ĠPl atform
pl ay
ĠChar les
ris tian
rib ution
ĠGI Z
ĠIndepend ent
A X
P ad
R ed
n g
z a
Ġ en
áĢ± áģĭ
áĢĻ áĢĸáĢĲ
áĢĻ áĢĿáĢĻ
ĠáĢģ áĢĽáĢĦ
áĢĨ áĢĳ
Ġ) áģı
Ġáģħ áģĪáģĪ
ĠC I
Ġáģģáģī áģģáģĨ
Ġáģģáģī áģĤáģĨ
ar n
ĠB IA
ĠI FC
el ter
Ġáģģáģĩ áģĤ
ĠJ an
áĢ© áĢĢ
ĠáģĤáģĪ áģħ
ĠFacebook áĢķ
áģĤáģī áģĦ
af ety
ye in
iter acy
ĠBal ance
T ech
áĢ» áĢ·áĢº
áĢ²áĢ· áĢ²
áĢ½áĢ² áĢ²áĢ·
in ce
áĢĻáĢĽ áĢĻ
ĠP en
ĠL iving
le ment
Ġs ervice
ĠEx change
ĠMask áĢĲáĢķ
tific ial
ĠIns urance
S an
U R
g in
u mar
áĢ¬ áĢ¹
áĢŃ áģį
ĠáĢĳ áĢŀ
ĠáĢĴ áĢ¿
ĠáĢĽáĢĲ áĢķ
ĠN ight
ĠA lex
ĠD ouble
ĠK e
áģģáģĪ áģĤáģĨ
áģģáģĪ áģĪáģī
ou ld
ĠáģĤáģī áģĢáģĢ
ĠSt e
ĠSt art
ul ly
ra z
Ġp e
ond a
ĠAss essment
ble m
ĠPres ident
ĠMyanmarNow áĢĢ
G e
L áĢĢ
N ormal
S eed
áĢŃáĢ¯ áģı
ĠáĢŀ áĢŀ
ĠáĢľ áĢĿ
ĠáĢľ áĢ¡áĢĲ
áĢĳ áĢľ
ĠáĢħáĢĢ áĢķ
áĢ¼áĢ® ..
áĢĲáĢĬ áĢĦ
ĠáģĦ áģĤáģĩ
ĠS a
ĠS k
ĠA y
Ġáģģáģħ áģĪ
ic i
ĠD om
ĠW ang
ĠW CS
id a
áģģáģĥ áģĦ
ĠáģĤáģĤ áģĢáģĢáģĢ
Ġm y
ab a
Ġd aily
ong áĢĢ
ĠáĢĻáĢĽáĢĽ áĢ¡
ff air
ss ue
Con vention
ĠSelf ie
ĠHer itage
áĤħ áĢ¬
ðŁļ¥ðŁļ¥ðŁļ¥ðŁļ¥ ðŁļ¥ðŁļ¥ðŁļ¥ðŁļ¥
ĠDoc ument
A h
ĠáĢĢ áĢĸ
áĢĻ áĢ¡áĢŀ
ĠáĢķ áĢĮáĢĻ
áĢ¡ áĢ¥
ĠáĢ¡áĢĽ áĢĻáĢĶ
ĠáģĤ áģģáģĤ
áĢĩ áĢĺáĢı
áģĥ áģĩáģĢ
áĢĲáĢĽ áĢľ
ĠM i
ar ia
ĠF ever
ĠR NDP
ĠáģģáģĪ áģĤ
ĠL ot
áģģáģĪ áģĨáģĢ
ĠáģģáģĦ áģħáģĢ
áĢ© áĢĺ
tic les
ĠMS F
ĠSec ret
ĠTeach er
ĠPop ular
p tion
ĠáĢĻ áĢ¡áĢĦ
áĢ¼áĢ®áĢ¸ âĢĭ
áĢĻáĢĲ áĢģ
ĠáĢ¥ áĢķáĢĽ
ĠM BA
en ess
ĠáĢ¤ áĢŀ
ĠáģģáģĪ áģĥ
ĠáģģáģĪ áģĦ
áģģáģĪ áģħáģĢ
az ine
ĠReg ional
b an
s áĢľ
áģ ¶
ĠáĢĲ áĢī
ĠáĢ¡ áĢĮ
áĢĽ áĢı
áĢ¡ áĢı
ĠáĢŁ áĢĤ
ĠáģĢ áģĪ
áĢ±áĢ«áĢ· áģĭ
ĠT ri
ĠG ender
ĠG allery
ĠE ase
ĠE arth
ag en
oh ing
ĠRes ource
Ex port
ĠDel ivery
Mark et
EL TS
tre preneur
ikip edia
5 00
D ec
K BZ
ĠáĢ¡áĢĽ áĢĿáĢĦ
ĠáĢĤ áĢĦáĢļ
ĠN C
áģĤáģĢ áģĦ
ĠT em
ĠH D
ĠáģģáģĪ áģħáģĢ
áģģáģĤ áģī
ĠáģĥáģĪ áģĢáģĢ
ĠAc id
ric ultural
ER S
Ġ5 0
mit h
ĠWh ats
ĠáĢĲáĢĻáĢľ áĢĶ
uw un
uddh ist
M icro
S outh
f ort
k ing
Ġ ne
ĠáĢ İ
áĢº áĢ¼
áĢ±áĢ¬ áĢ»
áĢ¼áĢ±áĢ¬ áĢ¸
áĢĺ áĢĻáĢŀ
áĢ½áĢ¾ áĢŃáĢ¯
ĠC over
ĠC TUM
ĠM W
ĠM ass
áĢ¡áĢĸ áĢĲ
ĠS n
ĠáģģáģĪ áģĩ
ĠáģģáģĪ áģĢáģĢáģĢáģĢ
ĠO ECD
ĠY CDC
ra p
ĠPro perty
DP áĢķ
áģģáģīáģĢ áģģ
min al
ati s
fess or
ĠÃ ĵ
ĠDe ad
ĠSer ies
Ġapp lication
olar ship
ĠAG D
ĠEqu ality
Part y
Ġed ucation
8 9
C oun
D isease
F I
S er
V OA
áĢ¶ áĢ¯áĢ¸
ĠáĢĳ áĢĽáĢķ
áĢ½áĢ²áĢ· áģı
ĠM er
ĠS ign
ĠA K
or ial
ĠáģĤáģĢ áģĤáģĥ
ĠáĢĢáĢĦ áĢĻ
ĠR un
ĠR ain
ĠE Q
áģģáģĦ áģĥ
ot al
ri ve
Ġáģĥáģĩ áģĢáģĢ
áĢ»áĢ¯áĢ¸ áĢŃ
NCA áĢħ
ĠMot or
ĠEconom y
hib ition
D S
S ur
áĢĽ áĢĿáĢĿ
ĠáĢ¡áĢĽ áĢĿ
áĢ¡áĢķ áĢĻ
ĠS port
ĠT in
ĠD on
ĠH ol
áģģáģĨ áģĪ
ot he
Ġm e
Ġm edia
ĠáģĥáģĢáģĢ áģĢáģĢáģĢ
In formation
Ġn ot
áģģáģīáģĢ áģī
und er
af e
ĠMA PCO
ĠJICM áĢ¡áĢħáĢĬ
ĠDem ocratic
ĠUp date
Rep ort
E X
U E
c ent
r im
áĢĽ áĢ¡áĢĻ
áĢ² áĢ¸
ĠáĢĺ áĢķ
ĠáĢ¡áĢĽ áĢļáĢĦ
ĠáģĤ áģģáģĥ
áĢ¡áĢķ áĢĢ
ĠC am
ĠS IM
ĠS SR
ĠB I
ĠB PI
Ġáģģáģħ áģī
ĠH op
el a
ĠE p
áģĤáģĦ áģĢáģĢ
ra ft
Ġs er
Ġc ol
NLD áĢĢ
áģģáģīáģĢ áģĩ
ner gy
Un ion
ĠVideo Conferencing
ĠAt t
Sec urity
N et
Y ou
b es
Ġ æ
áĢº '
áĢĻ áĢĺáĢĢ
áĢ® "
ĠáĢĽáĢĽ áĢħ
ĠS and
ĠáģĪ áģĦáģĢ
ĠP un
ĠF ast
Ġáģģáģħ áģħáģĢ
ĠG irl
áģģáģĪ áģĪáģĪ
áģģáģĪ áģĪáģĦ
áģĤáģĦ áģħ
ĠáĢĦáĢĽ áĢĻáĢĶ
Ġs pe
uc ky
tit ude
ĠSocial Distancing
ĠWork ing
ĠCD MA
ĠMind set
k ong
ĠáĢĽ áĢī
áĢľ áĢĴ
ĠáĢĨ áĢĲáĢĢ
ĠáĢ¡áĢĽ áĢĶáĢĬ
ĠS earch
or ies
it z
ĠB ay
áĢĢáĢĲ áĢĲ
ĠáĢ¡áĢĺ áĢĲ
áģģáģĪ áģĪáģĩ
am ent
st h
ur ities
ĠNCA áĢĢ
ĠAA áĢĲ
Ġp ositive
um e
Ġl aw
lic t
Ġg l
ĠUPDJC áĢĢ
ĠQuarantine áĢĶ
tif ication
Gen eral
M oney
g round
ĠáĢĻ áĢĻáĢŁ
ĠáĢĢ áģ½
áĢ¶ áĢ¯
Ġáģĥ áģĥáģĪ
Ġáģģáģī áģģ
ĠM ig
áĢ»áĢ° áĢ¶áĢ¸
ĠT D
ĠF ire
ĠB ur
ent ure
Ġáģģáģĩ áģħáģĢ
áģģáģĦ áģģ
ĠSt ore
ĠCh an
Ġw e
av i
ĠUWSA áĢĢ
Fac ility
3 6
P áĢĢ
S ME
c ast
n y
áĢ¸ áĢ¸
áĢĻ áĢĲáĢļ
áĢ® (
áĢľ áĢ¡
ĠáĢĨ áĢĴ
áĢĿ áĢĻáĢĽ
ĠáĢ¡áĢĻ áĢķ
ĠáĢĹ áĢĽáĢķ
ĠáĢĵ áĢĲ
ar áĢĢ
ĠS at
ti er
ĠD et
ĠH ello
ĠL ake
ĠL ondon
áģģáģĪ áģīáģī
áģģáģĪ áģīáģĨ
Ġáģģáģĩ áģī
áģģáģĩ áģĤ
áģģáģĩ áģĢáģĢ
ĠV i
Pro t
ĠEm ail
ĠProgram me
ple x
Tom orrow
B uilding
L ockdown
n d
p ect
áĢ¬ áģį
ĠáĢĽ áĢħáĢħ
ĠáĢĶ áĢĽ
áĢ¯áĢ¶ áĢ²
ĠáĢ¡áĢĽ áĢĻáĢĬ
ĠáĢ¡áĢĽ áĢķáĢĦ
áģĦ áģĤáģħ
ĠM u
ĠM ill
ĠF uture
ĠU r
ĠáģģáģĪ áģīáģĢ
Ġf ood
ash ion
ĠX ia
ĠFin ance
ĠTomorrow áĢŀ
ĠDoc tor
ĠAustral ia
A ut
D igital
F R
U K
l ad
áĢĽ áĢĹ
ĠáģĢ áģĨ
in h
ĠP M
ĠI A
ĠE c
ĠE merg
áģģáģħ áģĪ
ĠW NO
Ġáģģáģĩ áģĪ
áģģáģĦ áģĤ
Ġs ur
áģĤáģĩ áģħ
ĠFacebook áĢĻ
Ġáģĩáģħ áģĢáģĢáģĢ
ill age
ĠIC E
anc y
Com mittee
ition al
A s
E lect
I E
o en
áĢĬ áĢī
ĠáģĤ áģģáģģ
áĢĩ áĢĹáĢĢ
áģħ áģĩáģħ
ĠâĢ º
áģĦ áģĩáģħ
áģĢáģģáģ Ħ
Ġáģħ áģĪáģĢ
ĠM il
ĠS TE
ĠS olar
áĢĻáĢĢ áĢĢ
ĠT ask
ĠD ev
ĠJ ob
ĠIn itiative
áģĥáģħ áģĦ
ĠáĢŃ áĢ¯
ĠYBS áĢļ
iv ir
ĠPr incip
ox in
NCA áĢľáĢĢ
ĠHE Mr
ĠRep ublic
ĠSw ab
M o
S ociety
U NG
b all
b oard
b ody
Ġ ass
áĢĲ áĢ¡áĢĢ
ĠáĢĢ áĢĩ
ĠáĢķ áĢĻáĢĬ
ĠáĢķ áĢĮ
ĠáģĬ âĢĭ
ĠáĢĻáĢľ áĢĶ
ĠáģĦ áģĨáģĢ
ĠáĢĻáĢĻ áĢķ
as on
ĠáĢ© áĢĢ
áģģáģħ áģģ
ĠáģģáģĨ áģĥ
áģģáģĥ áģħáģĢ
Ġp ar
ers ion
FA O
áģģáģīáģĢ áģĤ
AN MAR
ĠNg uyen
Ġmess age
ĠProvisional Measures
B BC
u a
Ġ over
áĢ¯ áĢŃáĢ¯
ĠáĢŀ áĢĻáĢĬ
áĢ²áĢ· áģį
áĢŃáĢ¯áĢ· áĢ·
áĢĴ áĢ¥áĢļ
ĠáĢĽáĢĶ áĢĬ
áĢ¾áĢ°áĢ¸ áģį
áĢ¡áĢĽ áĢ¡
ĠáģĦ áģģáģĢ
ĠáģĦ áģīáģĢ
in ter
ĠN ormal
ĠT s
ĠT alk
ĠG B
áģģáģĪ áģĨáģĩ
áģģáģĥ áģī
Ġp art
Ġc redit
Ġm od
ĠáģģáģīáģĢ áģĩ
ĠáĢŀáĢĻáĢĲ áĢ¦
Re uters
ĠYM BA
6 14
k h
n es
v al
áĢŃáĢ¯ .
áĢŃáĢ¯ áĤĽ
áĢ±áĢ¬ áģ¤
ĠáĢĻ áĢĶáĢļ
áĢĻ áĢĻáĢŁ
áĢħ áĢĨ
ĠáĢľ áĢĤ
ĠáĢĨ áĢģ
áĢĻáĢĲ áĢŀáĢħ
ĠáĢĻáĢŀ áĢļ
Ġáģħ áģĨáģĢ
ĠC MEC
ĠS C
ĠáģĨ áģĨáģĢ
ĠD irect
Ġáģģáģĩ áģĩ
ec onom
áģģáģĩ áģĨ
áģĤáģĩ áģī
áĢĲáĢĽáĢĢ áĢķ
Ġm o
áĤ İ
Ch in
ah oo
áģģáģīáģĢ áģĥ
Ġac count
alay sia
ĠTel ecom
ĠId entity
ĠPass port
ĠBang kok
A ct
M Y
m ad
áĢ² âĢĿ
ĠáĢĻáĢĬ áĢħ
áģĥ áģĤáģĥ
ĠM CC
al c
ĠáģĤáģĢ áģĨ
ĠD es
ĠU l
re y
áģģáģħ áģĨ
áģģáģħ áģī
ol f
id ge
ĠV iet
um er
Ġf b
áģĥáģĨ áģħ
áģīáģī áģī
lic k
ĠáģģáģīáģĢ áģĪ
Ġpro cess
ĠCCTV áĢĢáĢĦ
ĠCB T
Ind ia
áģģáģģáģħ áģĢ
ĠIs land
ĠSaf e
________________ ________________
3 1
A meric
D ep
Â ±
áĢĻ áĢķáĢĦ
ĠáĢŀ áĢĳáĢĢ
ĠáĢŀ áĢĻáĢĲáĢĽ
áĢŀ áĢľáĢķ
áģĥ áģģáģĢ
ĠS quare
al i
or age
ĠR aj
el e
ol ic
ĠV is
ĠáģĤáģĥ áģĤ
ab y
ĠáģħáģĢáģĢ áģĢáģĢáģĢ
Ġl ike
Ġh ome
ile ik
PS LF
ound er
Ġre g
ĠFr ank
ĠTrans parency
ĠUSDP áĢĢ
Cl ass
ĠElect ric
Ky aw
ĠDevelop er
B ar
R ights
S ervices
d a
d en
â Ĺ
áĢ¼ áĢ·
ĠáĢĻ áĢĹ
áĢĴ áĢŀ
ĠáĢļ áĢ¥
áĢĤ áĢļáĢĢ
ĠáĢ¡áĢĽ áĢĻáĢĲ
ĠáĢ¡áĢĽ áĢ¡áĢĸ
áĢĮ áĢĻáĢĻ
áĢĹ áĢŁáĢĶ
ĠN issan
ĠS om
ti um
ĠA ge
ĠT ower
ĠáģģáģĪ áģīáģħ
ro ad
áģģáģĪ áģīáģĩ
ĠW ith
áĢ§ áĢĢáĢĽ
áģģáģĨ áģĤ
áģģáģĨ áģĩ
ay e
ver t
ĠCh ap
ĠâĢĭâĢĭ âĢĭ
ĠáĢ¹ áģĭ
ob ia
ĠáĢ½ áĢ¸
iv id
Ġsh are
ĠAC E
ĠFB I
ĠSkill s
MST EC
6 6
8 4
A ung
A ward
M ay
Y BS
a is
p ower
áĢº Â´
áĢº áģ¢
áģ ¸
áĢĿ áĢĢáĢĦ
ĠáĢĺ áĢľáĢħ
ĠáĢ¡áĢĽ áĢ¡áĢĶ
ĠáĢĻáĢĽ áĢĨ
áĢ¼áĢ® "
ĠáģĢ áģĥ
ĠáģĢ áģĩ
áģĦ áģĦáģĢ
áĢ¡áĢĽ áĢľ
ĠC ourse
ĠM is
ĠáģĤáģĢ áģĦ
ĠB ase
ĠR iA
at us
ĠU V
áģģáģħ áģĤ
ĠáģĤáģĤ áģĩ
Ġp re
áģĥáģĨ áģĥ
ĠáĢ¹ áĢ»
ell s
ĠEn trepreneur
ĠWin ner
uth or
ĠCoun s
ĠChild ren
ĠRap id
ohing ya
! !
L ist
N R
T ime
U A
m all
r ight
v an
Ġ å
áĢ¡ áĢĻáĢļ
áĢ¼áĢ®áĢ¸ áģı
ĠáĢĴ áĢĽáĢħ
áĢĲáĢĦ áĢĦ
áĢĲáĢĻ áĢĸ
ĠM ad
ĠM erc
áģĤáģĢ áģĤáģĥ
ĠF FM
ĠG od
ĠH ig
ĠK achin
áģģáģĪ áģĩáģĢ
am ar
ed d
ist ur
ach ine
ach ileik
M M
l ight
áĢ¯ áĢº
ĠáĢ¡áĢĽ áĢĽáĢĦ
ĠáĢ¡áĢĽ áĢ¡áĢħ
Ġáģģáģī áģģáģĥ
ĠN ar
ĠS in
ĠS NDP
ĠA uthority
ĠI ELTS
ĠR en
áģģáģĪ áģĩ
ĠO NE
ĠIn vest
ch an
ul f
Ġc amp
tern al
ĠComm on
ĠOr der
oll ower
ĠEng ine
UN FC
reat ment
ĠStud ies
ĠNation wide
ĠLeg al
F armer
H igh
i que
v ard
ĠáĢĲ áĢĳáĢĬ
áĢĻ áĢķáĢĴ
áĢĻ áĢ¡áĢŀáĢĢ
ĠáĢĶ áĢģ
ĠáĢĴ áĢľáĢĢ
ĠáĢ¡áĢĽ áĢĢáĢĶ
áģĤ áģĤáģĦ
Ġáģĥ áģĤáģĦ
Ġáģĥ áģĥáģĥ
ĠáĢĻáĢŀ áĢĩáĢĦ
er ator
ĠC ustom
en tion
ĠF ield
it ation
ĠH ow
ĠK FC
áģģáģĪ áģīáģĤ
áģģáģħ áģĩ
ed es
áģģáģĩ áģĪ
ĠAA C
ul es
ĠCh en
ĠPh ase
ĠÂ ´
Ġï»¿ áĢ·
ĠCl imate
Ġa ut
ĠLe ague
eed back
Ind ex
ĠEv ent
iction ary
des ivir
B M
B us
P F
S u
T raining
U p
áĢ± .
ĠáĢĲ áĢĨáĢħ
áĢĳ áĢĽáĢķ
áĢ»áĢ½ áĢŃ
ĠC V
ĠM ont
ĠN an
ĠA ud
ĠG R
ĠG overnance
áĢĻáĢķ áĢĽáĢŁ
un ch
ay er
ĠSt ra
ĠThe ory
Ġc ode
ĠáĢĢáĢĽ áĢĿ
áĢķáĢĳáĢĻ áĢ¦
pe an
Ġ5 00
ĠChin ese
b on
w ood
y th
Ġ eff
ĠáĢĹ áĢľáĢĢ
ĠáĢĤ áĢĽáĢĦ
ĠáģĢ áģĦ
áĢħáĢķ áĢļ
Ġáģħ áģĩáģĢ
ĠC amb
ĠáĢķáĢĳáĢĻ áĢ¡áĢķáĢĲ
ĠL oan
Ġáģģáģĥ áģĢáģĢáģĢáģĢ
ĠáģĤáģħ áģĢáģĢáģĢáģĢ
id ay
ĠSt ructure
áģĤáģĤ áģĤ
áģĤáģĨ áģĢáģĢ
ab ase
ect ure
ĠPr int
ĠBl oom
ress ion
Ac count
ĠTeach ing
ĠSE Z
ĠFAQ áĢĲáĢħ
ffair s
4 9
L ib
r d
u ge
Ġ organ
áĢĻ áĢħáĢī
áĢ¡ áĢĤ
áĢĺ áĢĽáĢĶ
ĠáĢ¡áĢĽ áĢĻáĢľ
áģĦ áģģáģĢ
in ion
ĠS av
ĠáĢĩáĢĶ áĢķ
ĠK O
el áĢĢ
áĢĻáĢķ áĢĭ
am i
ol k
áģĤáģĨ áģĥ
ĠáĢ¿ áĢĴ
ell er
ĠTh an
ĠáĢ¼ áĢ¯
ok ia
ric k
ĠAir lines
An ti
ĠPer formance
ĠNov el
âĢĶâĢĶ âĢĶâĢĶ
ĠHor iz
D is
E m
L ab
u ce
Ġ it
ĠáĢķ áĢĨáĢħ
áĢ² áĢ¶áĢ·
ĠáĢ¡áĢħ áĢĢáĢĶ
áĢ»áĢ¾ áĢ®
ĠáĢĻáĢĬ áĢĬ
ĠáĢĲáĢĶ áĢķ
áģĥ áģĤáģĦ
áĢħáĢĢ áĢĦ
Ġáģħ áģĤáģħ
ĠM d
ĠS o
ti al
al ance
ĠP o
ĠR SO
ĠL ow
ter s
áģģáģĢáģĢ áģĢáģĢáģĢ
per ial
Ġg u
Sh ow
to G
ĠMO GE
ple ment
Al l
ĠIs lam
ĠPass word
ĠLead ership
ĠPhys ical
ĠMonitor ing
D irector
L a
S un
Ġ ^
áĢ±áĢ¬ ..
áĢ² áĢ²
áĢģ áĢŀáĢħ
áĢ¾áĢŃ áĢ°áĢ¸
ĠáĢ¡áĢĻ áĢĦ
ĠáĢ¡áĢĻ áĢĸ
áĢ½áĢ²áĢ· (
ĠáĢľáĢĢ áĢľáĢĬ
ĠáĢħáĢĢ áĢħ
ĠáĢĻáĢķ áĢļ
áĢĲáĢĽ áĢĨ
ĠS y
ĠA Q
ĠT arget
it arian
ĠB ir
ĠD F
ĠD iamond
ĠK D
ad or
ĠáģĤáģī áģĦ
Ġt ax
ĠSh an
eg ree
In vestment
Ġâ Ŀ
Ġl ine
ĠTr uck
ind ex
AR SA
Cl inic
ĠSur g
ĠCIT IC
P op
e al
w an
áĢº [
áĢ¯áĢ¶ áĢ¯áĢ¸
ĠáĢĺ áĢĿáĢĶ
ĠáĢĦ áĢĻáĢĶ
ĠâĢ ī
ĠáĢĻáĢĢ áĢľ
áģĨ áģĢáģĢáģĢáģĢ
ĠáģĦ áģĩáģħ
ĠM ap
ĠM its
ĠáĢķáĢĳáĢĻ áĢĿ
ac tice
ĠU AE
el ess
ro t
áģĤáģĥ áģĤ
Ġs mart
áģĥáģī áģĦ
ĠTh ailand
Ġ2 7
ĠFr on
Ġcom ment
Media Group
ĠMart in
ĠSeas onal
ves tig
ĠTable t
A SEAN
D T
H er
N S
m ore
Ġ om
áĢĢ áĢĬáĢħ
ĠáĢĢ áĢĭ
ĠáĢĽ áĢĸáĢĶ
ĠáģĬ áģĭ
ĠáĢĦ áĢĺ
ĠáĢ¥ áĢĻáĢĢ
ĠC ost
ĠT H
ĠT ea
ĠáģģáģĤ áģĪáģĤ
ĠD C
ĠáģģáģĪ áģīáģĤ
ro ck
ĠE M
he t
ol áĢĢ
ad ies
ur s
ĠáģĤáģĤ áģĪ
Ġs ex
os h
od a
ĠTh omas
Ġh ost
ĠARSA áĢ¡áĢĢ
ĠComp lex
Th an
ĠIm age
itt le
TS H
Mark eting
ĠAmaz on
B O
D o
L ight
O x
b urg
h ouse
k ins
o at
Ī ĳ
áĢŃ áĢ°áĢ¸
áĢ¼ áĢ»
áĢļ áĢĬ
áĢ° "
ĠáĢ¡áĢĽ áĢĲáĢĶ
áģĢáģģáģ ģ
ĠáģĦ áģĤáģĢáģĢ
Ġáģħ áģĤáģĢ
ĠM ade
ĠM easures
ĠS uc
ĠáģĤáģĢ áģħ
ĠT oday
ĠF an
ĠI F
ac tive
ĠG arden
om ain
as tic
ĠáģĤáģħ áģħ
áģĤáģħ áģħ
ĠV oc
ĠV irus
Ġs kill
ĠSh in
ĠYBS áĢĢ
Ġg roup
Ġn egative
ish i
ĠáģģáģīáģĢ áģħ
à¸ ²
ĠGu id
Âł Âł
ĠRev olution
ĠZh ang
Ġcont rol
ĠIR RI
ĠPri mary
ĠGuard ian
ĠSTE M
J MC
M et
l im
u et
v ent
z er
Ġ à¤
áĢķ áĢľáĢķ
áĢ» áģį
ĠáĢĽ áĢ¡áĢĦ
áĢĽ áĢľáĢĻ
áĢģ áĢľáĢļ
ĠáĢĺ áĢĤ
ĠáĢĺ áĢĽáĢĦ
áĢı áĢĻ
áģĤ áģģáģĪ
áģĢáģģáģ ģáģ
áĢ¡áĢĽ áĢĽ
ĠN ature
ĠáģĨ áģĥáģĢ
ĠáĢĻáĢĨ áĢĬ
ĠO il
ĠJ CB
áĢĽáĢĽ áĢĻáĢĽ
ig inal
ĠSt eel
ra v
áģĤáģĤ áģĪ
Ġw in
ear s
ai áĢĢ
ff ic
En vironment
eter min
ĠLib rary
======== ========
ĠRob ert
ĠBro ad
áĢ¯áĢ¯áĢ¯áĢ¯ áĢ¯áĢ¯áĢ¯áĢ¯
achel or
B y
E E
G C
G N
i at
n o
áĢ¯ áģİ
áĢĻ áĢĿáĢļ
ĠáĢŁ áĢľ
ĠáĢ¡áĢĻ áĢĵ
áģĦ áģĥáģĢ
áģĦ áģĪáģĢ
áģĦ áģĦáģĩ
áģĤáģĢ áģħ
Ġáģĩ áģĤáģĢ
ĠB h
ĠB oy
ĠD ream
ĠNLD áĢ¡áĢĶ
áģģáģħ áģĥ
ĠW heel
áģģáģĨ áģģ
ĠO pp
áģģáģĥ áģĥ
áĢģáĢĻ áĢĸ
Ġp dm
áģĤáģĤ áģĩ
ip s
ĠUn iverse
ain st
ĠAr tist
her e
fl ation
ĠFin al
ĠSen se
Bl ack
ĠSK D
ĠEnvironment al
K G
L imited
U EC
l av
áģ ¡
áģ ¹
ĠáĢĻ áĢĵ
ĠáĢĢ áĢŀáĢĬ
ĠáĢĢ áĢĬáĢħ
ĠáĢŀ áĢĿáĢĶ
áĢĽ áĢĮ
áĢ¶ âĢĭ
áĢ¼áĢ®áĢ¸ ..
Ġáģĥ áģģáģħ
Ġáģħ áģĦáģĢ
ĠC itizen
ĠM ary
ar ning
ĠA ug
ĠáģĨ áģĦáģĢ
ĠH ydro
áģģáģĦ áģī
ul um
Ġc ur
Ġd o
áĤ Ĥ
ĠZ aw
ĠCl inic
Sh ield
oe ing
ĠMus e
ĠDem and
ĠLab our
Cor poration
aur ant
ĠTer minal
ĠVic tor
ĠNP K
abit at
0 2
3 2
P res
U SA
Ġ {
ĩ ²
áĢŃ âĢĭ
ĠáĢĲ áĢĻáĢŁ
áĢĻ áĢ¡áĢħ
áĢľ áģ½
ĠáĢŁ áĢĳ
áĢħáĢķ áĢħ
áģģáģī áģģ
ĠT wo
áĢĢáĢľ áĢĲ
ĠF arm
ĠB O
ĠB agan
re me
áģģáģĪ áģĪáģĢ
áģģáģĪ áģīáģĥ
ul ph
Ġs ub
Ġc heck
ĠCh ang
Ġáģĥáģģ áģĢáģĢ
áĢ»áĢº áĢ¬
ĠAr tificial
ĠIm pact
Pl ant
Eng lish
Stay atHome
B PC
b um
c ar
ĠáĢĢ áĢĺ
ĠáĢĬ áĢĻáĢĳ
âĢ ĥ
ĠáģĢ áģĨáģĩ
áģĪ áģĢáģĢáģĢáģĢ
ĠC rown
ĠN eg
ĠáĢķáĢĳáĢĻ áĢ¡áĢħ
ĠA h
ĠP sych
ĠT a
ĠD MG
is tics
ĠW itness
ĠáģģáģĨ áģħáģĢ
am an
ed eral
áģģáģĩ áģĥ
ur t
áģĤáģĥ áģĦ
ĠáĢ¿ áĢĢ
Ġl a
Ġ3 2
pl oy
Ag ency
ĠMin ister
ĠPre m
ris is
ĠStud ent
ĠNH K
ĠAp artment
ĠEth nic
Ġbl ack
egr ated
ĠPf izer
F i
a áĢĻ
l ock
w ell
áĢĢ áĢĲáĢĻ
áĢ½ áĢ¯
áĢ±áĢ¸ áģĮ
áĢĨ áĢĽáĢŀáĢĬ
áĢĤ áĢł
ĠáĢĩ áĢķ
Ġáģĥ áģĥáģħ
ĠC at
ĠM ilitary
ĠS even
en ec
ĠT I
ĠK al
áĢķáĢĢ áĢ¡áĢĸ
áģģáģĪ áģĤ
le g
ol ation
ĠáĢĻáĢĤ áĢĴ
ter áĢĢ
áģģáģĩ áģĦ
áģģáģĨ áģħáģĢ
áĢĢáĢĮ áĢĴ
Ġp ay
ĠTh i
St rate
ph p
Ġg ood
ĠSc an
Ġre port
ĠPar is
ĠKy i
Me eting
B E
L earning
a tic
p m
r in
áĢĽ áĢī
ĠáĢ¡áĢĽ áĢĲáĢĦ
ĠáĢ¡áĢĽ áĢĿáĢĶ
ĠáĢ¡áĢĸ áĢħáĢħ
ĠáģĤ áģĤáģģ
áĢĮ áĢĲ
ĠN or
ĠN ot
ĠS W
ĠS ang
ĠB all
ĠK H
re h
ĠL ar
ĠL etter
áģģáģĪ áģĨáģī
ĠáģģáģĦ áģĢáģĢáģĢáģĢ
áģģáģĩ áģħáģĢ
ĠáģĤáģĦ áģħ
ĠáģĤáģĪ áģĤ
op per
áģĤáģĩ áģĢáģĢ
ĠFacebook áĢħ
Ġáģĥáģħ áģĦ
áĢķáĢĳáĢĻ áĢĶ
DA Y
od ium
ĠáģĥáģĦ áģĢáģĢ
Ch ain
pe ti
ater ial
Cl ub
ror ism
ÃĹÃĹ ÃĹÃĹ
ĠAS EM
ĠDown load
ĠBM W
ĠYO PE
lar ation
ĠBI MSTEC
C ourt
F orm
H and
W ave
f eed
l ie
p lan
áĢ¬ áģ¤
áĢĶ áĢŀ
áĢĽ áĢĽáĢķ
áĢĨ áĢĽáĢķ
ĠáĢ¡áĢĲ áĢķ
ĠáĢ¡áĢĶ áĢĦ
ĠáĢĤ áĢı
áĢ»áĢ¬ áģ¤
ĠM TA
ĠM other
en k
ĠáĢĽáĢĻ áĢģ
ĠP A
es tic
ĠáģģáģĪ áģħáģĤ
ro ach
ĠL ady
áģģáģĪ áģĥ
ĠW ay
ĠW estern
ĠO ld
ĠáģĤáģĥ áģĥ
ĠáģĤáģĩ áģĢáģĢáģĢ
ĠSh elter
ell or
Ġl ive
ace ae
ox ide
Pro cess
ĠAss ignment
ĠCont ract
Ġ8 00
ix ed
Ar t
ĠRec ord
App le
ĠCoun ter
ĠSpe ed
ãĢ Ģ
7 9
F ree
O p
O IC
S al
S ch
o is
p ut
r ang
áĢĻ áĢĽáĢĢ
áĢ»áĢ¬áĢ¸ ..
áĢ±áĢ¬áĢº "
áĢĩ áĢĶáĢķ
ĠáĢĽáĢĽ áĢĻáĢļ
ĠC S
ĠáģĨ áģĪáģĢ
al if
ĠP aper
ĠáģĤáģĢ áģĦáģĢ
at o
ĠáģģáģĪ áģģ
áģģáģĨ áģĥ
áģĪáģĪ áģĢ
ĠáģĤáģĤ áģĨ
ĠáģĤáģĨ áģĤ
áģĤáģĦ áģĪ
os c
ap h
ri er
og en
Ġw orld
iss ue
ĠInd ian
ric h
Ġ8 8
oft ware
ĠNo Vote
ĠId ol
áĢµ áĢ¬áĢ¸
ĠHold ing
bio tics
ĠWhats App
G M
M PC
P ort
T P
U I
V C
c el
i ate
ĠáĢ ®
áĢĲ áĢŀáĢĶ
áĢĲ áĢĨáĢĽ
áĢ¾ áĢ·áĢº
ĠáĢĻ áĢĨáĢĽ
áĢĽ áĢ¡áĢķ
ĠáĢŁ áĢģ
áĢ½áĢ¬ "
ĠáģĤ áģģáģĦ
ĠáĢĲáĢĽ áĢĶ
áĢĵ áĢļ
áĢĲáĢĻ áĢı
áĢĲáĢĽ áĢ¡áĢĸ
in ary
ĠáģĨ áģĤáģħ
Ġáģĩ áģĥáģĢ
ĠP P
ĠB ul
ĠB rain
áĢĢáĢĲ áĢĨáĢĦ
om et
ĠK it
áģģáģĪ áģģáģī
áģģáģĪ áģĩáģĤ
st ate
ad i
Ġm ed
ak áĢĢ
áģĥáģĩ áģī
Ġw ater
ud y
ĠRes ources
ĠMan aging
ĠáģģáģīáģĢ áģĦ
ĠQ R
For ce
hem ical
idd le
ĠStakehold er
6 9
7 5
D el
P ic
S ector
áĢ¼ áģį
áĢ½ "
áĢĻ áĢĻáĢļ
áĢ® áĢŃ
áĢ®áĢ¸ áģĬ
ĠáĢĬ áĢĪ
áģħ áģĤáģħ
áģĨ áģĥáģĢ
on se
ĠM ount
ĠM ethod
al ysis
ĠáģĤáģĢ áģī
ĠF I
ĠF our
ĠF ull
ĠáģģáģĤ áģĦáģĢ
ĠR ub
ĠH onda
ĠáģĤáģĨ áģĦ
ig er
áģĤáģĥ áģĥ
áģĥáģħ áģħ
áĢļáĢĻ áĢĿáĢĶ
ĠáĢ± áĢ¼
áĤ Ī
ĠáĢģáĢıáĢģáĢı áĢĢ
Ġin t
ĠEx per
iti s
ich i
Co Ltd
ĠAmeric a
ĠBas ic
ĠOb ama
akh ine
I NG
L i
V ol
f ect
f ood
áĢº áĢ±áĢ¬áĢº
áĢ¯ âĢĭ
ĠáĢĶ áĢ¦
áĢļ áĢķáĢĬ
ĠáĢĿ áĢĸ
áĢľáĢĢ áĢĢ
Ġáģĥ áģĪáģħ
áĢ¡áĢĽ áĢĳ
ĠD ry
ac tic
ĠG h
ĠG erman
ĠK W
as a
ĠE ar
ĠW eek
et te
ad u
ion s
In ternet
ĠáĢ¾ áĢ¬áĢ¸
ĠáģĦáģĢáģĢ áģĢáģĢáģĢ
áģĦáģĨ áģĪ
ĠMA B
ĠCN PC
ĠInter view
áģ³ áĢ¯
ĠSeas on
ĠFil m
ĠHon or
mun ication
áĢĩáĢĶáĢķ áĢľ
7 2
H D
J apan
r ent
áĢĻ áĢĿáĢĢ
ĠáĢĶ áĢĺ
ĠáĢģ áĢ¡
ĠáĢħ áĢĳ
áĢ®áĢ¸ âĢĭ
áĢ¾áĢŃ áĢ¸
ĠáĢĴ áĢľáĢĻ
áĢı áĢ¡
ĠáĢĿ áĢŀ
áģĤ áģģáģģ
ĠáĢĻáĢĶ áĢķ
áĢ¿ áĢĲ
ĠM ovement
ĠS ale
ĠA YA
áģĤáģĢ áģĪ
or tium
ĠáĢ¡áĢĬ áĢĲáĢĽ
ĠG toG
ĠL in
ĠNLD áĢĻ
em ory
im b
áģĤáģĨ áģħ
Ġf irst
ĠSh ar
Ġl ife
ĠAs h
Ġ3 70
Ch annel
ĠAc cess
anc tion
ult y
ĠáĢ£ áĢĲ
Ġe qu
Ġr ight
por ate
ĠMin i
ĠOrgan ic
ĠSu z
ĠEnter prise
ĠáĢ¥áĢ© áĢĨ
ĠBE d
ĠOm ni
ĠSurg ical
M obile
O ut
P ress
W G
W ar
i y
o am
ĠáĢĽ NLD
ĠáĢĸ áĢķ
áģĤ áģģáģĩ
Ġáģĥ áģīáģħ
ĠáĢķáĢĳáĢĻ áĢĤ
áģĤáģĢ áģħáģĢ
ĠD ig
ĠáģģáģĪ áģĥáģĢ
áģĤáģĢáģģáģĩ áģģáģĪ
áģĥáģħ áģĥ
ĠTh ink
ĠTh ree
ass in
Ġn ew
ĠGen e
echn ology
ĠPl aza
ĠÌ ı
CD MA
ĠMY ANMAR
ĠOm ega
Â± Â±
áĢºáģ¢ áĢŃáĢ¯
ĠBloom berg
0 4
D esign
I NGO
R N
S e
l ife
Â Ń
Ġ *
áĢĶ áĢĳ
ĠáĢĢ áĢĢáĢĻ
áĢļ áĢļ
áĢ¾áĢŃ áģį
áĢĿ áĢĭ
áĢ¯áĢ¶áĢ¸ áģĮ
ĠáĢĦ áĢģ
ĠáĢĿ áĢĺ
ĠáĢĩ áĢĿáĢĲ
ĠM all
ĠP andemic
ĠB order
ĠD V
ĠD SA
ĠD iet
ĠR angoon
ĠK A
ĠW H
ĠW r
ĠáĢ¡áĢĽáĢŀ áĢĺ
áģģáģĨ áģĦ
ĠJ o
ĠY oung
ĠY BPC
ĠáģĤáģĥ áģĪ
Ġs ing
Ġc ons
Ġd ata
Ġâ Ĺ
Ġh uman
ĠAr ts
Ġn o
ĠCP U
Com munity
Ġpro gram
Ġi Pad
press ion
ĠMor al
isc al
ĠEmerg ency
4 00
S IA
T ea
b rid
n ot
u h
áĢĢ áĢĬáĢĶ
áĢĻ áĢ¡áĢĨ
áĢĽ áĢ¡áĢĽ
áĢļ áĢľ
ĠáĢľáĢĢ áĢĲ
áģĨ áģĨáģĢ
ĠáĢģáĢĽ áĢĢ
ĠS eed
ĠS olution
ĠT C
Ġáģī áģīáģī
ĠI ssue
ĠG rowth
ĠáģģáģĪ áģĩáģĢ
as es
áĢĽáĢŀ áĢĲáĢĦ
ĠJ oe
us p
ĠáģĤáģĤ áģĤ
ra vel
Ġd em
áĤ Ĳ
ĠCon stitution
ef or
ĠTr ue
ĠAl ph
ĠáĢ¬ áĢ·
ðŁ ĺ
ric ulum
ĠáģģáģīáģĢ áģī
Ġ19 9
ĠWork shop
ĠSK DáĢĢ
Ġmess enger
ĠGet ty
Ġom ega
G l
P acific
S ar
V P
V ideo
áĢĻ áĢķáĢĶ
áĢĬ áĢĿ
áĢ² âĢĭ
áĢ® áĢ»
áĢŁ áĢĽ
áĢ»áĢ¬ "
áģī áģĨáģī
Ġáģĥ áģĦáģħ
ĠM echan
ĠáĢĺáĢĿ áĢŁ
ĠB P
ic o
ic on
ĠR oll
ĠáģģáģĪ áģĪáģĢ
ĠáģģáģĪ áģīáģĪ
ĠE s
áģģáģĪ áģĦ
áģģáģĪ áģĪáģĥ
ĠJ in
ĠáģĤáģĪ áģĢáģĢáģĢ
ak i
áģĥáģĦ áģĦ
ĠBl ock
ĠMask áĢĢ
xx x
ea f
ĠáģģáģīáģĢ áģģ
ei j
ĠIm perial
we et
ix el
US DP
til l
Med ical
ĠBea uty
ĠLou is
A id
G rand
M PT
M usic
T ok
g roup
k en
áĢŃ áĢ®áĢ¸
ĠáĢĻ áĢĻáĢĲ
áĢķ áĢĨ
áĢķ áĢĲáĢĻ
áĢºáĢ· ..
áĢ»áĢ¬ ..
ĠáģĦ áģĤáģĦ
ĠS el
ĠT erm
ĠB RT
Ġáģģáģħ áģĥáģĢ
is co
ĠáģĥáģĢ áģħ
ĠNLD áĢ¡
ĠO C
áģĤáģģ áģĢáģĢ
ĠV ik
ĠáģĦáģĢ áģģ
ĠSt r
ĠSt ock
ĠCon cept
SSA áĢĢ
tiv ities
ĠNGO s
ĠMod els
ĠKh an
ĠFOB áĢĪ
App lication
ĠSex y
Pe ople
âĻ« âĻª
8 00
A ction
I d
L S
b i
b ps
h ou
i tive
áĢ¼ áĢ°áĢ·
ĠáĢĽ áĢĿáĢķ
áģĢ áģĨáģĩ
ĠáĢ¡áĢĽ áĢĩ
ĠáĢ¡áĢĽ áĢ¡áĢĳ
ĠáģĤ áģĪáģĪ
Ġ) "
áģĪ áģģáģħ
Ġáģĥ áģģáģĤ
ĠF a
ĠF er
áĢģáĢı áĢģáĢı
ic ations
ĠH o
áģģáģĪ áģĩáģħ
ĠW ild
et o
id t
ĠáģĤáģĦ áģĪ
ĠáģĤáģĦ áģĢáģĢáģĢ
ur p
ĠY outube
Ġt ea
th at
ĠKN DO
ĠSh ang
Ġl ink
ĠáĢģáĢľ áĢĽ
AA áĢ¡áĢĸ
FP A
ous ing
ĠMin istry
áĢºáĢŃ áĢ³
osph or
Indust ry
ĠOri ental
ĠMaj or
0 5
A ust
B rand
G P
I mm
M art
M ethod
R ight
n CoV
p y
áĢĢ áĢ¡áĢĢ
áĢ¼ áĢºáĢ¸
áĢĻ áĢ¡áĢĽáĢĦ
áĢĤ áĢ¡áĢĸ
ĠáĢ¡áĢĽ áĢĨáĢĶ
áĢľáĢĢ áĢľáĢĬ
áģĥ áģĦáģħ
áĢĲáĢĻ áĢķ
ĠM ang
ĠáĢķáĢĳáĢĻ áĢĶáĢĬ
ĠS i
ĠáģĪ áģħáģĢáģĢ
ĠáģĤáģĢ áģĩ
ĠB a
ĠB oeing
ĠD iv
ĠR ating
ĠL im
ĠáģģáģĨ áģĢáģĢáģĢáģĢ
id s
ĠNCA áĢĲ
ĠY ellow
ot ing
ĠáģĤáģĥ áģĦ
ĠáģĤáģĩ áģī
Ġt eam
ĠSt yle
ĠPro fessor
ĠSh ah
if i
Ġ2 2
Ġ201 2
Ġr el
tiv ation
ĠNGO áĢ¡áĢĸ
Sc iences
ati o
For um
ĠCy cl
áģ» áĢĢ
áģ» áĢĴ
ĠAward s
oid s
ĠAdv anced
áģ¾áĢ¡áĢģ áĢ¡
utri tion
ĠNY DC
à¸² à¸
G ame
p aper
áĢĲ áĢĻáĢĲ
áĢĲ áĢŀáĢĢ
ĠáĢ¡ áĢ¥
ĠáĢĢ áĢĢáĢĦ
ĠáĢĶ áĢ¡áĢĸ
áĢļ áĢĲáĢĶ
áĢŃáĢ¯áĢ· áĢŃ
ĠáĢ¡áĢħ áĢĢáĢĶáĢ¦
áģĤ áģģáģĨ
ĠáĢĩ áĢĿáĢĦ
áģħ áģĨáģĢ
ĠáĢĻáĢŀ áĢħ
ĠáĢħáĢķ áĢĽáĢĦ
ar w
ĠN okia
ĠA EC
ĠP ISA
ĠB an
ĠR ound
ĠG ames
ĠH O
ĠáĢ¡áĢĺ áĢ¦
ĠáģģáģĪ áģīáģĩ
áģģáģĪ áģĦáģĪ
áģģáģĪ áģĩáģĦ
OV AX
op ping
ra h
our ism
ip ment
áģĩáģħ áģĢáģĢ
ov a
áģĥáģĪ áģĦ
ĠAl i
ĠRes ult
ĠáĢŀáĢĻáĢĲ áĢľ
DC F
ĠCre ative
ĠAssist ant
ĠExc ell
ĠDipl oma
ĠDeb ate
C easefire
J un
K TV
P ass
S pe
U D
U G
r um
áĢŀ áĢĲáĢĬ
áĢŀ áĢ¡áĢĲ
áĢ° áĢ¯
áĢ¯áĢ¶ áĢ¶áĢ¸
ĠáĢ¡áĢĽ áĢĲáĢĢ
ĠáĢĻáĢļ áĢĻáĢĦ
áĢ¡áĢĶ áĢĶ
ĠáĢĻáĢĢ áĢĺ
ĠC IF
ĠS ou
ĠA N
ĠT ouch
ĠF all
ĠB ut
ĠR ohingya
ĠáĢĻáĢĻ áĢ¡
ĠE duc
ation ship
ĠáģĤáģģ áģĢáģĢáģĢ
áģģáģĦ áģħáģĢ
ĠáģĤáģĥ áģĨ
ĠSt ates
ra tive
áģĤáģĨ áģĤ
ak es
ub ishi
áĢºâĢĭ âĢĭ
end a
ĠáģĦáģĩ áģĢáģĢ
pr il
li ament
ĠReg ister
sc reen
University of
ĠSpe ech
pos al
E V
S áĢĢ
T M
T T
m g
r ad
Ġ att
áĢ İ
ĠáĢĲ áĢĩ
ĠáĢĲ áĢŀáĢĲ
áĢĻ áĢ¿
áĢŀ áĢļáĢĢ
áĢŀáĢĢ áĢĽ
Ġáģĥ áģĤáģĪ
ĠáģĦ áģĥáģħ
ĠC offee
áĢĻáĢĶ áĢĶ
ĠS AT
al se
áĢĽáĢĻ áĢķ
ĠB uff
ĠD J
ĠI V
ĠH ub
il a
as áĢĢ
ĠáģĤáģĢáģģáģħ áģĤáģĢáģģáģĨ
áģģáģĩ áģī
áĢºáĢ¯ áĢ¸
ĠY e
ĠáģĤáģĥ áģĢáģĢáģĢ
ra Z
ĠáģĤáģĢáģģáģĩ áģģáģĪ
áĤ ĵ
ain ment
ĠQuarantine áĢħáĢĦ
ĠMy int
ĠPl ant
ĠSup reme
Con ference
ĠPer mit
LM V
uf act
ĠTok yo
ĠCoord in
0 8
D own
R oyal
T witter
a us
j p
l is
à ¥
Ġ áĤĢáĢĢ
ĠáĢĻ áĢ¡áĢĻ
áĢķ áĢĽáĢĦ
áĢĻ áĢĻáĢĽ
áĢĻ áĢĪ
ĠáĢľ áĢĳ
ĠáĢĹ áĢķ
áĢ¼áĢ® áģĭ
áĢĲáĢħ áĢĦ
an ies
al t
ĠI M
ĠR os
ĠG ram
ĠH om
ĠK n
il m
áģģáģĪ áģĦáģĨ
áģģáģĪ áģĨáģĪ
oo st
ĠCh am
ist ance
com m
ĠTh er
ĠTr ump
áĢĢáĢĽáĢĢ áĢĭ
ĠáģĥáģĪ áģĢáģĢáģĢ
ĠAr ticles
Ġ0 5
ĠAss oci
ĠAir ways
ĠSec urities
ĠMed icine
ĠTour ist
ĠEconomic s
ĠCr ime
Wh ite
Coun cil
4 2
F O
G DP
J uly
k ei
p i
s of
v o
áĢ¬ áĢ»
áĢŃáĢ¯ áĢ»
ĠáĢĻ áĢŀáĢĬ
áĢĻ áĢķáĢĲ
ĠáĢĽ áĢ¡áĢĸ
ĠáĢģ áĢĻáĢĽ
áĢ»áĢ¬áĢ¸ áģĭ
áĢŁ áĢĸ
ĠáĢŀáĢĻ áĢ¡
áĢĢáĢĶ áĢĲ
âĢ İ
ĠáģĦ áģĤáģĢáģĢáģĢ
ĠáĢķáĢĳáĢĻ áĢĩáĢĶ
ĠáģĪ áģĥáģĢ
ĠT ogether
ĠI MD
ac om
ĠG am
ĠH yd
áģģáģĪ áģĨáģħ
áģģáģĪ áģĪáģģ
ĠáĢī áĢĢ
áģĥáģĢ áģħ
Ġáģģáģģ áģĢáģĢáģĢáģĢ
ĠJ ean
ĠY ahoo
oc c
ĠáģĤáģĤ áģĥ
ĠáģĦáģĢ áģĨ
ĠáģĤáģĨ áģĥ
áģĤáģĢáģĤáģĢ áģĤáģĢáģĤáģģ
Ġc ustomer
áģĥáģĨ áģĦ
Ġb ack
ĠMask áĢĻ
ĠRe ad
IS IS
ĠSch olarship
ĠFr ance
Ġcom munity
Center áĢĻ
ĠSer ge
SI Q
áģ´ áĢ®
Ġrad ical
ivid ual
A L
C are
F irst
S w
T op
W P
d p
i tic
x y
Ã ±
áĢ¬ -
áĢķ áģĿ
áĢ¼áĢŃ áĢº
ĠáĢ¥ áĢĩáĢĶ
áģĥ áģĥáģĨ
ĠáģĢ áģĤ
áģĨ áģĤáģħ
ĠáĢ¡áĢĬ áĢĻáĢĬ
ĠF ollow
ĠI SP
ĠáĢĻáĢĻ áĢŀ
ĠáģģáģĪ áģīáģĨ
ĠW el
ow ers
Ġp ublic
áĢĻáĢĸ áĢĻ
ĠRC EP
over y
ĠEx po
ĠEx hibition
Ġst ate
ĠMA TA
ĠANP áĢķ
ĠFOB áĢķ
4 8
B áĢĢ
E ast
H all
M ess
V áĢĢ
W ay
g ent
k s
u M
Ġ ÃĹÃĹ
áĢº áĢŃáĢ¯áĢ·
áĢ¬ (
áĢĲ áĢĲáĢļ
áĢĲ áĢľáĢĻ
áĢĶ áĢľ
ĠáĢľ áĢĳáĢķ
ĠáĢľ áĢģáĢĲ
áĢļ áĢĢáĢĻ
áĢĵ áĢĲ
áĢĲáĢĻ áĢŁ
áĢĢáĢĻ áĢģ
Ġáģħ áģĥáģĢ
ĠC ore
ĠM TSH
áĢĻáĢŁ áĢĲ
ĠS yn
or er
ĠP erson
ĠT an
ĠB R
ic ode
ĠD ate
ĠG re
ĠáģģáģĪ áģĩáģĦ
as an
ĠáĢĲáĢľ áĢľ
áĢĲáĢĲ áĢĸ
st anding
ĠáĢģáĢı áĢģ
ĠSt ation
áģĤáģĥ áģĩ
ĠUN C
Ġm on
Ġm ul
ĠPro cedure
ĠAn ton
St op
ach i
201 8
ea u
ĠTrans it
fl at
ĠChar acter
Ġpl ay
ĠPri ze
Dem ocracy
Sing apore
B urmese
C er
D VB
H L
L ove
L oan
c or
v ing
ð Ŀ
áĢĶ áĢŀáĢĬ
ĠáĢĻ áĢĲáĢļ
ĠáĢĻ áĢ¡áĢĳáĢĢ
áĢĨ áĢĽáĢĲ
áĢ±áĢ¬áĢº âĢĭ
ĠáĢĿ áĢĩ
áģĤ áģģáģħ
áĢĻáĢĲ áĢĨ
áģĥ áģģáģĤ
ĠC LMV
ĠN AT
áĢŀáĢķ áĢĬ
áĢ»áĢ° áĢŃ
ĠT e
ĠT ak
ic le
ĠG E
om eter
áģħáģĢ áģĨ
ĠW il
ĠáģĤáģħ áģĨ
ĠáģĤáģĦ áģī
ĠY P
us áĢĢ
ĠSh ort
áģĥáģĪ áģħ
ure au
Ġâ Īĳ
ry st
eng th
ĠPol y
ĠComp l
ĠAd d
tiv es
áĤı áĢ½
ĠChar ter
ĠInter est
ĠKy SDP
tis m
Ġj ournal
Ġcap acity
ĠĠĠĠĠĠĠĠĠĠĠĠĠĠĠĠ ĠĠĠĠĠĠĠĠĠĠĠĠĠĠĠĠ
áĢĭáĢĢáĢĵ áĢĽ
ĠVictor ia
C all
L ED
S um
S NLD
V an
W A
b l
o z
x it
áĢ¬ áĢ±
áĢĢ áĢĺáĢı
áĢĻ áĢŀáĢķ
áĢĻ áĢķáĢħ
áĢ¶ áģĮ
áĢ¯áĢ¶áĢ¸ áģį
ĠáĢĤ áĢĿ
ĠáĢŀáĢĻ áĢħ
Ġáģĥ áģĤáģī
ĠáĢ§ áĢĢáĢķ
ĠáģĦ áģĦáģħ
in cess
ĠS IA
ĠA H
ĠáģĤáģĢ áģĥ
Ġáģī áģĨáģĢ
ĠB el
ĠD aw
ĠR anking
is ation
ĠáģģáģĪ áģĤáģĨ
19 9
áģģáģĪ áģĨáģģ
ĠV itamin
un n
em on
ir it
ĠFacebook áĢĲ
ri ed
ob il
eg raph
Ġw ill
Ġl ist
Ch ild
Ġg r
pr is
ĠCl ip
te in
MI CC
ĠCar l
Ġth at
ĠAm nesty
ĠPositive áĢĸ
ĠBre ak
ĠMem ory
ĠáĤı áĢ½
oxid ant
ĠEss ay
ĠFort une
ĠHoriz on
0 7
M ag
O s
S ub
m et
Ġ eng
áĢĢ áĢŁ
áĢĬ áĢĺáĢĢ
ĠáĢĽ áĢĨáĢĦ
ĠáĢĽ áĢľáĢĢ
ĠáĢĽ áĢĸáĢĲ
áĢ¶ "
ĠáģĬ áĢ·
ĠáĢĺ áĢľáĢĢ
ĠáĢ¡áĢĢ áĢ¡áĢģ
ĠáĢĿ áĢĽ
áģĤ áģĪáģĪ
ĠáģĤ áģģáģī
áģħ áģģáģĤ
ĠáĢĻáĢĢ áĢĲ
ĠáģĦ áģģáģħ
ĠA qu
ĠA HA
ĠA ffairs
áĢ»áĢ° áĢŃáĢ·
ĠP O
ĠP CR
ĠT rain
ĠT otal
áĢħáĢĻ áĢķ
ĠB B
ĠáĢħáĢĻ áĢħ
ĠD am
ĠI U
ĠI OM
at in
Ġáģģáģĥ áģĪáģĢ
le ep
ĠW ood
ĠJ une
ĠáĢģáĢı áĢľ
ĠáģĤáģī áģĪ
ul in
um a
áģĤáģĥ áģĪ
Ġc ent
Ġc ase
ĠCh ain
Ġf re
Ġâ ĸ
ĠFor bes
ĠTV ET
ĠSu u
ĠSw iss
NT ech
ĠFacility Quarantine
Gold en
ĠSte ve
ĠMuse um
C ooperation
I CC
M J
S ky
V iew
b ased
g ing
r ia
u o
Ġ end
áĢĲ áĢħáĢĬ
áĢ±áĢ« áĢºáĢ·
áĢĴ áĢĿáĢĶ
ĠáĢ¡áĢĻ áĢĻ
ĠáĢĲáĢĽ áĢĲ
áĢĲáĢĻ áĢĤ
Ġáģĥ áģĨáģĨ
on in
ĠM en
ĠM ID
ĠS ony
en ol
ti o
Ġáģĩ áģĩáģĩ
ĠP DF
áĢĪ áĢĦ
ĠR AM
ĠH un
ĠH ate
ĠáģģáģĪ áģħáģī
áģģáģĪ áģĦáģĢ
áģģáģĪ áģĩáģī
ed ar
ĠV o
ĠNCA áĢĻ
Ġp oint
Ġs ite
áģĥáģĦ áģģ
Ġl og
ĠáģĨáģħ áģĢáģĢáģĢ
Ġ6 0
ĠDe ep
ĠRec ycle
ĠMe kong
ĠFac ulty
MEC S
ipp on
istur izer
raZ enec
B ased
D av
E nergy
L etter
M áĢĢ
M and
U C
d i
g ar
m en
m ond
áĢ· áĢŃáĢ¯
ĠáĢĻ áĢ¡áĢģ
áĢĿ áĢĽáĢĻ
ĠáĢ¡áĢĽ áĢĸáĢĻ
áĢ¼áĢ¯ áĢ·
áģĦ áģģáģĩ
Ġáģħ áģĩáģħ
ĠS O
ĠP oem
ĠB achelor
ĠG ar
ĠE O
ĠáģĥáģĢ áģĩ
áģģáģĪ áģĤáģħ
áģģáģĪ áģħáģĨ
áģĥáģĢ áģĩ
ec k
áģĤáģħ áģĥ
ĠV ersion
ĠY assin
us c
ver y
ul us
Ġc all
Ġm obile
PP O
ĠáĢ± áĢ·
Ġd el
Ġb ox
Ġb usiness
St ation
ind ing
áĢ¯áĢ¸ áĢ¶
pl ant
ĠáĢķáĢĳáĢĻáĢĲ áĢģ
ĠAnd rew
áģ¾áĢ¡áĢģ áĢģ
ĠEuro pean
ĠChem ical
ici ency
E l
H a
b and
g overnment
j iang
w orld
Ã ¨
áĢ¯ áĢŃáĢ¸
ĠáĢĻ áĢ¡áĢĶ
áĢŀ áĢĤ
áĢģ áĢļ
áģĢ áģīáģī
ĠáĢ¡áĢĽ áĢ¡áĢĲ
ĠáĢ¡áĢĽ áĢŀáĢĦ
áĢĲáĢĢ áĢĦ
Ġáģĥ áģĥáģĩ
áĢĢáĢĽ áĢħáĢĽ
ĠC SS
ĠáģĨ áģĤáģĢ
ĠT w
ĠT y
ĠT ext
ĠD A
áĢĢáĢļ áĢĦ
ĠH i
ĠK a
ĠáģģáģĪ áģĩáģģ
ĠL iv
áģģáģĪ áģĥáģĩ
ol es
áģģáģĩ áģĩ
ĠJ im
ĠY u
em a
áĢ© áĢĸ
áģĤáģĩ áģĥ
Ġáģĥáģħ áģĥ
Ġm yanmar
ĠáģĥáģĨ áģĢáģĢáģĢ
ĠQu een
ĠTh erm
ĠTr ad
ĠCor ona
ĠJMC S
Th u
Ġsh ow
ĠPositive áĢľ
uss ion
ĠVir gin
ĠÌ Ī
Stud y
yein chan
ĠViet nam
A DB
U L
Ġ >
Ġ market
áĢĲ áĢ¡áĢĽ
áĢĻ áĢĿáĢĲ
áĢŃáĢ¯áĢ· "
Ġáģı áģĭ
ĠáĢ¡áĢĽ áĢĲáĢķ
ĠáĢ¡áĢľ áĢľ
ĠáĢĽáĢķ áĢĦ
áĢĩ áĢĻáĢĲ
áĢĩ áĢĽáĢķ
áĢĲáĢĶ áĢ¡áĢĸ
áģħ áģĥáģĢ
ĠáĢĻáĢľ áĢħ
ĠáģĦ áģĥáģĥ
ĠC áĢĢ
ar ter
ĠA er
ĠáģĨ áģīáģĢ
ĠP ad
ĠF ashion
áĢĿáĢĿ áĢĿáĢĿáĢĢ
ĠR E
om i
ĠáģģáģĪ áģĪáģĪ
ĠE D
ent ative
ĠW ikipedia
oo per
ĠáģĤáģĦ áģĨ
áģĤáģħ áģĤ
ĠáĢı áĢĶ
ĠáģĦáģĢ áģī
ĠáģĤáģĨ áģĢáģĢáģĢ
áģĥáģĥ áģĦ
se an
oll and
ĠAir port
ĠEm b
ĠÃ ²
ĠIDP s
ĠAC MECS
ĠSm all
ĠRest aurant
Ġeff ect
C r
I rrawaddy
M a
P rivate
U T
l ay
m ir
Ġ Ä
áĢĢ áĢĨáĢĶ
áĢŃáĢ¯ áĢºáĢ¯
áĢĽ áĢ¡áĢľ
áĢļ áĢĻáĢĦ
áĢĲáĢĢ áĢĻ
ĠáĢĽáĢĽ áĢģ
Ġáģĥ áģīáģī
Ġ- áģĭ
Ġáģħ áģģáģĢ
ĠC ob
ĠC ount
ĠC irc
ĠM TV
ĠáĢķáĢĳáĢĻ áĢ¡áĢķ
al f
ĠT ank
ĠB uddhist
ic ator
om m
ĠH ip
ĠK un
ĠáģģáģĪ áģĩáģĨ
ĠL win
áģģáģĪ áģħáģĦ
áģģáģĪ áģīáģģ
ĠáģĤáģħ áģī
áģģáģĨ áģī
ĠIn sp
em ail
áģĦáģĢ áģĨ
tic ip
ov ie
ĠAl ib
ĠáĢ¼ áĢ±
ĠPol l
ĠáģģáģīáģĢ áģĥ
Ġa ir
Ġre c
ath an
ĠWh at
son áĢĢ
ET RO
Sp ecial
Ġacid s
ĠMor ning
ĠHard ware
++ ++
Ġî Ĩ
ĠRem desivir
ĠNik kei
uet ooth
ĠKH CC
jp g
B io
F ace
L ong
b us
c ard
áĢĲ áĢı
áĢĲ áĢĽáĢĦ
ĠáĢĻ áĢ¡áĢĸ
áĢħ áĢĻáĢĽ
áĢļ áĢ¡áĢĨáĢĦ
áĢ¶ áĢ»
áĢ°áĢ¸ âĢĭ
ĠáĢ¡áĢĽ áĢģáĢĽ
áģĤ áģĤáģĥ
ĠáĢĻáĢľ áĢĲ
Ġáģĥ áģģáģĦ
ĠáĢĻáĢŀ áĢķ
ĠC ultural
ĠM ur
ĠáĢĺáĢĿ áĢĻ
ĠN ic
ĠáĢ¤ áĢŀáĢĬ
ĠF ounder
ĠáĢĻáĢģ áĢĻ
ĠD O
ĠG lob
ĠáģģáģĪ áģīáģģ
ĠL as
le c
ig ration
os it
Ġf orm
ĠáĢĽáĢĸ áĢĻ
áģĤáģĩ áģĨ
áģĤáģī áģĨ
ĠIC G
Ġl ab
ĠAn t
Ġ3 00
ĠAc c
int he
ĠÂ »
ind a
ĠX in
ĠSc rub
ug g
man áĢĢ
eth yl
ĠCol lection
Ġ] ]
ĠCr im
izz im
Cor onavirus
ĠEl ite
ĠCle ar
ĠBas ed
ĠKar en
oj o
war eness
oug h
ĠStakehold ers
reh ensive
dp uf
. ,
8 2
F in
I NE
L ink
S H
S L
W O
Ġ er
áĢºáĢ¸ .
ĠáĢĻ áĢĿáĢĶ
áĢļ áĢĻáĢľ
ĠáĢħ áĢĲáĢħ
áĢºáĢ· áģİ
ĠáĢ¡áĢĽ áĢĲáĢĬ
áģĦ áģĨáģĢ
áģĨ áģĤáģĢ
áĢĲáĢĻ áĢĳ
an ch
áĢĲáĢķ áĢħ
ĠC os
ĠS H
ĠS or
ĠT TC
ĠF ox
ĠB MI
ĠI G
ĠU SS
ro ke
ro ugh
áģĥáģĢ áģĥ
ĠO ur
ĠJ ur
ir i
oc ation
op s
áģĦáģĢ áģī
Ġp ot
áģĤáģĤ áģĨ
ĠCh lor
ĠCh urch
Ġáģĥáģħ áģĢáģĢáģĢáģĢ
Ġm m
Ġd es
Ġd ef
Ġd evelop
com munity
ĠáģĥáģĦ áģĩ
qu ir
ik o
Ġ2 6
ðŁ ĳ
Ġn on
ĠKIO áĢĢ
ĠPol itics
ĠFr om
ĠSNLD áĢĢ
ĠTrans fer
ĠWh y
Ġle arning
erc ial
ĠSub edar
ĠUSDA áĢĢ
ĠNA SA
ĠUB P
sth ash
5 7
8 6
B T
B ang
F áĢĢ
M or
U M
Y ork
i ol
p oint
s d
w ater
ĠáĢĽ áĢ¡áĢľ
áĢĽ áĢĨáĢĶ
áĢŃáĢ¯áĢ¸ âĢĭ
ĠáĢĩ áĢľáĢķ
ĠáĢ¡áĢĨ áĢķ
ĠM SP
ĠS B
ĠáĢĻáĢĳ áĢķ
ĠF ail
ĠB NI
ĠáģģáģĤ áģĥáģĢ
ĠD en
ĠáģģáģĪ áģĪáģģ
áģģáģĪ áģĨáģĤ
ĠW a
ĠJ ud
Ġc o
Ġm in
ure in
Ġáģĥáģī áģĨ
http s
ens itive
AR K
Ġpro fessional
ĠEm otion
ĠJournal ism
ĠSing h
ĠðŁ ¤
ĠCr u
ĠHar vard
ĠáĤ Ĳ
ĠâĻ «
ĠProt ocol
Rev iew
ĠFron tier
C H
C ase
J ICA
N H
S mart
r it
s ide
w ill
x i
y ou
¶ Ľ
áĢ» áĢ½áĢ¾
áĢļ áĢĻáĢħ
ĠáĢ¡áĢĻ áĢĲáĢħ
áĢĤ áĢķ
ĠáĢ¡áĢĽ áĢĽáĢķ
áĢŁ áĢĬ
áĢĵ áĢĤáĢļ
âĢ ¦
Ġáģĥ áģģáģĩ
Ġáģĥ áģģáģĥ
ĠáĢ§ áĢĢáĢŀ
er ve
Ġáģħ áģģáģĦ
Ġáģħ áģĦáģĥ
Ġáģģáģī áģĢáģĢáģĢ
ĠáĢķáĢĳáĢĻ áĢ¡áĢħáĢĬ
en ov
ĠR akhine
ĠáĢŀáĢĽ áĢŀ
ĠáģģáģĪ áģĩáģĤ
ĠáģģáģĪ áģĪáģĥ
re ad
ĠE lection
áģģáģĪ áģĨáģĨ
ĠáĢ¡áĢĽáĢĻ áĢĸ
ĠáģĤáģĦ áģĥ
ĠáģĤáģĤ áģī
ĠáģĤáģĥ áģĩ
ĠáģĤáģĢáģĤáģĢ áģĤáģĢáģĤáģģ
ĠAA áĢĶ
os a
Ġm ind
Ġ1 50
ip h
ĠCon c
Ġ2 3
iv al
ĠComm ercial
ĠáģħáģĨ áģĢáģĢ
Un ited
Ref orm
ĠInt el
ĠProgram ming
ĠStud io
ĠId ea
ĠHer d
ĠPres entation
ĠSpe aker
ĠLead er
ĠPal ace
ĠSP F
ĠJos eph
Ġhost ing
ĠFI FA
ryst al
yeinchan aye
5 9
7 6
H ospital
W eb
l aw
m idt
v a
Ġ add
áĢ¸ .
áģ ©
ĠáĢĲ áĢŀáĢĺ
áĢĬ áĢľ
ĠáĢŀ áĢĮ
áĢ° ..
ĠáĢģ áĢĬ
áģĢ áģīáģĩ
áĢĴ áĢķáĢĬ
ĠáĢ¡áĢĽ áĢħáĢĢ
on ia
Ġáģħ áģĨáģħ
ĠC el
áĢ¡áĢħ áĢĽ
ĠáĢĺáĢĿ áĢĤ
ĠF ormal
ĠB or
ĠH P
ĠáģģáģĪ áģīáģĥ
ĠL if
ĠE ric
áģģáģĪ áģĩáģĨ
ĠáģĤáģħ áģĤ
ĠáģĤáģħ áģĪ
ĠáģĤáģĨ áģĩ
ch ar
ĠAA áĢ¡áĢĢ
ess ion
ul ations
Ġs il
Ġs et
im ation
ĠTh urein
ik i
ĠRes idence
âĻ ¬
orn ia
cil iation
ĠStayatHome áĢ¡áĢħ
Ġcon f
ĠConf lict
ĠDan iel
Gr ade
Ġpe ople
D oc
D ef
W ebsite
W atch
h ai
u ard
y u
áĢĻ áĢĻáĢŀ
áĢĻ áĢ©áĢĿ
áĢĽ áĢĽáĢŀ
ĠáĢĸ áĢĨáĢķ
áģĦ áģĥáģħ
Ġáģĥ áģĥáģī
áĢ¡áĢĻ áĢľ
Ġáģħ áģĦáģħ
Ġáģħ áģħáģħ
ĠM G
ĠN D
ĠN i
ĠN at
al es
Ġáģĩ áģĦáģĢ
Ġáģĩ áģĩáģĢ
ĠP u
ĠáģģáģĪ áģīáģī
ĠE X
ĠáģĥáģĢ áģĥ
áģģáģĪ áģģáģħ
áģģáģĪ áģħáģī
ol er
ĠNCA áĢ¡áĢĢ
ag n
ĠáģĤáģĩ áģĥ
ĠáģĤáģĩ áģĦ
op ter
os oph
âĢį âĢĭ
DA W
ub ble
áģĥáģĪ áģĤ
ĠáģĥáģĨ áģĥ
áģĦáģĪ áģĢáģĢ
ĠáĢ½ áĢ±
Ġn ame
ĠBl ood
ĠáģĨáģĢáģĢ áģĢáģĢáģĢ
Ph ot
act or
ĠáĢĶáĢĿáĢĲ áĢģ
Ġv iew
áģ¾ áĢ¡áĢĸ
Sh are
yl l
ĠMed ium
ĠSouth ern
ĠTo R
Ġcomp any
idd en
MR TV
ĠStat ement
ĠSar ah
ĠCamb ridge
Ceasefire Agreement
flat oxin
5 6
A BC
H ill
K áĢĢ
K ing
M aster
O f
c amp
f ol
j i
o a
Ġ o
Ġ ev
áĢ¬ âĢĿ
áĢ· áĢ¶
áģ ²
áĢĻ áĢĻáĢľ
áĢĽ áĢ¡áĢŀ
ĠáĢĳ áĢĽáĢĻ
áĢ¾áĢ¬ áĢº
áĢ½áĢ¬áĢ¸ âĢĭ
ĠáĢ¡áĢħ áĢ¡áĢĨ
áĢĩ áĢħ
áģĨ áģĪáģĢ
áĢ¥ áĢŀ
in et
ĠáģĪ áģĪáģĢ
ĠáĢ¤ áĢĻ
ĠT ex
ĠD ai
ĠG ra
ĠK KO
ĠE asy
áģģáģĪ áģħáģĥ
le vel
he ma
ĠáģĤáģħ áģĦ
áĢ¤ áĢĻ
oc a
ĠáģĤáģĩ áģĨ
áģĤáģĦ áģĥ
ĠSt aff
áģĤáģĪ áģĢáģĢ
ĠUN FPA
Ġm oney
Ġb ut
ell áĢĢ
ib o
ai re
ĠáĢ½ áĢ¬
Ġáģħáģħ áģĢáģĢáģĢ
Ġst ress
ĠGlobal ization
ĠRep res
rom otion
riv acy
Ġy our
ĠMand ate
ĠSer ver
ĠDep ression
ĠVal ley
Ġup date
áģģáģģáģģáģ Ĥ
áģģáģģáģģáģ ī
ĠMag azine
ĠBo at
ĠMF F
Ġsec ond
Ins urance
ĠHen ry
G s
Y outh
c le
n ers
o it
r ish
áĢĲ áĢ¡áĢħáĢĬ
áĢ½ áĢº
áĢĶ áĢĴ
ĠáĢĢ áĢĢáĢļ
ĠáĢľ áĢĹ
áĢŃáĢ¯áĢ· âĢĭ
áĢ¯áĢ¶ áĢ¶
ĠáĢĴ áĢŁáĢĲ
ĠáĢŁ áĢĬ
áĢĺ áĢĿáĢĦ
ĠáĢĬ áĢŀáĢĶ
áģħ áģĤáģĢ
ĠáĢĻáĢĶ áĢĻ
ĠáĢŀáĢĶ áĢĢ
an o
áĢĢáĢĽ áĢĲ
ĠáģĦ áģĥáģĢáģĢ
ĠC od
en berg
ĠáģĤáģĢ áģĤáģĦ
ĠT ai
ĠI II
ĠR ate
ĠR ole
ĠáģģáģĪ áģĨáģī
áĢĻáĢķ áĢĽ
áģģáģĪ áģģ
and B
ĠáģĤáģĦ áģĩ
ĠV R
Ġt each
áģĤáģĩ áģĪ
áģĥáģĨ áģĪ
ist or
ĠAc tive
ĠAl tern
ĠGroup áĢĢ
Ġv oice
ug ar
ĠFor est
ĠMy CO
ĠFr ont
urm es
ĠAut onomy
ĠSem inar
**** ****
Ht et
Lib rary
urp ose
4 6
A uthority
D i
E th
G T
R ate
l ong
m o
n ik
r ing
r as
t ension
ç ²
Ġ ec
ĠáĢĻ áĢĥ
áĢķ áĢĿáĢĲ
ĠáĢĽ áĢĿáĢĶ
áĢģ áĢĢáĢĦ
áĢĨ áĢĲáĢļ
ĠáĢ¡áĢĽ áĢħáĢĬ
áĢŁ áĢĲáĢĦ
áĢĻáĢĲ áĢĤ
ĠáģĢ áģīáģĦ
áģĨ áģĦáģĢ
áģĨ áģĩáģĢ
áģĩ áģĢáģĢáģĢáģĢ
Ġáģĥ áģĥáģĦ
ĠáģĦ áģĤáģĤ
áĢ»áĢ® áģį
ĠM ut
ĠN ay
ĠN ice
ĠN ame
ĠS mith
ĠA z
.. .
ĠD ance
ĠI ron
at an
ĠG MS
ĠH A
ro le
ĠL adies
áģģáģĪ áģħáģĩ
áģģáģĪ áģĩáģģ
st ein
ĠáģħáģĢ áģģ
áĢ¤ áĢĲ
ĠO l
ĠV en
un a
ĠIn vestig
ĠY ong
ĠY GN
ĠáģĤáģī áģĤ
Ġp res
ang áĢĢ
áģĤáģĤ áģī
áģĥáģĨ áģĩ
Ġd istancing
se y
ik h
ĠAn th
ost er
Ch ange
ĠMo e
ĠMS c
ĠCont ent
áĢŃáĢºáĢ¯ áĢ·
ĠInt egrated
Ad min
ĠAG TI
ĠFore ver
Ġï ¼
Farm ing
ĠStra its
ĠAQ SIQ
ĠVik ram
A F
B oard
H u
M ich
N g
T o
T ER
p ons
áĢŀ áĢĳáĢĢ
áĢľ áĢ¡áĢĢ
áĢĿ áĢŀáĢķáĢĬ
ĠáĢ¡áĢĽ áĢ¤
áĢ»áĢŃ áĢ¸
áģĤ áģĤáģģ
ĠáĢŀáĢĻ áĢĻ
ĠC ream
ĠM CR
ĠN ob
ĠN ippon
ĠáĢķáĢĳáĢĻ áĢ¡áĢĦ
ĠS et
ĠA V
ĠáģĨ áģĩáģĢ
áģĤáģĢ áģĥ
ĠáĢ¡áĢĽáĢķ áĢĳáĢĻ
áģģáģĢ áģģáģĢ
áĢĻáĢģ áĢı
ĠF armer
ĠD og
ĠR ay
áĢ¡áĢĬ áĢħ
ĠG ate
Ġáģģáģĥ áģĩáģħ
ĠO K
ĠJ on
ĠY es
áģĤáģĢáģģáģĨ áģĤáģĢáģĤáģģ
áģĤáģĥ áģĢáģĢ
áģĥáģħ áģĨ
áģĥáģħ áģĢáģĢáģĢ
if er
qu est
ĠAn aly
ĠáģĥáģĪ áģĤ
ore ign
end ed
ĠáĢ½ áĢ®
ĠEx p
und ai
ĠáĢ¹áĢ± áĢ»
ĠIm m
Man ager
ĠBre xit
ĠLog o
ĠLib eral
oj i
ĠCCC C
Ġprot ected
ĠStart up
NR PC
ĠVoc ational
adu ate
0 6
G ood
H abitat
M ac
T R
T ION
U áĢĢ
` `
d ition
f ield
h op
r at
t est
w er
áĢĦ áĢķ
áĢºáĢ¸ áĢ±
áĢ½ áĤĬ
áĢĶ áĢĺ
ĠáĢĽ áĢħáĢģáĢĶ
áĢŀ áĢĩ
áĢŀ áĢĸáĢĶ
áĢ±áĢ¸ /
ĠáĢħ áĢĶáĢļ
ĠáĢĺ áĢĽáĢħ
áĢĺ áĢĤ
Ġáģı "
áģĤ áģģáģĦ
áĢĮ áĢĸ
áģħ áģĦáģĢ
áĢ½áĢ¾áĢ± áĤĬ
ĠáĢĽáĢŀ áĢĲáĢĦ
ar ticle
ĠS ym
ĠáĢ¥áĢĢ áĢĦ
áģĤáģĢ áģĨ
áģĤáģĢ áģĩ
ĠT it
ĠB udget
ĠD ia
ĠU C
ĠU DP
re as
ĠL ucky
áģģáģĪ áģĩáģĥ
id el
áģĤáģħ áģĪ
ir a
ch iro
Ġs chool
Ġc oll
Ġc enter
ut ch
Ġáģĥáģħ áģħ
ĠPro blem
ĠáĢ¼ áĢº
ĠEleven MediaGroup
ĠYRTA áĢĢ
ĠCons ortium
ĠADB áĢĢ
ellig ent
ĠAS F
ott om
Ġcap ital
ç² ķ
3 00
B GF
E arth
H y
L L
T alk
t a
v in
Ġ oil
áĢĶ áĢ¡áĢĸ
ĠáĢĲ áĢ¿
ĠáĢĽ áĢ¡áĢģáĢĢ
áĢĽ áĢľáĢĬ
áĢĽ áĢ¿áĢĲ
áĢ¡ áĢĸáĢĢ
áĢŃáĢ¯áĢ¸ /
ĠáĢĺ áĢĳ
áĢĺ áĢĿáĢĻ
áĢĤ áĢĽáĢĶ
áĢĩ áĢĺáĢĢ
áģĥ áģģáģĦ
áģĥ áģīáģĢ
áĢŀáĢĶ áĢľ
áĢĲáĢĻ áĢľ
ĠC CA
ĠM ember
ĠS aint
ĠP ub
ĠF ar
ĠF ly
ĠR o
at ur
ac le
ing áĢĲ
ĠL ux
ĠáĢ© áĢĲ
áģģáģĪ áģĢáģĢáģĢ
áģģáģĪ áģģáģĤ
oo s
ec ies
ĠO S
ĠO w
ĠJ F
áģĤáģħ áģĨ
ĠV iv
ĠáģĤáģĪ áģī
ĠAA áĢŀ
ĠáģĤáģī áģĩ
áģĦáģĢ áģģ
ĠSt ress
Ġs em
áģĤáģī áģĤ
áģĤáģī áģĪ
áģĤáģī áģī
ĠRC áĢĢ
ob ac
CC TV
ik a
Ġ3 5
end ing
ĠComm er
oy ce
ĠCor porate
ond er
ĠARSA áĢ¡áĢħ
ĠHIV áĢķ
ĠGu ang
ĠUSDP áĢķ
att le
ĠWin rock
rop ol
Ġph oto
ĠNov a
ĠDec laration
ĠSem i
eph en
ĠPress ure
Pay ment
ĠFederal ism
ĠChair man
ĠUr ban
econom ic
ĠSuz uki
4 1
A NP
E I
M s
S elf
a use
r ome
t ec
y gen
Ġ Ë
Ġ time
áĢĢ áĢ¡áĢģ
áĢĢ áĢĵáĢĻ
áĢĲ áĢĲáĢķ
áĢĶ áĢ¡
ĠáĢĻ áĢ¡áĢĽ
ĠáĢĻ áĢ¡áĢľ
ĠáĢĻ áĤĢ
ĠáĢĶ áĢĹ
áĢļ áĢ¡
ĠáĢħ áĢľáĢļ
áĢĳ áĢĺ
áĢ¼áĢ¯ áĢº
ĠáĢĹ áĢĢáĢŀ
ĠáĢĻáĢĽ áĢĢáĢĶ
áĢĶáĢĢ áĢľ
ĠC ell
ĠM as
ĠM az
ĠN it
ĠN ag
ĠáģĪ áģĩáģĢ
Ġáģĩ áģĥáģĩ
ĠT alent
ĠF oot
ĠF ollower
it áĢĢ
tion al
ĠáģģáģĤ áģĪáģĢ
ĠD uwun
ĠG O
ĠK umar
ĠáģģáģĪ áģĨáģħ
ĠL iteracy
as ht
he ad
am áĢĢ
ĠO F
ĠO P
áĢºáĢ¯ áĢ·
un ner
ĠIn clusive
áģĦáģĢ áģĦ
ul ator
ul vert
Ġm et
ip e
Qu ality
Ġâ ĺ
ud ential
ĠComm and
stit ut
und ay
ĠHe at
áģģáģģáģĤ áģĢ
riv al
áĢĻáĢ¡áĢķ áĢħ
Ġáģģáģģáģĩ áģĢ
vis or
âĸł âĸł
rea tivity
Ky i
Stud ies
Rel ief
Cap ital
Tax i
ĠCCC CáĢĢ
ĠMis ri
ĠAug ust
ĠNeg oti
ufact uring
ĠAlib aba
M ax
R iver
V ac
b urmese
e er
m izzim
n ational
s i
s or
Ġ 00
áĢ¯ "
áĢĶ áĢĿáĢĶ
ĠáĢķ áĢĤ
ĠáĢĽ áĢ¡áĢģ
ĠáĢĶ áĢĢáĢĶ
ĠáĢĨ áĢĮáĢĻ
áĢ±áĢ«áĢº )
áĢĤ áĢŀ
áĢ¼áĢ¯ áĢ¸
áģĦ áģīáģĢ
áĢĲáĢĻ áĢĽ
Ġáģĥ áģĥáģĤ
ĠáģĦ áģĥáģĤ
on n
in ed
ĠA ye
áĢŀáĢħ áĢģáĢĶ
Ġáģĩ áģīáģĢ
ĠP E
ĠT en
ĠT or
ĠD ictionary
at áĢĢ
ĠK C
ĠáģģáģĪ áģĨáģģ
ĠL O
ĠL ittle
ĠáģĥáģĢ áģī
ĠáĢĲáĢĻ áĢĶáĢĢ
ad o
ĠO s
Ġp op
áģĤáģĥ áģĨ
áģĤáģĨ áģĩ
áģĤáģĪ áģĨ
áģĦáģħ áģĢáģĢáģĢ
Ġh and
ĠUS D
Ph il
Ġe S
Ġv s
Com mission
rol l
ĠFl u
RA M
ĠáģģáģģáģĪ áģĢ
ĠTra ffic
uz z
Dep artment
ĠChap ter
ĠCouns ellor
rang ement
ĠCycl one
7 8
A rea
I t
P aul
V IP
áĢĻ áģ½
áĢ±áĢ¬áĢº (
áĢĴ áĢĹ
ĠáĢŁ áģ¼
ĠáĢ¡áĢĨ áĢĻ
ĠáĢĢáĢĻ áĢģ
áģĨ áģĩáģħ
áģī áģĤáģī
Ġáģĥ áģĥáģĨ
ĠáģĦ áģģáģĤ
in ical
ĠM alaysia
Ġáģī áģĦáģĢ
ĠáĢĻáĢħ áĢģáĢĶ
ĠI N
ĠG H
ĠG M
ĠG S
om ens
áĢĶáĢĿ áĢĲáĢĶáĢ¡áĢĸ
ing er
ĠáģģáģĪ áģħáģĥ
ĠL y
áģģáģĪ áģĥáģī
he e
st r
ĠáģĤáģĦ áģĢáģĢáģĢáģĢ
ĠáģĤáģĨ áģī
um in
ĠCh ris
ant ra
ill er
In n
áģĥáģĥ áģĢáģĢ
Ġ2 9
201 1
eral d
ĠHe avy
Un it
ĠWh ole
En ter
ĠOff icial
uck er
Pl ay
Ass essment
ĠFed eration
ĠAf ric
atis tics
ĠHig her
peti tion
6 39
E conom
P al
T áĢĢ
h ood
j ection
k king
s a
â Ī
áĢ± áĢ±
áĢĢ áĢĢáĢĶáĢ¦
ĠáĢĽ áĢĲáĢĦ
áĢĽ áĢ¡áĢĢ
ĠáĢľ áģ½
áĢļ áĢŀ
ĠáĢĺ áĢĽáĢĢ
ĠáĢĴ áĢĸ
ĠáĢ¡áĢĳ áĢĶ
ĠáĢĩ áĢĽáĢħ
ĠáĢŀáĢĻ áĢı
âĢ ī
áģĩ áģĤáģħ
áĢĭ áĢĢáĢĢ
ĠS ite
ĠA flatoxin
ĠP ack
ĠâĢĪ ĠâĢĪ
ĠB ike
ĠI TC
ĠG MP
ĠG round
áģģáģĪ áģĨáģĦ
ĠW CDMA
and the
of Myanmar
ĠNCA áĢĳ
ĠáģĤáģĪ áģĦ
ĠáģĤáģĪ áģĨ
ĠáģĤáģĪ áģĩ
áģĤáģĦ áģĤ
ĠáĢ¡áĢŁ áĢķ
áģĤáģĥ áģī
Ġs m
Ġs kin
ard s
ob er
iz eráĢĢ
ell y
Ġg o
ĠAr ticle
Ġn ational
Ġst ructure
the ast
âĻ ©
Ac id
CS E
KNLA PC
als ef
ĠLeg end
ograph ic
Ġpol itical
ĠDat abase
ĠStat us
ias is
ĠAlex ander
Ġsing le
ĠCommer ce
H old
N ov
N CCT
O per
Q R
T er
d aily
g l
k er
p an
w ich
áĢŃáĢ¯ áĤļ
áĢķ áĢĤ
áĢķ áĢ¡áĢľ
áĢ» "
áĢħ áĢĲáĢĻ
áĢ° áĢŃ
áĢ½áĢ± áģĭ
áĢºáĢ· áĢ¸
áĢĿ áĢĢáĢĶ
áĢĺ áĢľáĢĢ
áĢ±áĢ· ..
áĢĤ áĢĽáĢķ
ĠáĢ¡áĢĽ áĢ¡áĢĨáĢĦ
ĠáĢ¡áĢķ áĢĽ
áĢ½áĢ²áĢ· áĢ·
áĢ¼áĢŃ áĢ°áĢ¸
ĠáĢĻáĢĦ áĢĲ
on ciliation
in ner
ĠA IA
ĠA sean
ĠT ab
ĠT achileik
ĠF OR
ĠB ed
ĠB os
ĠáģģáģĤ áģĩáģĢ
ĠR ail
ĠH ab
ĠH istory
ĠK SDP
ĠL C
ĠL es
as ak
ĠáģĤáģħ áģĩ
áģģáģĩ áģĩáģĨ
ĠJ oh
ĠV MS
ĠY an
áģĥáģĩ áģĢáģĢ
áģĦáģħ áģĨ
eg ation
ĠUn ity
00 1
Ġáģĥáģĩ áģī
ĠQu estion
ass ium
ĠAn imal
St ep
erv is
Ġh ard
Ġn ormal
ĠáģĦáģĨ áģĢáģĢ
ĠáĢ¡áĢĤ áĢĦ
ĠUS B
ĠMask áĢĲ
ĠSc ot
Th ai
Ġ9 5
por ter
ĠStud ents
ĠProduc ts
ĠNE SP
vers ion
utt le
Ġdown load
ĠâĿ ĥ
C SO
E ff
S el
V irus
V ision
b od
m ann
s áĢĶ
Ĩ Ķ
áĢŃ "
ĠáĢĲ áĢĻáĢĬ
áĢ» âĢĭ
ĠáĢĽ áĢĵáĢĻ
áĢĽ áĢĢáĢĶ
ĠáĢĶ áĢľáĢķ
áĢºáĢ· áģı
áĢĺ áĢ¡
áĢ½áĢ¬ ..
ĠáĢĻáĢķ áĢĢ
ĠM ERS
ĠáĢĺáĢĿ áĢ¡
ar at
ĠN as
ĠS I
ĠS now
ĠS ports
ĠF red
ic acid
ĠáģģáģĪ áģĨáģĢ
ĠáģģáģĪ áģĩáģħ
ĠL u
ĠE st
ĠáģħáģĢ áģĨ
áģģáģĩ áģĪáģĤ
ĠJ e
ĠY ESC
ot ene
ĠáģĤáģĨ áģĪ
ce ption
Ġf e
áģĤáģĩ áģĩ
áģĤáģī áģĥ
ĠKN O
áģĦáģħ áģħ
áģĥáģī áģħ
áģĥáģī áģī
áģĥáģĦ áģĥ
áģĥáģĦ áģĩ
ĠáĢ¾ áĢ±
áģħáģħ áģħ
ĠAc cord
ĠÂ ¯
Ġn etwork
form al
ĠX i
ĠAg riculture
ĠUniversity of
ruc t
Day Daily
ĠÂł ĠÂł
Tr ust
yn th
ĠPre vention
ĠNov otel
Ġî Ģ
Off ice
ĠRespons ibility
ĠSpr ing
ĠFever Clinic
ĠMits ubishi
F air
N ation
S K
S ea
b or
g or
Â ·
Ġ aw
ĠáĢĲ áĢĺáĢĿ
ĠáĢķ áģĿ
áĢ² ?
áĢ»áĢ¬áĢ¸ áģĮ
ĠáĢĺ áĢĬ
áģĢ áģīáģĦ
áĢĺ áĢĴ
áĢ½áĢ±áĢ¸ âĢĭ
ĠáĢ¡áĢĽ áĢ¥áĢķáĢĴ
ĠáĢĻáĢĽ áĢĳ
áĢĩ áĢķáĢĲ
Ġáģĥ áģĤáģĢáģĢáģĢ
ĠáģĦ áģģáģĩ
ĠáģĦ áģĪáģħ
áĢĢáĢŀ áĢļ
ĠC ast
ĠC risis
ĠM T
áĢĻáĢŁ áĢĶ
ĠN av
ĠS oil
ĠT u
ĠT un
Ġáģī áģĥáģĢ
Ġáģī áģĩáģħ
it o
ĠD ar
ĠD uty
is her
ĠH ay
ĠU ser
ĠáģģáģĪ áģĩáģī
il i
ĠO SS
ĠáģĤáģĦ áģĤ
ĠV eg
áĢŀáĢĽ áĢĸ
ĠáģĤáģī áģī
im um
Ġf eedback
áģĤáģĩ áģĦ
áģĥáģħ áģĪ
Ġd igital
áģĥáģĥ áģĤ
ĠáĢ¾ áĢŃáĢ¯
ĠTh u
ph one
Ġáģĥáģī áģĤ
ĠSch midt
Ġ0 1
ĠGu y
ĠBr idge
ĠSec tion
Ġch ar
Ġch annel
áĢŃáĢºáĢ¯ áĢ¸
áĢĿáĢĿáĢĿáĢĿ áĢĿáĢĿ
top ic
ĠHy undai
emb ly
ĠAdmin istration
Cons ult
ĠEff ect
Camp aign
osoph y
1 50
5 3
6 2
A áĢĢ
B I
D ream
F ort
F reedom
K o
L ive
N FA
R ock
S amsung
T ype
Z h
b et
b reak
l as
m od
Ġ ap
áĢ¬ .
áĢ¼ áĢ²áĢ·
áĢĲ áĢ¡áĢķ
ĠáĢĻ áĢĺáĢĢ
ĠáĢĻ áĢ¥áĢĻ
ĠáĢĢ áĢĢáĢĲ
áĢĻ áĢĳáĢĬ
áĢħ áĢĳ
ĠáĢķ áĢĽáĢĦ
áĢļ áĢĿ
áĢľ áĢĨ
áĢľ áĢľáĢļ
áĢ¾áĢŃ áĢº
Ġ) ,
áĢĵ áĢŀáĢħ
áģħ áģĪáģĢ
ĠáĢĺáĢĿ áĢĢáĢĢ
ĠáĢķáĢĳáĢĻ áĢ¡áĢĻ
ĠáģĪ áģĨáģĢ
Ġáģĩ áģĨáģĢ
ĠP ers
ĠP te
ĠF F
it ht
ĠD ong
ĠD onald
ĠR ah
ĠK IC
ĠáģģáģĪ áģĪáģĤ
ĠE ye
ĠáģĥáģĢ áģĨ
áģģáģĪ áģĥáģĢ
Ġáģģáģĥ áģĩáģĢ
áģģáģħ áģĢáģĢáģĢáģĢ
ad an
áĢ© áĢŀ
ĠáģĤáģĥ áģģ
os hi
ri ef
ĠCon gress
Ġw eb
ass ador
Ġ2 8
Ch it
ung er
the w
ĠNew Normal
ĠMar ine
ĠANP áĢĢ
ĠLockdown áĢĢ
UN HCR
ao áĢĢ
ett lement
ĠEd ward
ĠDep uty
Ġcl ass
ĠáĤ Ī
Institute of
ĠMyan ma
Ġáģ¾áĢ¡áĢĢ áĢĻ
ĠTik Tok
UE HRD
ĠGirl s
Americ an
ploy ment
ĠÃ² áĢĶ
áģ¾áĢ¡áĢĸ áĢħ
7 4
A V
B elt
C ur
D ata
G H
S Y
S afety
V al
V alue
b o
q P
v ille
Ķ Ģ
áĢ¼ áĢ¾áĢŃáĢ¯
áĢ¬áĢ¸ ?
ĠáĢŀ áĢĽáĢħ
áĢĽ áĢĻáĢĦ
ĠáĢľ áĢģáĢĢ
áĢ»áĢ¬áĢ¸ -
áĢ¼áĢ®áĢ¸ "
áĢ¾áĢŃ /
áĢ¾áĢŃ áĢ·
ĠáĢĺ áĢĶáĢĶ
áĢĴ áĢ¿áĢĶ
áĢĺ áĢĨ
ĠáĢ¡áĢĽ áĢĻáĢĢ
ĠáĢĬ áĢ¡áĢģ
Ġáģĥ áģĤáģĤ
ĠáĢ§ áĢĿ
ĠáģĦ áģģáģĪ
Ġáģħ áģģáģĤ
in f
áĢ¡áĢľ áĢľ
ĠM ike
áĢ¼áĢ¾ áĢ¯áĢ¶áĢ¸
ĠT NP
ĠT HE
Ġáģī áģĤáģī
áģĭ áĢº
ĠF O
ĠF ight
ĠáģģáģĤ áģĨáģĢ
ĠáģģáģĤ áģĩáģħ
ĠD W
ĠI SS
ĠR ou
is l
il led
ĠL G
ĠL ook
ĠáĢĽáĢ¡ áĢĨáĢĦ
ĠNLD áĢľ
áģģáģĪ áģħáģĪ
ĠáģĤáģħ áģĥ
ed y
ĠáģĤáģĩ áģĪ
ĠáģĤáģĩ áģĩ
op her
áģĦáģĢ áģĤ
Ġp ersonal
Ġc are
Ġc opy
Ġm ut
Ġd ec
Ġd ep
ill ance
áģĥáģĪ áģī
áģĥáģī áģĨ
Ġáģĥáģĩ áģĩ
Ġin formation
Myanmar áĢĻ
ĠPr ime
ĠPr incess
pr es
ric t
able t
ons or
ĠPart ner
Al liance
Ġph one
itor ing
ull ah
Ġcl ade
ĠáĢĶáĢĿáĢĻ áĢ¡áĢĢ
ĠDec ision
Ġsc reen
ĠSecond ary
CE O
cy ber
ĠMJ N
B ro
C ulture
C rop
C heck
F er
F inance
K ey
M aung
R ay
S il
T L
V ir
W ill
g i
g s
r h
r iter
s u
s ystem
ä ¸
áĢ¯ áĢŃáĢ¯áĢº
áĢĢ áĢĤ
áĢĻ áĢ¥áĢķáĢĴ
ĠáĢĽ áĢĺáĢĢ
áĢļ áĢĸ
áĢ±áĢ¬áĢº /
áĢ¾áĢŃ âĢĭ
áĢĺ áĢĽáĢħ
ĠáĢ¡áĢħ áĢĲ
ĠáĢľáĢĢ áĢĢ
áģĤ áģĤáģĢáģĢ
áģĤ áģģáģĥ
áģĩ áģĥáģĢ
Ġáģĥ áģĪáģĪ
áĢ¥ áĢŀáĢħ
er áĢľ
Ġáģħ áģĤáģĪ
ĠC OVAX
ĠM aung
áĢ¾áĢ° áĢ¯
al axy
ĠP MI
ĠáģģáģĢ áģĪáģĢ
áĢĻáĢģ áĢĻ
ĠB ob
ĠD I
ĠD yn
ĠD egree
ĠR ose
om s
ĠH it
ĠH ost
ĠH ind
ĠH ann
ĠáģģáģĪ áģĪáģĩ
ro ph
ĠE P
ĠáĢ© áĢĶ
ĠW ell
Ġáģģáģĩ áģĢáģĢáģĢáģĢ
ec e
ĠV ice
ĠV AR
áĢ© áĢĻ
áģģáģģ áģĢáģĢáģĢ
áĢĻáĢĻ áĢĻ
oc redit
ĠáģĤáģĨ áģĨ
ĠSt and
ĠCh ip
In c
áģĥáģĦ áģĤ
ĠáģĥáģĦ áģĦ
ĠáģĥáģĪ áģī
áģĥáģĢáģĢ áģĢáģĢáģĢ
ĠáģħáģĨ áģĦ
Pro duction
Ġst andard
ĠX u
ĠáĢŀáĢĻáĢĲ áĢĸ
ĠMar ie
eas ibility
ĠMo on
Ġ6 4
ruc k
oph obia
ĠCons ervation
OC HA
arb on
ĠPhil ip
ĠOper ating
Mod el
ĠAst raZenec
ĠPrem ium
ĠWH H
osphor us
B and
C ivil
D ev
K a
L ee
N a
R et
S ustainable
a ult
c in
f ile
l u
p erson
u ary
Ġ id
áĢ¯ áĢ¬
áĢķ áĢĽáĢĶ
ĠáĢģ áĢľáĢħ
áĢĨ áĢĭ
áĢĺ áĢĮ
áĢı áĢĹáĢľ
áģĦ áģĩáģĢ
ĠáģĦ áģĤáģĨ
Ġáģħ áģīáģĢ
ĠC ro
ĠC opy
ĠN BF
ĠS ak
en ch
ĠA áĢĢ
ĠA th
ĠA BS
or ph
ĠP ic
áĢĢáĢĢ áĢĲáĢħ
Ġáģī áģģáģĢ
ĠáģģáģĤ áģĤáģĢ
ic ide
ĠR T
ĠR a
ĠR ab
ĠR ice
om acy
is áĢĢ
is er
ĠH j
ĠáģģáģĪ áģĤáģħ
ĠáģģáģĪ áģĨáģĥ
ĠL iang
áģģáģĪ áģĪáģĤ
áģģáģĩ áģĢáģĢáģĢ
áģģáģĥ áģģáģĦ
ĠJ ac
áĢŀáĢļ áĢĢáĢĦ
ĠáģĦáģĢ áģĤ
ĠSt an
áģĤáģĨ áģĨ
ri ver
áģĥáģĩ áģĦ
ĠáĢ± áĢºáĢ¹
Ġ20 00
In fluenza
ĠPh ot
ĠáĢ½ áĢŃ
Ġh igh
Ġáģĥáģī áģĩ
ĠáĢ¼ áĢ¾
ĠáĢ¼ áĢ½áĢ±
ĠBl uetooth
ash i
ĠAg ri
ĠMy o
Ġre m
Cent ral
for c
ĠHome Quarantine
eed s
ĠCoronavirus Disease
UN DP
Ac tivity
NO NE
ĠHy per
Test Kit
Ġel ect
Tel enor
ĠWind ows
ĠAssist ance
ĠWi Fi
ĠTin y
ĠDoctor of
ĠPrincip le
eij ing
áĢºáĢŃáĢ³ áĢ¸
Ã± oláĢĢ
Dav id
ĠâĻ« âĻª
5 8
B udget
K A
M ul
M ission
W ind
k el
v ation
w eb
Ġ Å
Ġ ear
áĢĢ áĢĲáĢĢ
áĢºáĢ¸ áģİ
áĢĲ áĢģáĢĶ
ĠáĢĢ áĢĶáĢħ
áĢĻ áĢ§áĢĢáĢĽ
ĠáĢķ áĢĽáĢĶ
ĠáĢŀ áĢĻáĢĲáĢĶ
ĠáĢĽ áĢĻáĢĢ
áĢĽ áĢŀáĢĻ
áĢĽ áĢ¡áĢĻáĢĲ
áĢĴ áĢ¡
áĢĤ áĢľáĢĢ
áģĥ áģģáģĥ
áĢ¼áĢŃáĢ¯áĢ· áģĮ
áģĪ áģĥáģĢ
ĠáģĦ áģĥáģĪ
áĢ¡áĢħ áĢĻ
ĠM g
ĠM iddle
áĢ»áĢŃáĢ¯ áĢ¯áĢ¸
ĠN DA
ĠS TA
áģĤáģĢ áģī
al d
ĠT ur
ĠT urn
Ġáģī áģĩáģĢ
ĠF le
ĠB ad
ĠB ot
ĠB ureau
ĠáģģáģĤ áģĦáģĩ
ĠI L
at est
om on
Ġáģģáģĥ áģĪáģģ
ĠáģĤáģħ áģģ
ol t
ĠO k
ĠJ O
ĠJ ay
ĠáĢģáĢı áĢĲ
ĠV illage
eb do
ĠáģĤáģĨ áģħ
áģĤáģĢáģģáģħ áģĤáģĢáģģáģĨ
áģĤáģĦ áģī
ĠáģĤáģī áģĢáģĢáģĢ
Ġs ign
ang le
Ġ. áģĬ
áģĤáģĪ áģī
ĠáģĦáģħ áģĩ
ob s
Ġd ay
av on
ĠáģĥáģĦ áģĥ
áĢº.. .
ĠApp áĢĢ
ĠáĢ¹áĢ¸ áĢ»
ĠDr agon
ĠáģĦáģī áģĪ
Ġv irus
Ġv ote
ug s
Com plex
ĠSocial Media
AA áĢĢ
ĠMar ch
Th ailand
10 87
Ag ricultural
ĠChe v
ĠMobile Team
rop ical
ĠáĢ¹áĢ· áĢ±
Pl us
áĢ¡áĢħáĢħ áĢ¡áĢĽ
39 639
ĠKing dom
ĠFil ed
ĠPhys ics
ĠConsult ant
ĠDead line
edd ing
ĠSuc cess
omet ric
Imm unity
cyber media
" "
C ov
C ountry
O oredoo
P at
P yi
S ex
b our
g es
m Ah
â ĶĢ
Ĥ ĵ
áĢŃ áĢ»áĢ¯áĢ·
áĢĲ áĢŀáĢĺ
áĢĽ áĢŀáĢĸ
áĢ·áĢº áģĬ
áĢ¯áĢ¶ [
ĠáĢĲáĢħ áĢĲ
áĢ½áĢ² âĢĭ
ĠáĢ¡áĢĽ COVID
Ġáģĥ áģģáģĨ
Ġáģħ áģĥáģħ
ĠM NT
ĠM itch
ĠáĢķáĢĳáĢĻ áĢĻáĢĦ
ĠáĢķáĢĳáĢĻ áĢŀáĢĲáĢĦ
ĠS anction
Ġáģĩ áģĪáģĢ
ĠP ow
ĠB on
ĠB eh
ĠD iversity
ĠD agon
ĠK en
ĠáģģáģĪ áģĪáģĦ
áģģáģĪ áģĨáģĥ
áģģáģĤ áģĦáģĢ
le an
áģĤáģĢáģĢ áģĢáģĢáģĢ
ĠáģģáģĨ áģĪáģĢ
am ic
áģģáģĨ áģĢáģĢáģĢ
eb r
us sia
ĠáģĤáģī áģĥ
ĠáģĤáģī áģģ
um i
ĠCh ristian
áģĤáģĨ áģĦ
Ġf iscal
ri an
Ġm ain
Ġd r
áģĦáģħ áģĩ
se ed
qu es
ĠUPDJC áĢ¡áĢħáĢĬ
anc es
RC áĢĢ
ĠáĢ¼ áĢ²
ind er
ĠGr ant
ĠRe ady
ĠáģĪáģĢáģĢ áģĢáģĢáģĢ
Ġv alue
ner áĢĢ
ĠIm port
Group áĢĢ
ĠApple áĢĢ
ĠHuman itarian
CP I
ĠCons umer
ĠICC áĢĢ
ĠStayatHome áĢĢ
ĠIntern al
Sp ace
ĠLi u
ĠExpress ion
ĠCal c
gr ade
Ġter m
ĠWith out
ĠáĢĸáĢĨáĢķ áĢľáĢĢ
ĠTiny Pic
4 3
G overnance
J ustice
M g
N ight
P an
b it
i ers
x im
z áĢĢ
Ġ ra
Ġ mark
áĢº =
áĢº \
áĢº ï»¿
áĢ¯ áĢ°áĢ¸
ĠáĢĻ áĢ¡áĢ¡
áĢħ áĢĻáĢŁ
ĠáĢŀ áĢĩ
ĠáĢĽ áĢĽáĢķ
áĢľ áĢĿáĢĻ
áĢŁ áĢľáĢĻ
áĢ»áĢ½ áĢ®
ĠáĢĽáĢĲ áĢħ
ĠáģĢ áģīáģħ
áģĦ áģĦáģħ
ĠáģĦ áģīáģħ
ĠC ath
áĢ¡áĢħ áĢľ
in u
ĠM ak
ĠM eth
áģĤáģĢ áģĤáģĦ
Ġáģĩ áģĨáģĪ
ĠR ot
ac ing
ĠU M
áģģáģĪ áģĤáģĥ
áģģáģĪ áģħáģħ
áģģáģħ áģħáģĢ
am era
ĠO PPO
ĠáģĦáģĢ áģħ
ĠáģĦáģĢ áģĦ
áģĦáģĢ áģħ
Ġc re
Ġc ity
Ġm g
Ġm emory
Ġd u
ĠKIA áĢĲáĢķ
art s
St reet
áĢ¾áĢ¯áĢ· áĢ¶
áģĦáģĩ áģĨ
Ġáģĥáģī áģĢáģĢ
ĠáĢ¼ áĢ¬
ĠInd ividual
ĠáģĪáģħ áģĢáģĢáģĢ
ĠComp rehensive
ĠAg ent
à¸ £
tif y
ĠMR T
mm cybermedia
Ex press
ris on
ĠTel egraph
Ġex port
ĠJohn s
II I
ĠMusic Zone
Ġhe ad
Ġáģģáģģáģģáģ ĥ
ĠÌ ģ
ĠCare er
ĠVer ification
ĠVideoConferencing áĢħáĢĶáĢħ
You Tube
cast ing
ĠNAT O
Mand alay
B R
B e
C artoon
D on
F e
J une
N DF
P et
S aw
V I
W est
c ell
c redit
c ode
s ec
s kill
Ġ issue
áĢ½ áĢ»áĢ½
ĠáĢĲ áĢľáĢħ
áĢħ áĢĺ
ĠáĢŀ áĢĶáĢħ
ĠáĢľ áĢĺ
áĢŃáĢ¯áĢ¸ ..
áĢĿ áĢŀáĢĬ
ĠáĢ¡áĢĽ áĢģáĢĶ
ĠáĢ¡áĢĽ áĢĻáĢĦ
ĠáĢĤ áĢĴ
ĠáĢĻáĢĽ áĢĲáĢĲ
áĢĻáĢĲ áĢŀáĢĢ
ĠáĢĲáĢĽ áĢĻ
áĢĹ áĢĽ
ĠáĢĽáĢĲ áĢĽ
áģĦ áģĪáģħ
áĢ¡áĢĲ áĢħ
er ate
ĠáģĦ áģĦáģĪ
ĠC as
ĠC iv
áĢ¡áĢħ áĢĲ
in áĢľ
ĠM achine
ĠáĢĺáĢĿ áĢľ
ĠS NA
ĠA u
ĠáģĨ áģĪáģħ
Ġáģĩ áģģáģĢ
Ġáģĩ áģĩáģħ
ĠP ok
ĠT aw
ĠT reat
Ġáģī áģĤáģĢ
ĠF ur
ĠF ather
ĠD rive
ĠR R
ĠR od
ĠR SF
ĠK an
ĠK le
el es
ĠáģģáģĪ áģģáģī
ĠáģģáģĪ áģĦáģĢ
ĠáģģáģĪ áģĦáģĪ
il y
ĠL ord
as is
as tern
áģģáģĪ áģĥáģĨ
Ġáģģáģĩ áģĪáģĦ
st on
ĠJ eff
ĠNCA áĢľáĢĻ
áĢĻáĢĻ áĢı
áģĤáģĢáģģáģĪ áģģáģī
ĠáĢĢáĢĢ áĢĽáĢĦ
op ol
Ġp ress
Ġc an
ut ing
ant a
ab eth
áĢĲáĢĨ áĢĸ
ĠPro posal
Ġd omain
áģĥáģĪ áģĨ
áĢ¾áĢ¯áĢŃ áĢ·
PC R
Ġl ight
ma áĢĢ
ear n
ĠAl bert
Ġg ame
Ġh y
ie ties
SC O
ĠComp anies
Th ar
ĠHIV áĢĢ
à¸ Ļ
ĠIm ages
ĠCol or
ĠCar b
ĠEm p
ĠDis aster
ĠFac ilities
ĠILO áĢĢ
ĠIndust ries
ĠAut om
ĠTest Kit
ĠAt titude
ĠHealth y
ush i
Ġres earch
ĠUNA IDS
ĠHy brid
ĠNH L
Fl ight
hem istry
ĠIP U
ĠAf ter
yang on
~~~~~~~~ ~~~~~~~~
ĠSecret ary
As ian
ĠCru ise
D aw
L og
R L
R oom
c he
d h
e ep
m p
áĢ¬ )
áĢ± áĢ¶
áĢĲ áĢĻáĢĬ
áĢĲ áĢĿáĢĢ
áĢħ áĢĲáĢĢ
ĠáĢĽ áĢ¡áĢĢ
ĠáĢĸ áĢ¦
áĢ¡ áĢĩ
áĢºáĢ· -
áĢ½áĢ² áĢ¸
áĢı áĢŀáĢĬ
áĢĩ áĢļáĢĶ
áĢĮ áĢĻáĢķ
Ġáģĥ áģģáģī
Ġáģĥ áģģáģĪ
áĢĲáĢĽ áĢ¡
ĠC F
ĠC NA
ĠC lick
in formation
ĠM RC
ĠN uc
ĠáĢķáĢĳáĢĻ áĢĳ
ĠS ri
ĠS ide
ĠA wareness
ĠP yi
ĠáģĤáģĢ áģĥáģħ
ĠT ay
ĠT OR
ĠT rib
ĠB it
ĠG i
ĠG ay
ĠH ousing
el d
ĠL amb
ĠL aur
ĠW LB
am ai
ec ific
ĠJ ust
áģĤáģħ áģĦ
áĢ© áĢģ
ir th
ĠáģĤáģĥ áģħáģĢ
ĠáģĤáģĢáģģáģĨ áģģáģĩ
ve illance
áģĤáģĨ áģĪ
ri ke
áĢļáĢĻ áĢ¦
ĠáĢ± áĢ°
Ġd uwun
IC S
ĠáģĥáģĨ áģĦ
ĠáģĥáģĨ áģī
ĠáĢ¾ áĢ²
if ied
Ġl anguage
ĠRe ading
Ġr un
Ġr ights
ĠAg enda
Ġpro duct
ĠPlan ning
pl ace
Ġ9 0
Ġac c
li ed
ĠAI IB
ĠReg istration
Ġth inking
Ac adem
ĠMIC áĢĢ
Ġáģģáģģáģĥ áģĢ
tim es
ĠRel ig
ĠLi qu
eh icle
Ġï»¿áĢ¸ ï»¿
Ġî Ħ
med iate
Ġpol y
à¹ Ī
oug ht
ĠEntrepreneur ship
lis hed
8 3
A f
B ad
B ay
B est
F DI
R ich
T own
W D
i os
j a
r ency
t own
w as
â ŀ
Ġ é
Ġ ent
áĢĦ áĢĨ
áĢħ áĢĤ
áĢ¬áĢ¸ .
áĢ® ..
áĢ·áĢº /
áĢĴ áĢĿ
áĢ»áĢ±áĢ¬ áĢ·áĢº
ĠáĢĲáĢĢ áĢĶ
áĢĩ áĢģ
âĢ ¢
áģĥ áģģáģħ
áģĥ áģĤáģĢáģĢ
áĢĢáĢĽ áĢĸ
ĠâĢĭ áģĬ
Ġáģħ áģĤáģĢáģĢ
in er
ĠM K
ĠM ond
áĢĻáĢĽ áĢĬ
ĠS yndrome
ĠA áĢ¡áĢĨáĢĦ
ĠA rab
ĠáģĨ áģģáģĤ
ĠáģĪ áģĩáģħ
ĠP il
ĠP os
áĢĢáĢĢ áĢľ
ĠB oost
áĢĿáĢĿ áĢħ
ĠI KBZ
ĠR ing
at ar
ĠáĢĻáĢĻ áĢĿáĢĦ
ĠG P
ĠG ates
is d
ĠK am
ĠU ber
il awa
áģħáģĢ áģģ
ĠW u
ĠáĢ¡áĢĽáĢŀ áĢĲáĢĦ
id ar
ĠJ a
ĠJ ones
ĠIn come
ĠáģĤáģĨ áģħáģĢ
ĠáģĤáģĩ áģģ
ĠáģĤáģĩ áģħáģĢ
ĠThe Voice
Ġc ovid
os ystem
áģĤáģĪ áģĥ
ĠáĢķáĢĳ áĢĻáĢĬ
od or
áģĥáģĩ áģģ
ĠSh ip
ĠáĢł áĢĢ
ĠáģĥáģĨ áģĩ
ust ry
ain s
ear l
ex us
duc ts
Ġ7 77
Ġh er
ĠPr actice
ĠáģĦáģĦ áģĢáģĢ
ĠáģĦáģĩ áģĨ
amp le
ĠáģģáģīáģĢ áģĤ
ĠáģħáģĪ áģĢáģĢ
ĠMy at
ĠNRPC áĢĢ
ath y
Ġi OS
âĻ ¦
ĠIs olation
Ad d
áĢķáĢĳ áĢĻáĢĲ
ĠAccount ability
Ġáģģáģģáģģáģ ħ
ĠInst ant
ellow ship
ĠFace Shield
ĠOver se
ĠMet ro
Sup er
ĠRh od
ĠAF FM
Indust rial
Prot ection
uM ojo
ĠEO I
bod ies
A v
D NA
E uro
K uMojo
M oh
O b
R h
S U
S l
T em
W T
W TO
c a
c ap
d b
f a
p re
p ass
r est
z o
Ġ mar
áĢ± áĢ²áĢ·
ĠáĢ¡ áĢĮáĢĻáĢĲáĢĶ
ĠáĢĽ áĢĵ
áĢĽ áĢĺáĢĦ
áĢĺ áĢĺáĢĢ
áģħ áģģáģģ
áģī áģĢáģĢáģĢáģĢ
áĢĲáĢħ áĢĶ
ĠC row
ĠM ent
ĠM RI
ĠáģĨ áģĤáģĥ
áģĤáģĢ áģĤáģĨ
al o
ĠáĢ¡áĢļ áĢĦ
ĠáģģáģĢ áģĥáģĢ
it uation
ĠB ern
ĠB each
ĠI CA
ĠR DT
ĠG ly
ĠH am
ĠáģģáģĪ áģĤáģĢ
ĠáģģáģĪ áģĨáģĦ
áĢħáĢĲ áĢģ
ĠE MP
ĠE PA
ĠE FR
ĠW ifi
ad ership
áĢ§ áĢĢáĢľ
ĠJ et
ĠáģĤáģĦ áģĦ
un áĢĢ
áģĤáģĦ áģĨ
ĠSt orage
áģĤáģĤ áģĢáģĢáģĢ
ap l
tic ism
ep ro
ĠCom b
In flation
áģĥáģĥ áģī
áģĥáģĦ áģĪ
ĠáģĥáģĦ áģī
ry pt
ass y
Ġ3 60
ĠáģĥáģĪ áģĨ
ĠáĢ¼ áĢ¾áĢŃáĢ¯áĢ¸
ĠáģĦáģĩ áģĢáģĢáģĢ
Ġst ay
The L
ĠRe ality
Co ord
ĠIm plement
ĠSystem s
âĻ Ń
An g
áĤı áģ±
ĠRef er
Ġcont ent
Ġî ĩ²
áģ³ áĢ®
ĠIndepend ence
ĠDist ribution
ĠCoord ination
ĠFe ature
ept ember
ĠDocument ary
Facility Quarantine
uge es
ĠDF ID
ĠCrim inal
ĠHerd Immunity
5 2
9 4
B r
E qu
L I
L eg
M L
P f
^ ^
b ur
k ey
l ator
m es
o ir
p age
r ical
áĢ± áģĬ
áĢĲ áĢ¡áĢħ
áĢĻ áĢħáĢĦ
áĢĻ áĢŀáĢĺáĢĦ
áĢĽ áĢŀáĢĦ
áĢ² áĢ»
áĢŀ áĢī
áĢģ áĢ¡
áĢľ áĢĲáĢħ
ĠáĢ¡áĢĽ áĢľáĢĻ
áĢŁ áĢ¡
ĠáĢ¡áĢľ áĢŁ
áģĥ áģģáģĩ
áĢĶáĢĢ áĢķ
ĠáģĦ áģĤáģī
ĠáģĦ áģĥáģĦ
ĠM ae
ĠA ce
or áĢĢ
ĠP ath
ĠáģģáģĤ áģģáģĦ
ĠI ce
ĠR oman
ĠG er
ĠG MO
ĠH our
ĠL ecture
ĠáģĥáģĢ áģĪ
Ġáģģáģĩ áģĩáģĨ
áģģáģĩ áģĪáģī
ĠJ enn
ĠV K
of M
ot ton
ag u
ig ure
ut orial
ut nik
ri f
áģĥáģĨ áģĨ
ist ant
PP P
ĠUn icode
av a
ĠáĢ¾ áĢ¬
ĠáģĥáģĦ áģĤ
ĠáģĥáģĦ áģĨ
Ch allenge
Ġ7 0
Ġg overnment
Ġh ouse
ðŁ Į
ct ober
pe ople
ĠMan ual
ĠICJ áĢĻ
ĠOr iginal
ĠMy aw
ĠIS áĢĲ
áĢ¯áĢ· áĢ¶
ĠNo tice
Con n
KN PP
Center áĢĲ
Ġ12 5
Ġtr ade
ump ty
udd ha
ĠPan el
ĠResp onse
Part nership
Is lam
Off icer
Ġsup port
gov mm
ĠMarc iel
ĠTem ple
ĠAtt ack
ĠUl tra
ĠOC HA
ĠCham ber
âĻ¬ âĻª
ĠNegoti ation
6 00
A uthor
B ur
C ore
C ode
D evelop
H op
I U
K ar
N ations
R ob
Y e
a ud
b ank
m s
s en
s id
Ã ³
Ġ est
Ġ eth
áĢº áĢ³
áĢ¼ âĢĭ
áĢ¾ áĢºáĢ·
ĠáĢĻ áĢĮ
ĠáĢĸ áĢĽáĢĦ
áĢŃáĢ¯áĢ· áĢ¯
áĢ¼áĢ±áĢ¬ âĢĭ
ĠáĢĺ áĢģ
ĠáĢĹ áĢŀ
áĢ»áĢŃ áĢº
ĠâĢ ¢
ĠáĢĽáĢĽ áĢŀ
Ġáģĥ áģĤáģĩ
áĢ¥ áĢĻáĢĦ
áĢ¥ áĢ©
áĢĲáĢķ áĢĶ
ĠC GI
ĠM id
ĠáĢķáĢĳáĢĻ áĢĺ
ĠS ep
ĠA mar
ĠA FC
ĠP a
ĠP in
ĠT R
ĠT aung
ĠF ish
ĠB atch
ĠB uck
áĢĿáĢĿ áĢĿáĢĶ
ĠR O
ĠR SS
at ement
ĠH um
ĠH emp
ĠK M
ĠK ind
áģģáģĪ áģĤáģĤ
ol as
áģģáģĩ áģħáģĤ
ĠO N
ĠJ u
ĠáģĤáģĩ áģĤ
Ġt our
Ġs earch
ĠCh all
ĠFacebook Page
ri k
áģĥáģĨ áģī
áģĥáģħ áģĩ
In f
Ġl and
ĠáģĥáģĦ áģĪ
ĠAn alysis
ĠZ ay
ram ework
áģĦáģĦ áģĦ
áģĦáģī áģĩ
ann a
Sh an
Sh we
uk e
ĠFr iday
Ġ9 2
tif ied
ĠáĢĶáĢĿ áĢĻáĢĻ
ĠCol our
áģģáģģáģĤ áģĢáģģáģī
Ex change
ym pt
ĠChar lie
ĠAut omatic
ĠGo al
Gu ide
Med icine
uj i
ĠGA qP
ĠProf ile
ĠAbd ul
Micro soft
ĠMW RN
Kyaw Thu
ĠKO ICA
Her itage
Ġradical s
Sum mit
oit te
âĪ ®
ĠFF SS
A I
C an
E O
H P
K im
M ap
O L
O il
R ad
X T
s áĢĨ
s per
y er
z one
Ġ Î
Ġ ç
Ġ áĤĬ
Ġ under
áĢ¸ "
áĢŃ áĤĤ
áĢºáĢ¸ áĢ·
áĢĲ áĢĻáĢļ
áĢĲ áĢĺáĢĿ
áĢ¾ ..
ĠáĢĲ áĢ©
áĢĻ áĢĸáĢĢ
áĢ¬áĢ¸ áģİ
ĠáĢĽ áĢħáĢĲ
ĠáĢĽ áĢĹáĢĲ
áĢ« )
áĢ²áĢ· áĢ²áĢ·
áĢĳ áĢĲáĢĶ
áĢĸ áĢľáĢħ
ĠáĢ¡áĢĽ áĢĨáĢĽ
áĢ¼áĢ¯ áĢ¯
áģĤ áģģáģī
áĢĻáĢĲ áĢŀáĢĬ
áģĦ áģģáģĤ
áģĨ áģħáģĢáģĢ
ĠáģĦ áģģáģĢáģĢ
ĠM ake
ĠM DCF
ĠáĢķáĢĳáĢĻ áĢ¡áĢĶ
or atory
ĠáĢ¤ áĢĿ
ĠT ake
ĠT ube
ĠT iger
ĠF EC
ĠF ED
Ġ/ -
ĠH arm
ĠK ay
ĠK enn
ĠU t
ĠáģģáģĪ áģĨáģĪ
ĠE R
ĠE MG
ĠNLD áĢŁ
áģģáģĪ áģĤáģģ
áģģáģĪ áģĩáģĩ
ent ral
ec tivity
áģģáģĩ áģĨáģĢ
ĠV accine
ag a
ag le
áĢĻáĢħ áĢĶ
áģĤáģĦ áģĩ
ia áĢĢ
ĠSt ream
ĠSt rong
ĠThe me
Ġs yndrome
Ġf ace
Ġf ollow
Ġáģĥáģħ áģĨ
Ġm icro
ĠPro c
SS R
Ġb rand
IC T
Ġw ar
áģĥáģĦ áģĢáģĢ
Ġin f
Ġin st
Ġáģĥáģĥ áģĢáģĢáģĢ
ĠPh yo
Ġh ave
ĠPr udential
ĠQuarantine áĢĳ
Ph ys
ĠAg ricultural
ĠSp a
ĠSp irit
ĠYangon Activity
Ltd áĢĻ
ĠMR CCI
ĠReg ion
ĠPer fect
rid or
rak e
ĠINGO s
MD G
Ġcont act
ĠCal if
Sup port
ĠEver y
ĠChem istry
ĠáĢĻáĢĻáĢŁ áĢĶ
ĠSav ing
role um
mizzim ab
âĶĢ âĶĢ
B ody
H ot
K orea
M DB
d u
f riend
g u
i ev
i Phone
j u
l os
n ew
s ch
Ġ à¸
áĢº áĢ®
áĢ¬ =
áĢ¾ áģı
ĠáĢĽ áĢħáĢĢ
áĢĽ áĢĲáĢĦ
áĢ±áĢ« áĢ»
áĢ¯áĢ¶áĢ¸ âĢĭ
áĢı áĢĿ
ĠáĢĿ áĢľáĢĦ
ĠáĢĬ áĢ¥
áĢĻáĢĲ áĢ¡áĢĸ
ĠáĢĲáĢķ áĢħ
áģĥ áģĤáģī
áģĩ áģĩáģħ
ĠáĢĲáĢģ áĢĽ
er áĢĻ
ĠáģĦ áģģáģĨ
Ġáģħ áģĪáģħ
ĠC u
ĠC up
ĠC ov
ĠC ann
ĠS ay
ĠáģĨ áģģáģĢ
ĠáģĨ áģħáģħ
Ġáģĩ áģĦáģĩ
ĠP ur
ĠF unction
ĠB ound
ĠD ark
ĠG overn
ĠH ague
ĠáģģáģĪ áģĥáģī
ation áĢĢ
áģĥáģĢ áģĨ
áģĥáģĢ áģī
Ġáģģáģĩ áģĪáģĤ
ed eration
et e
ol ate
áģģáģĦ áģĢáģĢáģĢ
ĠO IE
áģĤáģħ áģĩ
un c
ĠIn v
ĠY HT
oc on
ĠáģĤáģĤ áģħáģĢ
ĠáģĤáģĥ áģĢáģĢáģĢáģĢ
áģĤáģĦ áģģ
ut aw
ri um
ate g
áģĥáģĨ áģĤ
og y
áģĤáģĢáģģáģĦ áģĤáģĢáģģáģħ
CC up
ĠSh ock
ef ul
áģħáģĢáģĢ áģĢáģĢáģĢ
ust ration
av es
ack ing
Ġ3 3
áģĨáģħ áģĢáģĢáģĢ
anc el
ok i
iti v
oh ol
ĠáģĦáģī áģģ
áģĩáģĨ áģĪ
MA T
Ġv ol
ĠFor ward
ĠAg ro
áģ¾ áĢ¡áĢķáĢĦ
Ġre view
ĠCC P
pl orer
cl ass
ĠEng land
En d
AN D
ĠáģģáģģáģĦ áģĢ
Ġk ey
ĠMH z
ĠDel egation
ĠGo ethe
Cont act
ĠMel ia
ĠPort al
ĠProt ection
ĠDat áĢĲ
Char ter
Int elligence
ĠDet ox
Strate gy
ĠÃĹÃĹ ÃĹ
# âĢİ
A LA
K D
K E
P od
T ravel
W ashington
b uck
k g
o he
p ot
Ġ order
áĢ± áĢŃáĢ¯
áģ ł
ĠáĢĻ áĢ¡áĢĲ
ĠáĢĻ áĢĿáĢĽ
ĠáĢĶ áĢĦáĢļ
áĢĸ áĢķ
áĢĿ áĢĳ
áĢĺ áĢĽáĢļ
áĢĿáĢĶ áĢļ
ĠáĢħáĢĢ áĢľ
áģħ áģĩáģĢ
ĠáģĢ áģīáģī
áĢ¿ áĢĽ
áĢ¡áĢĿ áĢĢ
ĠáĢķáĢĳáĢĻ áĢķáĢĦ
ĠS on
ĠS us
ĠS aw
ĠA w
al áĢĻ
ĠP SC
ĠT A
ĠT ro
ĠT ool
ĠT rip
it r
ĠB rown
ĠK ir
ĠK ap
re c
il es
Ġáģģáģĥ áģĨáģĢ
áĢĲáĢĲ áĢĲ
et áĢĢ
ol ine
em e
ĠáĢĢáĢĢ áĢĲáĢħ
ĠSt atistics
Ġs e
Ġf riend
áģĤáģĩ áģĤ
áģĤáģī áģĢáģĢ
ate áĢľ
ab h
est ry
áĢĻáĢĳ áĢŀ
Ġb i
áģĩáģħ áģĪ
ĠKNU áĢĢáĢĽáĢĦ
áģĨáģĨ áģĩ
Ġin s
ĠRCSS áĢ¡áĢĸ
St yle
duc tive
Myanmar áĢĢ
Ġg oogle
ĠApp roach
ĠAr th
áĢĻáĢĴ áĢĲ
ĠCor p
ĠNews paper
ĠMan ufacturing
ty pe
app ing
ĠQ C
50 1
Res ources
Re ad
ari ety
ĠDel oitte
Pol itical
Ġ200 9
Ġcl oud
ĠSil ver
Organ ic
Ġpol icy
ĠCur riculum
cy cl
cc up
Ġfac ilities
Ġmod el
ĠOpp ort
quir y
6 3
> áĢ½
A nal
H ong
L TD
P ites
S B
S quare
T wo
U X
g n
i ment
n an
â Ŀ
áĢº áĢ¶
áĢº ''
áĢŃ áĢ°áĢ·
áĢĲ áĢĲáĢľ
áĢĲ áĢ©
ĠáĢĲ áĢŀáĢĻ
áĢĻ áĢĻáĢĶ
áĢĽ áĢ¡áĢģ
ĠáĢľ áģ»áĢĢ
áĢ¶ áĢ¶áĢ·
áĢ²áĢ· .
áĢ²áĢ· áĢ±
ĠáĢħ áĢı
áĢ¯áĢ¶ áĢ±
áĢĨ áĢľáĢĻ
ĠáĢ¡áĢĻ áĢ¡
áĢ¼áĢ¬áĢ¸ âĢĭ
ĠáĢ¡áĢĽ áĢĲáĢģ
ĠáĢ¡áĢĽ áĢ¡áĢĳáĢĢ
áĢ½áĢ¾ áĢ²áĢ·
áĢĻáĢļ áĢī
áĢĹ áĢŀ
áģħ áģģáģĢ
áģĥ áģĤáģĤ
áģī áģģáģĢ
áĢĲáĢĽ áĢĳ
áĢ¡áĢĽ áĢ¡áĢľ
Ġáģħ áģĥáģĨ
áĢ¿ áĢĢ
ar p
ĠA Z
al m
or i
Ġáģĩ áģĤáģħ
ĠáģģáģĢ áģĦáģĦ
ĠF PT
ĠF lex
ĠG EN
ĠG raph
om y
ĠH ugh
ĠK L
ĠU DPáĢķ
el and
ĠáģģáģĪ áģĨáģĩ
as w
ĠE le
ĠáģĥáģĢ áģģ
áģģáģĪ áģĤáģĪ
he b
ol i
st o
ĠáģħáģĢ áģĥ
id en
ĠY un
ir ath
áģĤáģĢáģģáģĨ áģģáģĩ
Ġs oft
ĠFacebook áĢĽ
ut en
áģĤáģĪ áģĤ
âĢĮ âĢĮ
ĠMr Ch
Ġd isease
Ġb log
ĠSh uttle
ĠKNU áĢĲ
pp m
av an
Ġáģĥáģĩ áģĦ
ĠTh ar
Ġin ternational
arant ee
ĠAn imation
Ġg ym
Ġ4 00
Pro fessional
Ġre f
AA AA
ath on
ous ecom
ĠSME áĢľ
áģģáģĪáģĢ áģĥ
Plan et
EF L
ĠSer um
ĠStayatHome áĢŀáĢĲ
ĠElect oral
ĠEl iz
other apy
ĠTer rorism
ĠEth ics
ones ia
Ġcomp uter
ĠDat o
ĠEconom ist
áĢ»áĢ¾áĢŃ áĢ°áĢ·
ĠChrist ine
ĠAk amai
ĠMoh am
Skill s
ĠEar ly
ĠâĹ ¾
ĠAlph a
ĠEduc ational
ĠAltern ative
ĠLegend s
Pites an
D an
D ipl
N F
O áĢħ
R isk
b ow
c are
f it
l on
Ã §
ĠáĢĻ áĢ¡áĢŀ
ĠáĢĲ áĢĻáĢĢ
ĠáĢ¡ áĢĮáĢĢ
ĠáĢĢ áĢĲáĢļ
ĠáĢľ áĢľáĢļ
áĢľ áĢĤ
áĢĳ áĢĽáĢĻ
ĠáĢ¡áĢĽ áĢļáĢĶ
áĢ¥ áĢĿ
áĢĢáĢĽ áĢľ
er em
ĠáģĦ áģģáģĥ
ĠáģĦ áģĥáģĩ
ĠC NLD
áĢĻáĢĽ áĢ¡áĢĸáĢĲ
ĠáĢĺáĢĿ áĢĢáĢľáĢĬ
ĠN ep
ĠS unday
en ium
ĠáģĪ áģĤáģĢ
ĠT G
ĠT ree
ĠT HC
áĢķáĢĬ áĢĲ
ĠB in
ĠB at
ĠB eijing
ĠD raw
ac count
ĠH TC
ĠK B
ĠK u
ing áĢĻ
ĠL or
as p
as ure
ĠW ord
oo p
am ous
áģģáģĩ áģīáģĪ
áģĤáģħ áģī
ig an
ch lor
Ġt ogether
áģĦáģĢ áģĪ
Ġs k
Ġáģĥáģħ áģĤ
áģĥáģħ áģĤ
Ġ1 10
eg ration
Ġâ Ĥĵ
ust er
Ġáģĥáģĩ áģĢáģĢáģĢ
ĠTh is
ĠTh ank
over ty
end ra
sh ire
Ġn yeinchanaye
ĠáĢ£ áĢĴ
Pro perty
Ġst op
ool win
ea uty
ĠáģģáģĢáģħ áģĢáģĢáģĢ
Ġ8 0
ĠWe ibo
Cl oud
ĠDe ath
gen er
pro t
Pl atform
âĢĭâĢĭ âĢĭâĢĭ
Ġwith out
ĠBre w
ĠKar l
ĠWatch áĢħ
ĠLink ed
ĠDef ence
ĠFram e
ĠME ITI
Ġad min
ĠHack er
ĠTre kking
ĠFast Go
Pop ular
ĠTI ME
Ġeng ine
ĠTit le
ĠË Ŀ
âĻŃ âĻ«
6 1
9 2
B log
C offee
E r
E IA
F D
F ail
F riend
P M
S oftware
a áĢĶ
b ound
f ace
i ac
k n
m as
o tic
r ice
t ech
t alk
Ġ u
áĢ¸ /
áĢºáĢ¸ '
áĢĲ áĢ¡áĢģ
áĢĻ áĤĢ
áĢħ áĢĢáĢĶ
áĢ² áĤļ
ĠáĢĶ áĢľ
áĢŀ áĢĵ
áĢŃáĢ¯áĢ¸ áģı
áĢºáĢ· áģį
ĠáĢĺ áĢĽáĢķ
áģĢ áģīáģħ
áĢ¼áĢ¬áĢ¸ áĢ±
ĠáĢ¡áĢĽ áĢ¡áĢĲáĢĬ
ĠáĢĲáĢĢ áĢĦ
áĢĻáĢĲ áĢ¡áĢĶ
áģĩ áģĩáģĢ
áĢ¡áĢĻ áĢĽáĢķ
áĢ¡áĢĽ áĢĸ
áĢ¾áĢ¶ áĢ¸
áĢħáĢĢ áĢľ
ĠC rystal
ar ed
ĠS oe
ti a
ĠáģĨ áģĩáģħ
ĠáģĪ áģĪáģĪ
ĠP ra
Ġáģī áģĤáģħ
áĢĻáĢģ áĢĽ
ĠB ag
ĠB ird
ĠI PP
ĠG el
ĠG il
ĠG un
om p
ĠH omo
el an
ĠáģģáģĪ áģĩáģĥ
ro g
ĠL o
ĠL ast
ID A
ĠáģģáģĦ áģĥáģĢ
id ential
ĠO o
áģģáģĥ áģĢáģĢáģĢ
ĠJ C
ĠV M
SA P
áģĤáģĪ áģĩ
áģĤáģī áģĩ
Ġm ass
ab oration
áģĥáģħ áģī
ĠKN C
ist ribution
ĠPro p
ĠNow áĢĻ
IC E
ĠKIA áĢĲ
áģĥáģĪ áģĢáģĢ
ĠáģĥáģĨ áģĪ
áĢ»áĢ¾áĢ¬ áĢº
Ġin stitution
port al
Ġg reen
ðŁ İ
ox iang
ĠáģĦáģĨ áģĪ
ok o
ĠARSA áĢĢ
Ġre al
ĠMO I
lect ual
ĠInt elligent
ĠEU áĢĢ
ĠLD L
âĢĪâĢĪ âĢĪâĢĪ
ĠOp tim
ĠSub ject
ĠLab el
Ġup antra
à¹ Ģ
ĠMot ors
ĠSM MT
ģáģĤ áģĢáģģáģĤ
Mod ern
âĺ ħ
ĠAud io
Ox ford
áĢ¯áĢ¯áĢ¯áĢ¯áĢ¯áĢ¯áĢ¯áĢ¯ áĢ¯áĢ¯áĢ¯áĢ¯áĢ¯áĢ¯áĢ¯áĢ¯
Pres ident
ĠCompl ain
ĠRepres entative
obac co
ervis or
ĠMNT JP
B L
B al
C y
H ol
I MF
I ll
J oint
K K
L ake
M ah
S X
S he
V er
W E
W itness
Y M
d on
k áĢĢ
l ook
p art
s ol
t ar
w orm
áĢ¬ áģ±
áĢ± (
ĠáĢ¡ áĢĴáĢļ
áĢĻ áĢ¡áĢĲáĢĬ
ĠáĢķ áĢĽáĢħ
ĠáĢĽ áĢ¡áĢĶ
áĢ« .
ĠáĢħ áĢĻáĢĬ
ĠáĢĨ áĢĳ
ĠáĢŁ áĢĴáĢļ
ĠáĢ¡áĢĽ áĢħáĢĦ
áĢı áĢĢáĢľáĢĬ
ĠáĢĹ áĢĽáĢĶ
ĠáĢĹ áĢĴáĢĦ
áģĥ áģĥáģħ
áģĦ áģĤáģģ
áģĨ áģģáģĢ
áĢ¿ áĢľáĢĦ
ĠC op
ĠC reativity
in Myanmar
ĠM os
ĠM ovie
áĢĻáĢĽ áĢľ
ĠN am
ĠP PT
ĠP ier
ĠB et
ĠB AC
ĠR ome
ĠG C
áĢ¾áĢ® áģį
ĠáģģáģĪ áģĨáģĨ
ro let
ĠL PG
as ic
ĠE b
áģĥáģĢ áģĤáģģ
ĠáģĤáģħ áģħáģĢ
ter y
ĠO h
ĠJ ose
ĠV FA
Ġt op
Ġt echn
áĢºáĢ»áĢ¬áĢ¸ áģĬ
áģĤáģĪ áģĦ
Ġáģĥáģħ áģģ
Ġd ual
áĢĴáĢļ áĢŀáĢħ
Ġb ody
ov ac
ven ess
ĠKNU áĢĲáĢķ
ĠAc tivity
NA L
201 7
ĠáģĦáģĦ áģĥ
pr om
Pro duct
ĠBus h
ĠáģĦáģĥ áģĢáģĢáģĢ
Ġ? ??
ĠáģĩáģĢáģĢ áģĢáģĢáģĢ
ann er
Com ment
ĠHe in
Ġ0 7
ĠOne Stop
tif ul
Con f
we en
ĠPar ticip
ĠPS LA
Ġáģģáģģáģī áģĢ
ĠVal ent
oth ing
ĠLive áĢľ
onom ous
ĠSU RA
ĠNa ing
ĠExc el
ĠMat hema
cont rol
ulph ur
ĠSou theast
Ġcent re
ĠTrad itional
enov o
forc ement
ĠCalif ornia
âĻŃâĻ« âĪ®
B all
M ir
O ver
O peration
S im
U NA
f am
f ast
i w
k al
o qu
æ ¶Ľ
Ġ è
Ġ room
áĢº :
áĢ± áĢµ
áĢĢ áĢ¡áĢĻ
áĢ¼ "
áĢĲ áĢ¡áĢĻ
ĠáĢĻ áĢħáĢĢ
ĠáĢĲ áĢľáĢķ
áĢĻ áĢĻáĢĢ
áĢħ áĢĹ
áĢĽ áĢĶáĢļ
áĢŀ áĢĽáĢĦ
áĢºáĢ· áĢ±
áĢĿ áĢľáĢĢ
ĠáĢĴ áĢŀ
áĢĴ áĢĢáĢĢ
áĢ±áĢ¬áĢ· âĢĭ
áĢ»áĢŃáĢ¯áĢ¸ âĢĭ
ĠáĢ¡áĢĽ áĢĹáĢĻ
áĢľáĢĢ áĢĲáĢĬ
ĠáĢĽáĢĲ áĢĬ
ĠáĢĻáĢķ áĢķ
Ġáģĥ áģĥáģģ
áĢ¡áĢĽ áĢĲáĢĽ
ĠáģĦ áģĦáģĦ
in th
ĠM ode
ĠM aker
ĠáĢķáĢĳáĢĻ áĢĴ
ĠS ai
ĠS RI
ĠS tim
ĠA PP
ĠP or
ĠP ure
ĠT on
es a
Ġáģī áģħáģĢáģĢ
ĠB GB
ĠB TS
ĠD im
ĠD AR
ĠD ual
ĠI r
ĠR ules
ĠG y
ĠH al
ĠK ong
ĠU s
ĠU CS
áģģáģĪ áģĤáģĢ
ĠW UG
Ġáģģáģĩ áģħáģĤ
et ary
ĠáģħáģĢ áģĪ
ad esh
ot or
ĠáĢĭ áĢĢ
áģĤáģĦ áģĦ
Ġs l
Ġc ountry
Ġc irc
Ġf act
tic a
PP E
aw ng
Ġb ar
ĠSh ri
áģĥáģĦ áģĨ
Ġin frastructure
ĠáģĨáģħ áģĦ
ĠAl bum
olog ies
ise ases
Ġv isa
ĠWorld Bank
row se
ĠSc iences
ĠHe ine
AA PP
Ltd áĢĢ
ĠHotel Quarantine
pl ac
ĠTrans ition
ĠCar bon
land s
igh ter
gy i
Group áĢĻ
ĠStar buck
pro v
Ad v
ĠHigh way
RO K
Ġ! !
tr ans
ĠáĢ° áĢ¸
ĠJun ior
ĠLog istic
Ġwh o
ĠMN L
ien tific
AG D
ĠPACE áĢ¡áĢĸ
ĠMem orial
utri ents
ĠConn ect
Do ing
oles ale
itht oolwin
xim ity
B reak
F estival
K V
L GBT
M oe
O D
P O
S m
S pr
T each
c ue
d og
i ans
m i
n t
y ing
â ĨĶ
áĢ¬ áĢ¬áĢ¸
áĢĢ áĢ¡áĢĽ
áĢĲ áĢĨáĢĶ
áĢĶ áĢ¡áĢĶ
ĠáĢĲ áĢ¡áĢĸ
áĢĻ áĢĽáĢŀáĢĬ
áĢĻ áĢ¡áĢŀáĢĦ
ĠáĢĽ áĢĿáĢĿáĢĢ
áĢĽ áĢĲáĢĽ
ĠáĢĸ áĢĴ
áĢ¯áĢ¶ "
áĢĴ áĢŁ
ĠáĢ¡áĢĽ áĢħáĢķ
ĠáĢ¡áĢĽ áĢŀáĢħ
ĠáĢ¡áĢĽ áĢĺáĢı
ĠáĢ¡áĢĽ áĢ¡áĢĽáĢĦ
ĠáĢ¡áĢĢ áĢĢ
áĢı áĢķ
ĠáĢĩ áĢĤ
áĢĩ áĢĽ
áĢĢáĢĶ áĢĤ
áģĪ áģĤáģħ
áģī áģĨáģĢ
Ġáģģ áģĢáģģáģĤ
on el
ĠC PC
ĠM ath
ĠN om
ĠN ude
ĠN utrition
ĠA ri
ĠáģĪ áģīáģĢ
ĠP G
ĠP ul
ĠP ap
ĠP osition
ĠT ed
ĠT ang
ĠT PP
ĠF oam
ĠF easibility
ĠB uild
ĠI DA
ĠR PG
ac ulture
ĠG IS
om ic
om ent
ĠH istor
ĠU G
re al
ĠL uc
ĠL CD
áģħáģĢ áģĪ
ĠáĢĽáĢ¡ áĢĻáĢĲ
Ġáģģáģĩ áģĨáģĢ
Ġáģģáģĩ áģĪáģī
ed a
áģģáģĨ áģģáģĢ
áģĤáģħ áģĢáģĢáģĢáģĢ
ĠV es
áģĨáģĢ áģĤ
ce ed
ver tis
ĠSt ephen
Ġp ilot
Ġs al
ri age
ĠUN OCHA
ĠáģĦáģħ áģĢáģĢáģĢáģĢ
Ġm ember
og n
áĢķáĢĳáĢĻ áĢķ
ĠKNU áĢĶ
Ġw eekly
Ġáģĥáģĩ áģģ
if fer
ĠáģĥáģĦ áģģ
Ġin ternet
Ch air
sh ot
enc er
ĠáĢĺáĢĺ áĢ¦
pe ace
áģĦáģī áģĪ
Ġv is
ĠáĢŀáĢĻáĢĲ áĢŁ
Ġáģīáģħ áģĢáģĢáģĢ
ĠSp utnik
MS DP
áģģáģĪáģĢ áģħ
ins ki
aj or
ĠFl ower
ym ph
ick en
Ġle t
ĠLtd áĢĢ
ĠMIC S
ĠMIC T
ĠPer iod
ĠRec onciliation
ĠInter mediate
ĠMaster Plan
oth utaw
Cor ruption
ipp ines
ĠSM ID
uddh ism
ĠOper ator
ĠDisc ussion
ĠBea u
bio tic
ĠHop kins
lad esh
ĠGuid eline
ĠJin ping
ĠExcell ent
ĠCSS U
Rich ard
ĠBrew ery
à¹Ģ à¸
F ever
G el
G as
J an
L im
L anguage
M at
M ail
O w
S earch
b a
b ar
c ial
h as
k o
k ar
áģ §
áĢ½ áĢ½
ĠáĢĻ áĢ¥
áĢĻ áĢ¡áĢļ
áĢħ áĢĲáĢĬ
áĢĽ áĢĻáĢĶ
áĢŀ áĢĲáĢĢ
áĢ« =
ĠáģĬ âĢĮ
áĢ±áĢ«áĢº âĢĭ
ĠáĢĦ áĢĩáĢĦ
ĠáĢĩ áĢĿáĢĢ
ĠáĢĻáĢļ áĢĢ
áģĩ áģĤáģĢ
Ġáģĥ áģģáģģ
ĠâĢĭ áĢ±
ĠáģĦ áģīáģī
ĠC old
in ition
ĠM DA
ĠM ega
ĠN umber
ĠáĢķáĢĳáĢĻ áĢĪ
ĠáģĨ áģĤáģĤ
ĠáģĨ áģĨáģħ
ĠáĢĽáĢĻ áĢŀ
ĠP om
ĠP rivacy
áĢĽáĢĲ áĢĽáĢķ
Ġáģī áģĪáģĢ
ĠF N
ĠB ra
ĠB ud
ĠB eta
ĠáĢķáĢĽ áĢľ
ĠáĢķáĢĽ áĢĻáĢĲ
ĠG ross
ĠG reg
ĠH ero
ĠH ON
ĠK P
ĠK ore
ĠáģģáģĪ áģħáģħ
ĠáģģáģĪ áģħáģĪ
Ġáģģáģĥ áģģáģħ
he im
ĠáģĤáģĦ áģģ
ĠV ery
of lav
ĠY our
ĠY TU
em in
oc l
ig ation
ig rant
Ġt ype
Ġp ort
Ġs ide
Ġs afety
Ġc ream
Ġc ivil
ap on
od ia
Ġd iet
av ing
Ġáģĥáģĩ áģĨáģħ
com p
if orm
Ġl aptop
áģĪáģħ áģī
ĠRCSS áĢĲ
ĠTr an
ĠUP R
ph enol
Ch an
ĠEx am
int on
Ġh is
ĠáģĨáģĨ áģĢáģĢáģĢ
Ġ4 7
ens ity
Ġst ud
Ġ0 3
ĠáģĨáģĦ áģĢáģĢáģĢ
fl ower
ĠJICA áĢĢ
ĠáģģáģģáģĤ áģħ
Ġle g
ĠJournal ist
ĠRec ep
enti lator
âĸ ¬
Ġ12 8
ĠSky Net
arg o
ĠBi ometric
áģģáģģáģģáģ ĥ
Ġsp ecial
ĠLog istics
ĠCre ation
ĠCID áĢĢ
ĠOB G
ĠWind ow
Ġsec urity
ĠAmaz ing
Har p
ĠAnn ual
ĠNFA áĢĢ
-------------------------------- --------------------------------
Ġpay ment
ĠGene tic
Ġâĸ ł
ĠEmotion al
Admin istration
9 8
C T
F uture
G arden
M izzima
O K
P y
P eter
U l
V accine
W omen
Y ellow
a S
j et
s an
y es
Ã ¢
áĢĲ áĢĲáĢģ
áĢ» ..
áĢħ áĢļáĢĦ
Ġáģ ±
ĠáĢķ áĢ¿áĢĶ
ĠáĢĽ áĢ¡áĢħ
áĢŀ áĢ¡áĢģ
áĢ¶ áĢ¯áĢ¶áĢ¸
áĢŃáĢ¯áĢ· áģĭ
áĢ¯áĢ¶ áĢŃáĢ¯
áĢ¼áĢ®áĢ¸ áģĭ
áĢ¾áĢ¬ áĢ±
áĢĿ áĢĸ
áĢ°áĢ¸ .
áĢĺ áĢĿáĢĶ
áĢ±áĢ· âĢĭ
áĢĤ áĢĢáĢĶ
áĢĮ áĢŀ
áĢĲáĢĶ áĢĢ
áĢ¼áĢ¬ áĢ·
áģĩ áģĨáģĢ
áĢĲáĢĽ áĢģ
Ġáģħ áģĦáģĩ
ĠC ook
ĠC opper
ĠC ooper
ĠM V
ĠM ic
ĠM GB
ĠáĢķáĢĳáĢĻ áĢĦáĢļ
ĠáĢķáĢĳáĢĻ áĢľáĢĲ
ĠS ab
ĠA ur
ĠA pril
ĠáģĨ áģĦáģĦ
ĠáĢĽáĢĻ áĢľáĢĬ
ĠP ick
it ary
ĠB har
ĠáģģáģĤ áģĤáģĪ
ĠáģģáģĤ áģĦáģħ
ic it
ĠI b
ĠI ll
ĠH ai
ĠáģģáģĪ áģħáģĦ
ĠáģģáģĪ áģħáģĩ
ĠL ic
ĠL ov
ĠNLD áĢĺáĢĢ
áģģáģĪ áģĥáģĤ
áģģáģĪ áģĦáģī
ĠW omens
he alth
áģĥáģĢ áģģ
am er
ter m
ĠO HC
un ities
ĠY ak
us ion
ĠMyanmar s
op l
ĠáģĤáģī áģĨ
Ġt raining
ul ance
Ġs ociety
Ġc oun
Ġc ulture
ĠCh oice
áģĤáģĪ áģĢáģĢáģĢ
ri e
ĠáĢķáĢĳ áĢĻáĢĲáĢĢ
ĠáģĦáģħ áģī
Ġm izzima
uc urb
ort ex
aw s
áģĦáģħ áģī
In itiative
Ġáģĥáģĩ áģĤ
ĠáĢ¾ áĢŃ
ĠQu ick
ack er
áģħáģħ áģĨ
ph os
COVID áĢĢ
Ġg ly
ĠáģĨáģĨ áģĦ
Ġv an
Ġr ule
oll ution
ĠMar ia
az ar
áĢŃáĢ·áĢ¯ áģı
ĠLe ast
áģģáģĪáģĢ áģĪ
ĠStay Home
ĠMI PS
ĠFl ow
Ġy ear
ley áĢĢ
tis ol
Ġem otion
til izer
Ġcon n
ĠZh eng
Techn ical
ĠBro ok
Sec ret
clus ion
ĠNE DA
ĠIB M
ĠBio NTech
ĠNO W
ĠAmb assador
ĠEff ective
ĠEr ror
YO TA
Ser ies
ĠDev ice
âĹ ¾
ĠMount ain
ĠMechan ism
oster one
Hu awei
Relief Plan
C MP
G reat
H ow
J S
L T
M al
N on
N orth
S G
b ut
b rand
h and
p op
r s
w eek
y ton
z hou
Ã ´
Ġ ver
Ġ red
Ġ ðŁļ¥ðŁļ¥ðŁļ¥ðŁļ¥ðŁļ¥ðŁļ¥ðŁļ¥ðŁļ¥
áĢĢ áĢĢáĢĽ
áĢ· áĢ°
áĢ½ ..
áĢħ áĢ¥
ĠáĢĽ áĢ¥áĢķáĢĴ
áĢļ áĢĿáĢĿ
áĢ±áĢ« áĢ·áĢº
áĢĴ áĢĨ
áĢ°áĢ¸ áģı
ĠáģĤ áģģáģħáģĢ
ĠáĢĲáĢĽ áĢĽ
ĠáĢħáĢĢ áĢļ
áĢĢáĢĶ áĢħ
áģĦ áģģáģĥ
ĠáĢĻáĢľ áĢļ
ĠáģĦ áģĪáģĪ
Ġáģħ áģĦáģĢáģĢ
ĠC AT
ĠM ing
ĠM ER
ĠM illion
ĠM aking
ĠáĢķáĢĳáĢĻ áĢ¡áĢĽáĢħ
ĠS oc
en h
ĠA uthor
Ġáģī áģĪáģĪ
áĢļáĢĢ áĢĤ
ĠF UA
ĠB JP
ĠáģģáģĤ áģĥáģĨ
ĠáģģáģĤ áģīáģī
ĠD or
ĠD rop
ĠR og
ĠH as
ĠH aw
ĠH ass
ĠK emp
ĠáģģáģĪ áģĥáģĩ
ĠL ev
ĠL ite
ĠE sc
ĠNLD áĢĢáĢľáĢĬ
áģģáģĪ áģģáģĪ
áģģáģĪ áģĦáģĩ
Ġáģģáģĥ áģĥáģĢ
Ġáģģáģĥ áģĨáģĦ
áģģáģĤ áģĥáģĢ
áģĥáģĢ áģĪ
ol o
and ra
áģģáģĩ áģĩáģħ
ĠV ehicle
ĠNCA áĢĽ
em an
ig en
Ġt rain
áģĤáģĥ áģģ
th or
th ers
Ġf reedom
ist rative
Ġd at
ven ue
St ress
ĠEx ternal
enc ent
Ġáģĥáģī áģĦ
ĠAr rangement
ĠDaily áĢĢ
ber ry
ĠáģĦáģĦ áģĢáģĢáģĢ
ĠCor ps
iti m
Ph ase
Ġ201 1
áģħáģĨ áģĢáģĢáģĢ
Ġst rate
ont al
ss on
AR T
man uel
ĠPlan et
ĠFr ench
eth ing
ĠáĢ» áĢ¾
ĠFl or
ĠTeam work
Res ource
ĠPS LO
ĠFin ancing
ĠProduc er
ĠáģģáģģáģĨ áģĢ
ĠAnti body
Ġem oji
ĠIMF áĢĢ
Mask áĢĲáĢķ
ĠPat rick
ĠComment s
ĠMN TV
hed ule
ĠCR PP
ĠHt et
ĠMat thew
áģ´ áĢ¯
Ġpass word
áĢºâĢĮ áĢ·
.... ....
ĠRespons ible
Ge orge
ĠNC G
fort he
rim ination
Mo U
ĠRub y
Ġmul ti
ropol itan
ebr ity
ĠLinked In
A ug
A LP
B er
C ross
F F
F ire
F OB
H ard
I LO
R P
S k
S IC
b ang
c r
f ire
f urt
h ad
v y
áĢ± áĢ¹
áĢĢ áĢĲáĢĽ
áĢĲ áĢĢáĢĶ
áĢķ áĢĢáĢĢ
áĢķ áĢĨáĢĻ
áĢ» áĢ¾áĢ¯
ĠáĢĽ áĢľáĢĦ
áĢļ áĢ¡áĢĻ
áĢļ áĢĳáĢķ
áĢľ áĢŀáĢĬ
ĠáĢĸ áĢľáĢĻ
áĢ¡ áĢĺáĢĲ
ĠáĢĳ áĢĲ
ĠáĢ¡áĢĽ NLD
ĠáĢĬ áĢĢáĢĢ
ĠáĢĲáĢĽ áĢľ
ĠáĢĩ áĢģ
ĠáĢĵ áĢĢ
áģĩ áģīáģĢ
áĢĲáĢĽ áĢ¡áĢĨáĢĦ
er ad
ĠáģĦ áģĤáģģ
ĠC able
ĠM ung
ĠN ap
ĠN SSA
ĠN US
ĠS ap
ĠS erv
ĠS tick
ĠA E
al ing
ĠP EN
ĠP BZ
ĠF eel
Ġáģģáģħ áģĤáģĢ
ĠáģģáģĤ áģĤáģħ
ĠáģģáģĤ áģħáģĥ
ic tim
ĠD h
ĠD u
ĠI chiro
ĠR S
ĠR uss
at ra
ĠG a
ĠG TC
ĠH olland
ĠK on
ĠK ings
el p
ĠáĢĢáĢļ áĢĶ
ĠL ess
ĠNLD áĢ¥áĢĢ
ent le
áģģáģĤ áģģáģĦ
et ry
ĠáģħáģĢ áģī
áģģáģĩ áģĪáģĥ
ĠáĢģáĢı áĢĶ
ĠáģĤáģĦ áģħáģĢ
of Law
ig in
áģĨáģĢ áģĨ
ch air
ine áĢĢ
Ġt ext
áģĤáģĨ áģī
áĢļáĢĻ áĢĺáĢı
Ġd evelopment
Ġd esign
Ġb and
00 00
áģĥáģī áģĤ
áģĥáģī áģĪ
ell ite
av ior
ĠáĢ¾ áĢ®áĢ¯
ĠáģĥáģĪ áģĦ
ĠZ in
Ch rist
BC áĢĢ
Ġ4 5
Ġi Myanmar
arm ing
Ġch at
Ag ro
TE P
ĠCap tain
ĠPre p
tim edia
ĠJohn son
ĠOIC áĢĢ
erc ise
ĠSw ift
ever e
ĠGo als
ĠSex ual
UP WC
ĠPPP áĢķ
NT ER
ĠAAPP áĢĢ
ĠCommun ications
ĠSil k
à¹ ī
itch en
gr im
oti ent
ĠTO EFL
Ġman agement
ĠHt oo
ĠYM CA
ĠHel p
Ġself ie
ĠáĢĴáĢ¿ áĢĻáĢĲáĢĶ
Sur vey
Ġspe ed
ĠMill enn
alc ium
yth ing
Ġgu ide
ĠDig est
ĠBuff er
áģ© áĢŃ
ĠFoot ball
ucker berg
Eff ect
ynth esis
ĠEliz abeth
ĠHeine ken
5 4
I r
K SPP
L ike
M c
S en
S am
U NE
W eekly
i ance
m ap
r ated
w ab
Ġ ul
Ġ our
Ġ ob
áĢ¯ -
áĢĢ áĢļáĢĢ
áĢĲ áĢĵ
áĢĲ áĢĲáĢĢ
áĢĲ áĢŀáĢħ
áĢķ áĢĨáĢĢ
áĢķ áĢľáĢĦ
áĢĻ áĢĳáĢĻ
áĢĻ áĢ¡áĢĨáĢĦ
áĢĽ áĢ¡áĢĲ
áĢ® /
áĢ¯áĢ¶ âĢĭ
áĢĳ áĢŀ
áĢĴ áĢĺ
áĢĴ áĢĹáĢľ
ĠáĢ¡áĢĽ áĢļáĢģáĢĦ
ĠáĢ¡áĢĽ áĢ§áĢĽ
ĠáĢ¡áĢħ áĢŀ
ĠáĢĹ áĢĢáĢķ
áĢ»áĢŃ áĢ·
ĠáĢĻáĢĽ áĢĻáĢĶ
áĢĵ áĢĤ
áģħ áģģáģĦ
ĠâĢ ª
ĠáĢĻáĢĲ áĢģ
ĠáĢŀáĢĶ áĢĦ
an ti
Ġáģħ áģĥáģĩ
ĠM aterial
ĠS eng
áĢĻáĢĢ áĢļ
ĠA edes
ĠáģĪ áģģáģĢ
Ġáģĩ áģĤáģĢáģĢ
áĢĢáĢĦ áĢĽ
it yand
ĠB ab
ĠD EM
ĠR ide
ĠH S
ĠK RC
ĠáģģáģĪ áģĦáģĦ
ĠáģģáģĪ áģĩáģĩ
ro ve
ro se
il k
ĠL os
ĠL OT
ĠE PC
áģģáģĪ áģĥáģĪ
ĠW G
ĠW ai
ad ow
ĠJ A
ĠJ ade
ĠV as
oc ust
áĢĽáĢĽ áĢĸ
20 00
ĠCh ow
ĠFacebook áĢĢáĢĶ
ĠáĢĲáĢŀ áĢĿ
Ġd oc
Ġd ev
Ġb ase
pp er
ong s
se ud
com merce
Ġl ove
ear ing
ĠáģĦáģĪ áģĨ
ĠAl t
IS H
fl ix
An n
ĠDis ney
RA DE
ĠFA W
ĠZh ao
ĠCMP áĢľ
ĠEqu ipment
Gen eration
ĠMich elle
ĠSil ent
Ġwh ite
ĠConf irm
áĢ£ áĢĶ
ĠNSCN K
ĠKSPP áĢķ
ser ver
ĠMB BS
ĠPi Ã±oláĢĢ
áĢŁáģ¼ áĢħ
ully ing
ĠMig rant
ĠIslam ic
ĠáĢ±áĢ¼ <áĢ½
actic es
Ġatt ack
ĠPoll ution
agn os
Inn ovation
Chit Thar
9 6
B o
F T
G alaxy
P ot
R on
S em
S ir
U MFCCI
X ia
a áĢĲ
d is
m b
m and
p a
r ac
t en
Ġ Ð
Ġ eg
ĥ ĺ
ĠáĢ «
áĢ¸ -
áĢĦ áĢķáĢľ
áĢ¼ ..
áĢ· áĢºáĢ¸
áĢ· áĢ¹
áĢ¾ áĢ¸
ĠáĢĢ áĢĢáĢķ
áĢĻ áĢī
áĢĻ áĢħáĢģáĢĶ
áĢħ áĢ¦
áĢĽ áĢĿáĢĿáĢĢ
áĢ® -
áĢ¯áĢ¶ áĢ¼
ĠáģĬ áĢº
áĢĤ áĢĽáĢĦ
ĠáĢ¡áĢĽ áĢŀáĢĻ
áĢĻáĢĲ áĢĢáĢĲ
áĢĩ áĢĹ
ĠáĢĻáĢŁ áĢĲ
ĠáĢĽáĢĲ áĢģ
áģĥ áģģáģĪ
áģĥ áģĤáģĩ
áģĩ áģĪáģĢ
ĠáģĦ áģĤáģĪ
Ġáģħ áģĦáģĦ
ĠM uk
ĠM aur
ĠM atter
en ic
ĠáģĪ áģĤáģĢáģĢáģĢ
Ġáģĩ áģĤáģĨ
ĠáģģáģĢ áģĦáģĢ
ĠT ar
es áĢľ
ĠF it
ĠF av
ĠF ive
ĠB DA
ĠD E
ĠD j
ĠI RI
ĠI MO
ĠR oot
at the
ĠH ebdo
ĠK MIC
ĠU PC
as onic
áģģáģĪ áģģáģĦ
áģģáģĪ áģĤáģĩ
áģģáģĪ áģĥáģĦ
áģģáģĪ áģĦáģĤ
Ġáģģáģĥ áģĪáģĤ
áģģáģĤ áģĢáģĢáģĢáģĢ
ĠáģģáģĨ áģħáģĢáģĢáģĢ
ĠO ccup
ĠJ am
ĠJ ul
ur u
ĠIn flu
ĠIn flation
ĠY PS
em ia
us a
ir der
ir eless
oc acy
Ġp erson
Ġs oftware
uc tion
ĠKN DP
ĠáĢĥ áĢĶ
ĠPro gress
áģĦáģħ áģĨáģĩ
ĠCom ing
áģĩáģħ áģĢáģĢáģĢ
áģĥáģī áģĩ
Ġ3 000
ĠZ TE
ph al
ph ot
ĠCent ury
Ġ7 5
Ġh as
Ġáģĥáģī áģĪ
ĠPr ince
ĠMask s
ĠáģĦáģī áģĩ
ĠICJ áĢĲ
AR D
ĠNGO áĢĲ
Th is
Un der
ĠáģĩáģĪ áģĢáģĢáģĢ
ey ond
Ġáģģáģģáģħ áģĢáģĢáģĢ
ĠáĢĶáĢĿ áĢĢáĢĻ
por n
ĠUE FA
áģģáģģáģĤ áģħ
ron ics
ĠáģģáģģáģĦ áģĥ
ĠInt ro
Ġsh ort
Ġth an
ĠKh in
ĠHu ang
ĠCO C
ĠAT R
ĠBilateral áĢľáĢĢ
Im ages
ĠOx fam
ĠAung Htet
ham mad
ĠInst r
epend ent
ĠMich el
ĠGl ass
Hotel áĢĲ
ĠStep han
rig ation
ĠPf izeráĢĢ
ĠWalk ing
ĠDom estic
ĠDV D
Cer tificate
ĠGlob e
ĠPil grim
idar ity
ĠImplement ation
cycl op
A qu
B en
H on
I PP
J ack
L o
P ri
S in
S oil
T a
V isa
Z aw
b al
c ohol
t ry
z h
¡ ï¸ı
Ġ ti
áĢĢ áĢħáĢħ
áĢŃáĢ¯ áĢ»áĢ·
áĢ¼ áĢºáĢ·
áĢĲ áĢĹáĢľ
áĢ¾ áĢ»
ĠáĢĻ áĢĿáĢķ
ĠáĢĲ áĢŀáĢĬ
áĢĽ áĢĸáĢĢ
áĢ® áĢ¯áĢ¸
áĢģ áĢī
áĢ¡ áĢĺáĢĢ
áĢ±áĢ· áĢ½
áĢ½áĢ¾ áĢ½
ĠáĢ¥ áĢı
ĠáĢĻáĢĢ áĢĽ
áģĦ áģģáģħ
ĠáĢĽáĢŀ áĢģáĢĦ
ĠáĢĻáĢŀ áĢī
ĠáģĦ áģģáģĦ
ĠáģĦ áģĨáģħ
ĠáģĦ áģĩáģĩ
Ġáģħ áģĤáģĩ
ĠC and
ĠM áĢĢ
áĢĻáĢĶ áĢĦ
ĠáĢķáĢĳáĢĻ áĢĦ
áĢ¾áĢ° áģĬ
ĠáĢĽáĢĻ áĢķ
Ġáģĩ áģĥáģĢáģĢáģĢ
ĠP orn
ĠT S
ĠT encent
áĢĻáĢģ áĢĲ
áĢ»áĢ¶ áĢ¯
ĠF ile
ĠF ocal
ĠF igure
Ġáģģáģħ áģģáģĢ
ĠD al
ĠR eb
ĠR io
ĠR af
ĠK oh
ĠK KG
ĠáģģáģĪ áģĥáģĤ
il t
ĠL am
ĠL ion
áģģáģĪ áģĥáģħ
Ġáģģáģĥ áģĩáģĪ
ĠW an
áĢĥ áĢĢ
st ar
áģģáģĩ áģīáģĨ
áģģáģĨ áģĦáģĤ
ĠJ ung
of Burma
ir t
ĠáģĦáģĢ áģĪ
Ġt wo
ĠThe L
áĢĻáĢĸ áĢļ
im m
im ir
áģĤáģĩ áģħáģĢ
ĠáģĦáģħ áģħ
Ġáģĥáģħ áģĩ
Ġm aster
Ġm usic
og a
ĠKN P
ĠáĢĥ áĢĢ
ist os
áģĦáģħ áģĦ
áģĨáģĨ áģĨ
ell ar
ong k
Ġáģĥáģĩ áģĪ
Ġl ib
ex port
St ore
St ates
áģĨáģħ áģĩ
per t
ĠAc tiv
Ġï»¿ áģĭ
ian a
ĠáģĦáģĦ áģĨ
ire ction
Ġ4 8
áģĪáģī áģģ
ont he
áģĦáģĢáģĢ áģĢáģĢáģĢ
ĠáĢŀáĢĻáĢĲ áĢĤ
eas ure
Ġ6 5
pl us
ĠGreen Tea
Ar ch
ĠPar ad
ĠRec omm
ĠNM G
iber ty
ĠOp tion
ĠRel ation
ĠRel ationship
GS M
ĠGe org
à¤ ¾
ĠOx ygen
ument s
Eng ine
Cont ract
ĠLib eration
ĠSP IC
ĠBe at
ĠSm ile
Par liament
ĠUnder ground
Ġind ustry
Ġpass port
ĠFriend ship
ĠAy ey
ĠSn ap
ĠMig ration
oen ix
ĠKA CC
ĠCoordin ator
Mess enger
ðĿ Ĳ
Child ren
ĠîĢ ·
ĠDoctorof Sciences
ucurb it
. "
7 3
9 3
A w
A sh
A pril
B B
C he
C EC
D isc
G GS
L ondon
P romotion
R F
R ub
T un
b c
c m
h o
t ok
Ġ ang
áĢº áģ±
áĢ± áĢ±áĢ¬
áģ «
áĢºáĢ¸ áĢ¯
áĢºáĢ¸ âĢĮ
ĠáĢ¡ áĢ¡áĢŀ
áĢ° áĢ»
áĢ¡ áĢĦáĢĶ
ĠáĢĳ áĢ¡
áĢĳ áĢĽáĢĢ
áĢ½áĢ² "
áĢĤ áĢĴáĢĢ
áĢı áĢŁ
ĠáĢŀáĢĦ áĢļ
áģĥ áģģáģī
ĠáĢĮ áĢĿáĢĲ
ĠáĢĲáĢģ áĢħ
áĢ½áĢ¶áĢ· áĢ·
áĢĢáĢŀ áĢĲáĢĦ
Ġáģħ áģģáģĪ
Ġáģħ áģģáģģ
ĠC L
ĠC ox
in áĢĶ
ĠM ost
áĢĻáĢĽ áĢ¡
ĠN ext
áĢĻáĢĶ áĢŀ
ĠS EC
ĠS wit
ĠS eptember
en o
ĠP ang
ĠP ak
ĠáģģáģĢ áģĤáģĢ
ĠT NI
ĠT reatment
Ġáģī áģīáģĢ
áĢħáĢĻ áĢħ
ĠB ow
ĠB ell
ĠB ee
ĠB ella
ĠB ottom
Ġáģģáģħ áģĦáģĢ
ĠáģģáģĤ áģĪáģĩ
ĠD G
ĠI l
ĠI IM
ĠáģģáģĪ áģħáģĨ
áģģáģħ áģĥáģĢ
áģģáģĤ áģĪáģĢ
áģģáģĩ áģĨáģĥ
áģģáģĩ áģĩáģĦ
ĠIn formal
ĠY A
ir ation
ĠáģĤáģĪ áģĥ
SA T
ĠCh eng
ĠáģĩáģĢ áģģ
up t
ĠFacebook áĢŀ
Ġm ade
ev a
ip er
Ġd ate
Ġd isc
aw i
ill us
ef t
com áĢŀ
Ġl oan
ĠQu ota
ĠTr ack
ĠáģĥáģĪ áģģ
ĠáģĥáģĪ áģĩ
áģīáģī áģĪ
áĢĢáĢĴ áĢĲ
áģĨáģħ áģĤ
ĠáĢ¡áĢĽáĢ¡ áĢĤáĢĲ
EA O
IT Y
oy d
iti me
olog ist
MA RT
ug ee
ĠáģĨáģĪ áģĥ
Ġ0 6
ĠMA T
ĠTrans form
ĠLockdown áĢľ
áĤı áģ³
Ġsh opping
Ar tist
ĠMus lim
ĠBar ack
ĠCO N
Ġáģ¤ áĢ¸
ĠPass ion
ĠAction Aid
ĠPPE áĢĿáĢĲ
Comp uter
Gu ard
ĠTer ror
Mar c
ilit ation
ĠAdv enture
ĠDevelop ed
atter y
ĠMac ro
pos ure
ĠTransport ation
ĠBlog ger
ĠLot te
ĠRain bow
ĠCam era
ederal ism
ĠLar ry
ĠBul let
ĠRoll s
ĠGram mar
pris es
ĠMID O
ĠXin hua
ĠMisri áĢĢ
ĠTreat y
Doing Business
ĠSMID B
phos ate
erad ical
ĠLOT TE
1 10
A th
B rowse
C oll
F re
F ilm
L ou
N M
N Y
N e
N SCN
O cean
S i
S n
T B
T her
V iber
] ]
a im
c enter
d am
d ep
g ita
i ar
l ink
p ond
s m
v ival
áĢ¯ ..
áĢºáĢ¸ áĢ¼
ĠáĢĲ áĢ¥áĢĢ
áĢ» áĢ»
áĢĬ áĢ¡
áĢĽ áĢ¡áĢĦ
áĢŀ áĢ¡áĢķ
áĢģ áĢŁ
áĢľ áĢľáĢĻ
áĢ¡ áĢĹ
áĢ¹ áĢ½áĢ¶áĢ·
ĠáĢļ áĢĤ
áĢĤ áĢĸ
ĠáģĤ áģĤáģĢáģĢáģĢáģĢ
ĠáĢĻáĢŁ áĢĦ
áĢľáĢĢ áĢķ
áģĦ áģģáģĦ
áģī áģĤáģħ
ĠáģĦ áģĥáģī
Ġáģħ áģĥáģĥ
ĠM eg
ĠN ES
ĠS ent
ĠS ed
áĢ¼áĢ½ áĢº
ĠA re
ĠáģĨ áģĥáģĢáģĢ
al an
al uation
ĠáģĪ áģĤáģħ
Ġáģĩ áģĤáģī
ĠT one
ĠF at
ĠB L
ĠB omb
ĠáĢħáĢĻ áĢ¡áĢĢ
ĠR are
at ai
ĠH idden
ĠK DP
el ing
ĠL oad
áģģáģħ áģĤáģĢ
áģģáģĤ áģĤáģĪ
ĠW et
Ġáģģáģĩ áģħáģĢáģĢáģĢ
ĠCOVID áĢĽ
áģģáģĩ áģĤáģĢáģģáģĪ
ĠO ther
ĠJ V
ĠJ ew
ot en
oc occ
ĠáģĤáģĪ áģģ
ch ai
20 2
ra f
ĠáĢ¡áĢŁ áĢĢ
áģĤáģĥ áģĢáģĢáģĢ
Ġs un
ĠFacebook áĢ¡áĢĢ
ant o
ob by
ĠMr J
Ġb oard
NLD áĢĶ
Ġw ave
one áĢĢ
com mm
ĠQu al
ex am
St ra
Ġ3 8
ĠáģĨáģħ áģĥ
ĠáģĦáģĪ áģĢáģĢáģĢ
ast y
ĠEx pl
Ġg et
NA C
ĠCor n
ĠInd icator
ies el
Ġst ar
ĠáģĦáģī áģĦ
ĠOr acle
Com munication
ĠPe ac
ĠSp onsor
IS T
Ġre cord
ĠIS I
à¸ ĩ
Un iverse
Tr ad
Facebook Page
itt en
fess ion
ĠAb use
sp ect
ĠProduc tivity
pro cess
itor ial
ĠSum it
ĠStayatHome áĢĶ
ĠAnti oxidant
Ġcon ferencing
ĠSal vation
use um
Ġáģģáģģáģģáģ Ĥ
facebook com
aid u
ther iver
ĠKBZ Pay
ere k
ĠPhys i
Is land
ĠIB EC
áĢĭáĢĢáĢĵ áĢĽáĢĲ
ĠAmb ient
ĠAssoci ate
Ġcoll agen
atur ated
ĠWinrock International
Pyi ChitThar
âŀ ¡ï¸ı
/ ?
B ut
B ill
B ase
B ritish
B uddhist
C ultural
C ERP
D ry
F rom
M ovement
N atural
P H
S ri
S NLDáĢķ
S mith
T ak
U V
d evelopment
e z
i enti
k it
l ab
p ay
s chool
v ed
áĢ¬ áĢ·áĢº
áĢŃ áĢ½
áĢŃ áĢŃáĢ¯áĢ·
áĢºáĢ¸ âĢĿ
áĢĻ áĢħáĢĻ
ĠáĢľ áĢĺáĢĢ
ĠáĢĶ áĢŀ
ĠáĢħ áĢĲáĢĢ
ĠáĢĺ áĢĩ
ĠáĢ¡áĢĻ áĢŀ
áĢ¼áĢ± áĢ®áĢ¸
ĠáĢĦ áĢ¡
ĠáĢ¦ áĢĢ
ĠáĢĻáĢĽ áĢĻáĢĬ
áĢĮ áĢĽ
áģĥ áģĤáģģ
áĢ¼áĢŃáĢ¯áĢ· âĢĭ
áģĦ áģģáģĪ
ĠáĢĮ áĢĶ
áģī áģĤáģĢ
áĢ¥ áģ¥
áĢĢáĢĽ áĢĻ
ĠáģĦ áģģáģī
ĠáģĦ áģĥáģģ
áĢĢáĢŀ áĢĺ
Ġáģħ áģĥáģĪ
Ġáģħ áģĦáģĨ
in ity
áĢ¡áĢľ áĢĶ
ĠN BC
ĠN ED
ĠN ick
ĠáĢķáĢĳáĢĻ áĢ¡áĢĽ
ĠS qu
ĠS leep
ĠA CC
al ization
áĢŀáĢħ áĢĽ
Ġáģĩ áģĥáģħ
ĠP ut
ĠáģĤáģĢ áģĤáģĨ
ĠT es
ĠT ag
Ġáģī áģģáģĦ
ĠF L
ĠF OC
ĠB etter
ĠáģģáģĤ áģĪáģħ
ĠG Q
ĠG all
ĠG mail
is ing
ĠH app
ĠU D
ĠU se
ĠU OB
ĠáĢ¡áĢĺ áĢħ
re áĢĢ
ro c
il ing
il et
ĠL otion
áģģáģĪ áģĤáģī
Ġáģģáģĥ áģģáģĤ
Ġáģģáģĥ áģĩáģĩ
áģģáģĤ áģĨáģĢ
ou k
Ġáģģáģĩ áģĨáģī
st ract
ĠáģģáģĢáģĢ áģĢáģĢáģĢáģĢ
ĠáģĤáģģ áģĢáģĢáģĢáģĢ
áģģáģĩ áģĪáģħ
ĠNCA áĢķ
ĠY am
áĢŀáĢĽ áĢı
áĢ© áĢĲ
op amine
SA RS
ess e
Ġt ra
ĠSt orm
Ġp ark
th on
ĠCh erry
áģĤáģĩ áģģ
ist an
ak s
est s
áģĥáģĩ áģĪ
ĠSh ield
ĠáĢ¾ áĢ±áĢ·
ĠTNLA áĢ¡áĢĸ
ma tic
ĠPh ill
Ch ief
per or
ĠAl b
Ġg lobal
ram a
ĠAr g
201 0
ĠCP J
ĠáģĦáģĩ áģĪ
ĠáģĦáģĩ áģĦ
eng es
PS LA
Ġ? ?
Ġr isk
ĠARSA áĢ¡áĢĸ
PN LO
AR E
oll o
Ġáģħáģĩ áģĢáģĢ
ĠMar sh
Th inking
az e
uk h
ĠAir bus
ĠEAO áĢĻ
Cent eráĢĢ
12 5
Ġac tion
ĠQ ing
Ġch ange
áģ¥ áĢĬ
áĢºáĢ¬ áĢ¹
enz o
ĠAut onomous
elt a
ĠBook ing
Ġhe alth
itiz er
itiz ens
ĠáĢ² áĢ·
ru it
ij ay
ĠPlay er
ĠMet al
Economic ReliefPlan
ĠSupply Chain
uch i
ĠShe et
ãĢ °
ĠSS NA
Ġmo isturizer
ĠMerc edes
ĠShang hai
rah im
ĠAnton io
ĠĠĠĠĠĠĠĠĠĠĠĠĠĠĠĠĠĠĠĠĠĠĠĠĠĠĠĠĠĠĠĠ ĠĠĠĠĠĠĠĠĠĠĠĠĠĠĠĠĠĠĠĠĠĠĠĠĠĠĠĠĠĠĠĠ
fol io
ĠMaz da
ĠTachileik News
Sel ection
ĠFle et
avon oids
ĠMitch ell
ohe i
cyclop edia
B re
E v
G lob
J ICM
L u
N ar
P in
R ule
T achileik
W alk
Z I
c an
k V
p H
r ug
s ing
s ud
Â ¯
Ġ et
Ġ ide
Ġ ãĢĢ
áĢ¬ áģĬ
áĢ¬ áģ§
áĢŃáĢ¯ áĢ¹
áĢ½ áĢŃáĢ¯áĢ¸
áĢĶ áĢŁ
áĢĻ áĢ¡áĢĳ
ĠáĢŀ áĢĨ
áĢĽ áĢ¡áĢŀáĢħ
áĢĨ áĢģáĢĶ
áĢ¾áĢ¯ áĢ¯
áĢ±áĢ· "
ĠáĢ¡áĢĽ áĢľáĢļ
áĢı áĢĲ
áĢı áĢĿáĢĲ
áĢ»áĢ¾ áĢ°
áĢ½áĢ±áĢ· áĢ·
áĢĩ áĢķ
áĢĩ áĢĴ
áĢĲáĢĢ áĢķ
áĢĲáĢĻ áĢķáĢĶ
áĢĲáĢĽ áĢĵ
áĢĲáĢĽ áĢĹáĢŁ
an ese
áĢĢáĢĽ áĢĽ
on line
Ġáģħ áģĤáģī
ĠC ool
ĠáģĨ áģĨáģĨ
Ġáģĩ áģĤáģĢáģĢáģĢ
Ġáģĩ áģĪáģĨ
ĠP D
ĠP le
ĠP OS
ĠT B
ĠF ont
ĠF ake
ĠB ah
ĠB oss
ĠB aby
áĢģáĢı áĢĶ
ĠáģģáģĤ áģĩáģĨ
ĠD AB
ĠR over
ĠH C
ĠH amb
ĠK as
ĠK DA
ĠK ristian
el ong
ĠáģģáģĪ áģģáģħ
ĠáģģáģĪ áģĥáģħ
re m
ĠNLD áĢĲ
áģģáģĪ áģģáģĨ
áģģáģħ áģģáģĨ
ĠW ard
he art
id eline
áģģáģĩ áģīáģħ
ĠNCA áĢľ
em s
áģĨáģĢ áģĪ
ĠSt even
Ġs ervices
Ġs ector
Ġc over
ĠCh iang
os er
ut o
ĠáģĦáģħ áģĥ
ĠáģĦáģħ áģģ
ĠáģĦáģħ áģĦ
Ġáģĥáģħ áģī
áģĦáģħ áģĥ
Ġb alance
age áĢĢ
Ġl ong
Ġ2 30
ost on
áģīáģī áģħ
ĠZ he
ans en
ĠAc tivities
ĠEx tra
Ġh ydro
ram e
Ġáģĥáģī áģĥ
áģĦáģĦ áģĤ
ðŁ ĩ²
ian áĢĢ
Pro v
ie áĢĢ
Ġst akehold
Ġst atus
mer cial
ĠMy a
ĠNRPC áĢĶ
áģ¾ áĢ¡áĢķ
oll ar
ĠNew York
ĠáģģáģĥáģĢ áģī
az z
ĠGu oxiang
ĠáģĩáģĪ áģĢáģĢ
ĠáģĩáģĦ áģĢáģĢáģĢ
áĢ¯áĢŃ áĢ±
Facebook áĢĢ
ĠGoogle áĢĢ
Ġch ild
Ag ri
Ex plorer
ĠáģģáģģáģĤ áģĢ
ĠáģģáģģáģĤ áģĪ
Ġth ink
Res ort
ĠChar ity
ĠHu a
vis ory
Ġáģģáģģáģī áģī
Photo Credit
ĠBilateral CeasefireAgreement
ump tion
Bank ing
MO I
ĠSe an
yc op
ĠKNLA áĢĲáĢķ
ĠWar s
Mask áĢĢ
Ġsc an
ĠSem ester
ĠNet flix
ĠCre w
ĠPet roleum
Ġoff icial
Fr anc
Ġsup er
Am nesty
ĠPot assium
ĠMIT S
ĠFre el
Ġgen eration
yth m
ĠIU J
Ġdevelop er
ĠMCR B
ĠNob el
ĠáĢŁáģ¼ áĢħ
ĠStan ford
Ġear th
ateg ory
ĠKemp inski
ĠWG EC
A ud
B a
D onald
E co
F oreign
G irl
N áĢĢ
P ackage
R oyce
S W
S at
T ra
V eg
W N
a áĢĨ
d f
f e
f ish
h is
j amin
w al
w all
Ġ __
Ġ ox
áĢ± /
ĠáĢĻ áģ½
ĠáĢĲ áĢŀáĢħ
Ġáģ ¦
áĢĽ áĢ¡áĢħ
ĠáĢħ áĢĻáĢļ
ĠáĢĨ áĢĿ
áĢ±áĢ¬áĢº áģĭ
áĢ±áĢ¬áĢ· áģı
ĠáĢĲáĢħ áĢĲáĢħ
áĢ½áĢ¬áĢ¸ áģı
ĠáĢŀáĢľ áĢķ
Ġáģĥ áģĤáģģ
áĢĲáĢĽ áĢ¡áĢĶ
er ic
Ġáģħ áģĩáģĨ
ĠC RC
ĠC oh
ĠM EP
áĢĻáĢĶ áĢĲ
ĠS ound
ĠS ize
ĠS kin
en i
ĠA MI
Ġáģĩ áģīáģħ
áĢĢáĢĦ áĢĻ
ĠP ed
ĠT utorial
Ġáģī áģģáģģ
ĠF olk
ĠF amous
áĢĪ áĢļ
ĠD ont
ĠR oss
ĠR ena
ĠG T
ĠH ope
ĠK aung
ĠáģģáģĪ áģĤáģĪ
re te
ro b
áģħáģĢ áģī
ĠNLD áĢĢáĢĶ
Ġáģģáģĥ áģģáģĢ
Ġáģģáģĥ áģĤáģħ
Ġáģģáģĥ áģĩáģī
áģģáģĤ áģĪáģī
ĠW ei
ec on
áģģáģĩ áģīáģĤ
áģģáģĩ áģĪáģĦ
ĠV inc
ĠV illa
of Con
un k
eb ate
áģĪáģĪ áģī
áģĤáģĦ áģĢáģĢáģĢ
ia z
Ġt el
Ġt her
Ġp rom
ri pt
áģĤáģī áģģ
Ġáģĥáģħ áģĪ
od rome
PP S
Ġb ased
áģĨáģĨ áģĦ
Ġw a
Ġw as
Ġw ord
se x
se in
Ġl ock
qu ence
áģħáģħ áģĤ
áģīáģī áģīáģī
ans ing
per ature
ĠEx it
ĠApp lied
Ġh ot
ĠAr rival
áģĦáģĦ áģī
áģĦáģī áģĦ
ĠNational ism
ĠRe Export
ish ment
MA S
Ġr est
ĠX ray
ĠáģħáģĦ áģĢáģĢáģĢ
Ġre form
Sh aring
ĠAss embly
Un ivers
ĠGu est
NE T
for estry
ĠPower Point
ĠRep ro
ĠOnline áĢĢáĢĶ
Facebook áĢĻ
ĠCoronavirus áĢĢ
att an
ĠCamp us
ĠFood s
ĠLand mark
ĠSum mer
ĠSub sc
ĠSal es
ĠEv olution
âĢĭâĢĭ âĢĭ
ĠLog ic
ran er
Ġfl u
ĠCur rent
Ġop en
ĠTO YOTA
ĠMF VP
Reg istration
ĠNorth ern
áĢ·áĢ· áĢ¶
ĠFranc is
ĠFranc isco
ĠSwab áĢļ
econom ics
Ġaut o
âĢĶâĢĶâĢĶâĢĶ âĢĶâĢĶâĢĶâĢĶ
ĠPsych ology
ĠPfizer áĢĶ
ãĢĢ ãĢĢ
ĠWr iting
ĠHyd rop
ĠCorona Vac
ĠHP V
oler ance
urmes ecom
ĠAnth ony
Ġmark eting
ĠRR CCI
Ġpress ure
dh ury
ĠáĢ¡áĢľáĢŁ áĢ¿
mizzimab urmesecom
ĠRecomm end
3 20
A p
C a
C ost
C itizen
D ance
F ield
M ad
M ass
M alaysia
O áĢĢ
T rain
T erm
W ood
W ith
e k
e ens
f ly
j ur
l ike
l atest
p at
r ane
s l
s aturated
v ar
y ar
Â µ
ã ģ
å ¤
Ġ ep
áĢº áĢŃáĢ¯áĢ¸
áĢŃ áģĬ
áĢºáĢ¸ áĢ»
áĢĶ áĢĢáĢĶ
áĢĻ áĢĻáĢģ
áĢĻ áĢĨáĢķ
ĠáĢŀ áĢ¡
áĢ® áĢ®áĢ¸
áĢŀ áĢ¡áĢľ
áĢģ áĢĽáĢĢ
áĢľ áĢĹ
áĢľ áĢĿáĢĢ
áĢ±áĢ¸ áĢ±
áĢ®áĢ¸ -
áĢ»áĢ¬áĢ¸ "
áĢĿ áĢĻáĢŁ
ĠáĢŁ áĢĿ
ĠáĢĲáĢħ áĢģáĢĶ
áĢĺ áĢ¦
áĢĺ áĢĶáĢĶ
ĠáĢ¡áĢĲ áĢĻ
ĠáĢ¡áĢĽ áĢĴáĢı
áĢı áĢľ
ĠáĢ¡áĢľ áĢķ
áĢ»áĢŃ áĢŃáĢ¯áĢ¸
ĠáĢħáĢĢ áĢģ
ĠáĢ¥ áĢŀáĢĺ
áĢ¼áĢ® áĢ®áĢ¸
áĢĵ áĢķ
ĠáĢĲáĢĬ áĢĲ
áģħ áģģáģħ
áģĥ áģģáģĨ
ĠáĢĵ áĢĶáĢĢ
áģĦ áģĥáģĤ
ĠáĢĻáĢĲ áĢĸ
áĢ¡áĢĽ áĢĸáĢĻ
áĢį áĢŁ
áĢŀáĢĲ áĢģ
ĠC ow
ĠM ust
ĠM MC
ĠS iam
ĠA MC
ĠáģĨ áģĦáģħ
ĠáĢĽáĢĻ áĢı
ĠáģĪ áģĥáģħ
ĠáģĪ áģĨáģħ
Ġáģĩ áģĦáģħ
Ġáģĩ áģĩáģĨ
ĠP urch
ĠT ony
áĢĽáĢĲ áĢģ
Ġáģī áģģáģĤ
ĠB uddha
áĢģáĢı áĢĨ
ĠáģģáģĤ áģĤáģĤ
ĠR om
ĠR BE
ac tical
ĠáĢĻáĢĻ áĢĸ
ĠK ok
ĠNLD áĢ¡áĢķ
Ġáģģáģĥ áģĨáģħ
áģģáģĤ áģĦáģĩ
Ġáģģáģĩ áģĪáģħ
Ġáģģáģĩ áģĨáģħ
ed e
ed s
ĠáģħáģĢ áģĦ
áģģáģĩ áģĨáģĩ
ĠO st
ĠV lad
ĠV oting
ĠY in
áĢ© áĢħ
oc yan
ig ar
ĠSt one
Ġp an
Ġp aper
Ġs o
Ġs ource
Ġf unction
áģĤáģĪ áģģ
ice f
Ġd et
ĠCom petition
IC U
ven ing
In stitut
áģĨáģĨ áģħ
áģĥáģĦ áģī
ell i
pp ing
av el
evel t
ph a
ne um
per m
ast ro
ĠUPDJC áĢ¡áĢĲ
áģĦáģĦ áģģ
anc et
ĠáĢ¼ áĢ½
ĠQuarantine áĢĢ
ok h
Pro cedure
MA I
Ġr pm
LO S
ĠComp le
ĠáģħáģĪ áģĢáģĢáģĢ
ED D
ĠMy c
áģ¾ áĢĢáĢĬ
ath ion
ĠáģĨáģĩ áģĢáģĢ
à¸ ±
áģģáģĪáģĢ áģĦ
ĠWh it
ĠWh olesale
ĠCar ol
ĠáģĪáģĦ áģĢáģĢáģĢ
ĠCE SR
ĠOnline áĢĻ
TE L
ĠUEHRD áĢĢ
ĠABSDF áĢĢ
yl van
ĠCB Os
Ġth is
ĠStar s
pt ocracy
Ġph ys
ĠðŁ Ĵ
ĠOp inion
ĠAction Plan
ĠAP EC
ĠEv idence
ĠWeb portal
áģĤáģĢáģĤ áģģáģĤáģĢ
Air lines
ĠNe ti
rip tion
ĠSK Y
ĠMel an
mun ications
ĠInstitution s
yt oc
ĠMah m
Char les
áĢ¹áĢ¸ áĢ±
ĠNa ib
amm ad
ĠSol o
ĠFact or
ĠChrist opher
Su u
ĠKD DI
etermin ation
Op en
Del ivery
ĠMechan ical
ĠCount y
Fin ancial
ĠFail ed
áĢĻáĢģáĢı áĢģáĢı
ĠVeg et
ĠChev rolet
ĠîĦ ·
entral ization
ĠProc ter
ãĢ° ãĢ°
ðŁĩ² ðŁĩ²
/ -
7 1
A ge
C at
C ong
H en
H il
M arch
M atter
N egative
O X
O ri
P ub
R est
T s
W eek
b ot
c rop
d istancing
f ree
g ate
g ers
i ens
k m
m ask
p et
v i
v et
v ol
w orth
y ears
Ä ģ
Ġ ess
Ġ ven
Ġ act
Ġ **
áĢ¯ áĢ¯áĢ¶
áĢŃ áĢŃáĢ¯áĢ¸
áĢŃ áĢ¹
áĢĢ áĢĿáĢĦ
áĢĢ áĢĨáĢĦ
áĢĲ áĢ¡áĢŀ
áĢ±áĢ¬ áĢ¹
ĠáĢĻ áĢĪ
áĢķ áĢĶáĢĢ
áĢĻ áĢ¡áĢĽáĢĻ
ĠáĢĽ áĢŀáĢĶ
ĠáĢĽ áĢ¡áĢĲ
áĢ² áĤĽ
áĢ¶ áĢ¯áĢ¶
áĢ° áĢ¯áĢ¸
áĢ²áĢ· áĢ½
ĠáĢģ áĢķáĢĦ
ĠáĢħ áĢĨ
ĠáĢħ áĢĲáĢļ
áĢ·áĢº "
áĢĳ áĢĲ
áĢĳ áĢģ
áĢĸ áĢľáĢĦ
áĢĴ áĢĬ
áĢĺ áĢĽáĢĦ
ĠáĢ¡áĢĢ áĢĲ
ĠáĢ¡áĢĢ áĢĽ
ĠáĢ¡áĢĶ áĢĸáĢĢ
ĠáĢ¡áĢľ áĢľáĢĢ
ĠáĢĻáĢĽ áĢĻáĢļ
áģĤ áģģáģħáģĢ
ĠáĢĲáĢĽ áĢŀ
áĢ¡áĢķ áĢľ
ĠáĢĲáĢĬ áĢľ
áģħ áģīáģĢ
áģħ áģħáģĢáģĢ
áģĥ áģģáģĢáģĢ
áģĦ áģĤáģĤ
áģĦ áģīáģī
áģī áģĥáģĢ
áĢĲáĢĽ áĢĤ
er tificate
Ġáģħ áģĥáģī
ĠC ele
ĠC oca
in D
in áĢĲ
in ing
ĠM ong
ĠáĢĺáĢĿ áĢĽ
ar ies
ar eness
ti ium
ĠA le
ĠA NA
ĠáģĨ áģģáģĩ
or es
ĠáģģáģĢ áģĨáģĢ
áĢħáĢĻ áĢ¡áĢģ
ĠF C
ĠF ried
it am
ĠB oon
Ġáģģáģħ áģĩáģĢ
ĠáģģáģĤ áģģáģģ
ĠáģģáģĤ áģħáģĢáģĢáģĢ
ĠD SI
áĢĿáĢĿ áĢľ
ĠR ac
ĠR ace
ĠH is
ĠH ou
ĠH air
ĠK E
ĠU TA
ĠáģģáģĪ áģĦáģĤ
áģħáģĢ áģĥ
ĠE B
ĠE V
ĠE ur
ĠNLD áĢ¡áĢĻáĢĲ
áģģáģĪ áģĥáģĥ
áģģáģħ áģĪáģĢ
ĠW aste
ID P
Ġáģģáģĩ áģĪáģĥ
et on
ĠáģħáģĢ áģĩ
ad áĢĢ
id ae
áģģáģĩ áģīáģī
áģģáģĥ áģģáģĤ
ĠV entilator
ot ech
ot ype
ot echnology
ĠAA áĢľáĢĢ
ul s
Ġc ell
Ġc ourt
th al
ew ay
áģĤáģĨ áģĢáģĢáģĢ
ab il
ob y
ip ur
Ġd i
Ġb est
Ġb eta
ĠCon dition
Ġáģĩáģħ áģĢáģĢáģĢáģĢ
ĠUn ique
Ġw ant
ĠáģĥáģĨ áģĤ
ðŁ ¤
ĠáģĦáģĨ áģĩ
TA L
ĠRes ident
ĠDr ug
ER T
áģĪáģī áģĪ
ond ition
ĠCl inical
ĠSc ott
ED C
ĠPl ace
ĠMo tivation
MS ME
áĢĲáĢ¡ áĢĤ
por ary
ĠRFA áĢŀáĢĲáĢĦ
Con struction
Ġsh aring
ĠReg ulations
ĠDNA áĢħáĢħ
ĠKh am
ĠPPST áĢ¡áĢħáĢĬ
ĠDo or
Ġim age
Ġsc rub
ĠSeas ons
ĠMC L
Economic s
ĠðŁĺ į
ĠáĢħáĢģ áĢĽáĢĦ
Ġare a
Fr ance
Army worm
ĠAv iation
ĠCab inet
oxid ants
ĠEp id
Ġpart y
ĠFrank furt
Ġorgan ic
ĠSurgical Mask
ĠStr ength
ĠShang ri
ĠÄ ģ
Face Shield
Ġer ror
Doc tor
ĠPok emon
ĠFur berg
Academ y
Pf izer
áĢŃáĤĤ áĢ¸
agnos tic
ycop ene
3 40
9 1
9 7
A st
B ack
C re
C over
F B
G erman
H or
I W
L ock
M yo
S now
T IO
U LA
V R
V illage
W al
Y U
d n
f irst
h ong
h ome
m ium
n ia
u er
w id
z en
è ı
Ġ version
áĢ¬ áģİ
áĢĢ áĢ¦
áĢĢ áĢĿáĢĶ
ĠáĢ¡ áĢŁáĢĦ
ĠáĢĽ áĢ¿
áĢĽ áĢ¡áĢķáĢĦ
áĢ¡ áĢĭ
ĠáĢĴ áĢľáĢĶ
áĢĴ áĢĢáĢľáĢĬ
ĠáĢŁ áĢĽ
áĢ±áĢ· áĢ·
ĠáĢ¡áĢĽ áĢ¡áĢĵ
ĠáĢ¡áĢĽ áĢĹáĢŁ
ĠáĢ¡áĢĽ áĢ¡áĢģáĢĢ
ĠáĢĹ áĢĳ
áĢ¼áĢ® áĢ¯
áĢ¼áĢ® âĢĿ
âĢ ĺ
áĢľáĢĢ áĢĳáĢĢ
áĢ±áĢ«áĢ· âĢĿ
áģī áģĦáģĢ
áģī áģĪáģĢ
ĠáĢĻáĢľ áĢĻ
an j
er áĢĶ
on h
Ġáģħ áģīáģħ
ĠC in
ĠM atch
ĠáĢĺáĢĿ áĢģ
ĠN U
ĠS ens
ĠS usp
en ed
áģĤáģĢ áģĦáģĢ
áģĤáģĢ áģĥáģģ
or am
ĠáģĪ áģĥáģĢáģĢáģĢ
ĠP ew
ĠP ati
ĠP enn
ĠáģģáģĢ áģĨáģĨ
ĠT AX
ĠF iber
ĠF irm
ĠF GM
ĠB AT
ĠB uy
áĢģáĢı áĢĸ
ĠáģģáģĤ áģĤáģī
ĠáģģáģĤ áģĥáģħ
ĠáģģáģĤ áģīáģĢ
ĠáģģáģĤ áģīáģĪ
ic ian
ĠD D
ĠD est
ĠD erek
ĠR AS
ĠR ussia
ac he
ĠG and
ĠáĢŀáĢĽ áĢĻáĢĬ
ĠH iro
ing áĢĨ
el son
ĠL eaf
ĠL earn
as ing
ĠE g
ĠE astern
áģģáģĪ áģĥáģģ
ĠW ant
ĠW olf
oo f
ĠáģģáģĨ áģģáģĢ
Ġáģģáģĩ áģĦáģĢ
Ġáģģáģĩ áģĩáģĢ
and Development
ĠO way
áģģáģĥ áģĪáģĢ
ĠJ um
ĠJ ason
ĠJ asan
ur d
ĠY i
áĢĽáĢĽ áĢļ
ag ent
ag ne
ver age
Ġs ch
Ġs mall
Ġc at
th es
Ġf ollower
ut or
ri tis
áģĥáģĨ áģģ
Ġm ac
Ġm other
od d
od o
ĠáĢ¹ áĢ¬
ĠáĢ¹ áĤı
est yle
ĠáģīáģĢ áģħ
CC S
Ġb et
NLD áĢĽ
ĠCon duct
ers p
Ġáģĥáģĥ áģĢáģĢáģĢáģĢ
Ġ3 7
ĠZ e
Ch am
Ch urch
ĠáĢ½ áĢ·
ĠYBS áĢħáĢĶáĢħ
Ġáģħáģħ áģĪ
ĠáģĦáģĪ áģĤ
ĠáģĦáģĪ áģĥ
áģĦáģĩ áģĪ
ram mar
ĠáĢ¼ áĢ®
ox ic
ĠáģĦáģĩ áģī
áĢĿáĢĿáĢĿ áĢĢáĢĶ
ĠáģħáģĨ áģĥ
Ġe ye
Ġst art
áģĪáģī áģĨ
ea ux
man ent
ĠMar ga
Sh op
eas on
à¸ Ń
ĠáĢĶáĢĿ áĢĲáĢĢ
cl ud
ĠCar n
elf are
ĠCE DAW
ĠWork ers
att oo
ĠAb u
pro gram
Ġcon cept
Ġal arm
Ġáģģáģģáģģáģ ĩ
ĠChin acom
Ġsp ace
New Light
Ġim m
ĠNegative áĢĸ
ĠEth n
ĠSD G
ĠNDF áĢķ
ĠHot line
ĠConf idence
ĠClass room
ĠPhil osophy
Program me
ĠAF CCup
ĠBen ef
xxxx xxxx
myanmar latest
Journal ism
Ġfac ility
ĠAmb ulance
unt ary
ĠArch ive
Rev olution
Ġab out
South ern
ĠRun ner
Ġser ver
Ġgl ass
Digital News
ĠTrue Money
ĠCob as
Ġï¼ Ī
Ġfe ature
GH z
ĠHann ah
Ġid entity
Bad ge
ĠRefer ence
ĠJenn ifer
sper ity
ucurbit ac
ĠVlad imir
A rakan
B road
E áĢĢ
F L
G h
H an
K KO
L G
M N
M el
M us
M ain
R angoon
S and
S TA
U se
W ang
Z ero
b ird
c n
f W
h en
p onse
r ine
y our
y ear
z ation
áĢĢ áĢŀáĢĬ
áĢ½ áĢ¹
áĢĶ áĢĲáĢģ
ĠáĢķ áĢĽáĢĢ
ĠáĢĽ áĢĮ
áĢ¶ (
áĢ²áĢ· áĢ»
áĢŃáĢ¯áĢ¸ "
áĢ¾áĢŃ áĢŃáĢ¯
áĢ¾áĢ¯ áģĭ
ĠáĢĴ áĢģ
áĢĴ áĢĻáĢķ
áĢĴ áĢŀáĢĺ
ĠáĢ¡áĢĲ áĢħ
ĠáĢĦ áĢŁáĢħ
ĠáĢĲáĢĢ áĢĢ
ĠáĢĲáĢĢ áĢŀ
áĢ»áĢ±áĢ¬áĢº áĢ·
áĢ¼áĢŃ áĢ°
áĢ¼áĢ® áĢºáĢ¸
áĢĲáĢĢ áĢĿ
ĠáĢĲáĢķ áĢļ
áģĥ áģĤáģĪ
áģĪ áģĦáģĢ
áģĩ áģĦáģĩ
áĢĲáĢĻ áĢħ
áĢ¡áĢĢ áĢĻ
Ġáģħ áģĥáģĦ
Ġáģģáģī áģĢáģĢáģĢáģĢ
ĠM alay
ĠM ETRO
ĠáĢĽáĢļ áĢĢ
ĠN SA
ĠN ak
ĠN est
ĠS T
ĠS ath
ĠS ix
ti e
ĠáģĨ áģĤáģĪ
ĠáģĨ áģĦáģĨ
ĠáĢĽáĢľ áĢĲ
ĠáĢ¡áĢļ áĢĢ
ĠP L
ĠP etter
ĠáģģáģĢ áģĩáģĢ
ĠT int
áģģáģĢ áģĩáģĩ
ĠF IR
ĠB our
ĠáģģáģĤ áģĦáģĦ
ĠD ub
ĠR NA
at ures
ĠG ust
ĠH ang
ĠáģģáģĪ áģĥáģĨ
ĠáģģáģĪ áģĦáģī
il o
ĠL ip
ĠL ives
as i
as er
ĠNLD áĢŀ
ĠNLD áĢĹáĢŁ
áģģáģĤ áģĪáģĤ
áģģáģĤ áģĪáģĩ
le áĢĢ
ĠW at
ĠáģģáģĨ áģĥáģĢ
áĢ½áĢ¶ áĢ¶
ĠáģĤáģĢáģģáģħ áģģáģĨ
áĢ¾áĢº áģĬ
ec ti
áģģáģĩ áģĨáģī
ĠV ISA
un ning
ĠY SX
em yanmar
ch ild
ĠáģĤáģĢáģģáģĪ áģģáģī
ĠáģĨáģĢ áģĦ
th a
ĠCh a
im o
Ġf ail
Ġf ake
ĠFacebook áĢľ
ĠáģĦáģħ áģĨ
Ġáģĥáģģ áģĢáģĢáģĢ
Ġm ag
og ram
Ġ1 30
ist r
ak rish
est ock
ob e
ĠáĢ± áĢ¼áĢ½
aw ay
áģĦáģħ áģĤ
Ġb us
IC RC
art en
ect rum
se a
Ġl ocal
ĠáĢĻáĢĿ áĢģ
ĠáģĥáģĪ áģĥ
áģħáģħ áģĩ
ĠáĢķáĢĴ áĢĲ
Ch ang
sh ow
ĠÂ °
áģĦáģĦ áģĥ
áģĦáģĦ áģĨ
ult an
ĠCP F
ĠáģĦáģĦ áģģ
con s
áģĦáģī áģĨ
ens us
ĠPol o
Ġ5 5
Ġv al
ĠáĢŀáĢĻáĢĲ áĢĲ
ath a
Ltd áĢĲ
áģģáģĪáģĢ áģģ
for ce
aj i
ĠInstitute áĢĢ
ĠFl ash
AN C
ĠPart ners
ĠMon etary
ĠáģĢáģī áģĦáģĤ
oph yll
áĢºáĢ± áĢ»
ĠRel ations
ĠId en
ĠGe o
ĠEd it
ĠLab els
ĠBA SIC
ĠCoLtd áĢĢ
ĠSe oul
áģģáģģáģģáģ ħ
Ġhe art
ĠHy p
oot ing
ĠNegative áĢ¡áĢĸ
ĠPal m
Ġáģģáģģáģģ áģĢ
ĠPort able
Rep ublic
ĠGTI áĢĢ
ĠVic tim
Fr ont
ĠMJ A
Inter est
ĠHospital ity
Positive áĢľ
Ġus er
ĠSpr ay
âĺ ®
ensor ship
ĠHol y
Ġme eting
Americ a
ĠBroad casting
ĠTher apy
ĠEX IM
ĠCod ing
ĠRah man
Ġest rogen
itim acy
ĠInstr ument
# #
B ig
B ul
D at
D DR
E SS
F S
F ramework
H istory
M all
N DA
P erson
R em
R over
T ex
U W
W FP
d oor
g oogle
k now
y al
y outube
Ġ ment
Ġ old
áĢº +
áĢ· áĢ®
áĢ±áĢ¬ áĢ¬áĢ·
ĠáĢĲ áĢģáĢĦ
áĢħ áĢĴ
áĢħ áĢľáĢļ
áĢħ áĢĻáĢģ
áĢļ áĢ¡áĢģ
áĢ¶ ..
áĢ±áĢ¸ )
ĠáĢĨ áĢĮáĢĻáĢĻ
áĢ½áĢ± áĢ½
áĢĨ áĢľáĢĲ
áĢ¯áĢ¶áĢ¸ ..
ĠáĢ¡áĢĽ áĢ¡áĢĶáĢĬ
áĢŁ áĢľáĢĲ
áĢı áĢĽ
ĠáĢ¡áĢĸ áĢģ
ĠáĢľáĢĢ áĢĻ
ĠáĢ¥ áĢģ
áĢŀáĢĻ áĢķ
áĢĽáĢķ áĢĦ
áĢŀáĢĶ áĢĻ
áģĪ áģĨáģĢ
áģĪ áģĩáģĢ
áģĦ áģĤáģĢáģĢ
áģĦ áģĨáģħ
áĢħáĢĢ áĢļ
Ġáģħ áģĪáģĨ
ĠC ad
in j
ĠM ix
ĠN orm
ĠS F
ĠS R
ĠS oph
ĠS OS
ĠS ensor
ĠS odium
ĠA LA
ĠáģĨ áģĦáģĪ
al er
al ar
ĠáģĪ áģĥáģĥ
ĠáģĪ áģģáģĢáģĢáģĢ
ĠáĢ¤ áĢĢáĢĻ
ĠB ord
ĠB NP
ĠB OC
ĠáģģáģĤ áģģáģĨ
ĠáģģáģĤ áģĨáģĤ
ĠR A
ĠR ib
ĠG or
ĠG ard
ĠH U
ĠH at
ĠH ell
ĠáģģáģĪ áģģáģĤ
ĠáģģáģĪ áģĤáģĥ
re ct
ĠL ing
ĠL ay
ĠáĢ© áĢħ
áģģáģĪ áģĦáģģ
Ġáģģáģĥ áģĦáģĢ
ĠW en
áģĥáģĢ áģĤáģĤ
Ġáģģáģĩ áģħáģĢáģĢ
ol s
ĠO ry
áģģáģĥ áģĨáģĦ
of L
ĠY AC
SA N
ess a
ĠSt age
Ġs ky
Ġs ave
Ġs tick
th an
th is
ĠCh au
áģĤáģĨ áģħáģĢ
Ġf il
Ġf oundation
ion eer
uc cess
ard o
Ġ1 20
Ġ1 000
ĠPro box
ĠPro ximity
áģĥáģĩ áģĥ
ĠáĢ± áĢ«
Ġb oat
ĠSh a
ĠCon do
ill ar
áģĥáģĪ áģĩ
ers áĢĲ
ĠáģĪáģĪ áģĨ
ĠáģĥáģĨ áģģ
Ġl ook
ĠQu alif
ĠáģĥáģĦ áģĢáģĢáģĢ
áĢĻáĢ¡ áĢĻáĢĬ
áģĨáģħ áģģ
áģĦáģĩ áģĩ
ĠÂ ¤
Ġh om
ðŁ ĵ
ĠPr im
ĠPr ice
ĠWHO áĢĽ
áģĩáģĩ áģĪ
áģĩáģĩ áģī
Ġáģħáģī áģĦ
ĠRes id
ĠRes erve
ĠáģĪáģħ áģĪ
Pro visional
Ġst udy
ĠUniversity áĢĢ
Un ity
any a
ĠOne Belt
ĠFr esh
AC T
ĠMI L
ĠGDP áĢĢ
urm as
Ar ts
ĠPar liament
Cl imate
áģģáģĨáģĢ áģĥ
NC áĢĢ
áģģáģĩáģĢ áģĩ
ferenc es
ĠSky pe
rib e
Ġor o
FM R
Ġ200 7
ĠDown town
Bl ue
acter ia
ĠDef ense
Ġbl ock
Work áĢħ
ĠAF D
ced ures
ĠBen jamin
uj ah
Company Limited
ĠOri entation
ĠTown ship
ĠIA EA
Elect ric
ĠEngine er
ĠSy nergy
ĠPP WT
Internet Explorer
ĠVo ter
lec tive
ĠClear ance
ĠIG CSE
ðŁĳ ī
Bang kok
ĠTex as
idel ines
âĻ© âĻŃâĻ«âĪ®
alsef alse
ĠCiv ic
ĠPos co
ympt omatic
Ġlet ter
ĠOHC HR
ĠGQ GA
5 1
B eauty
C K
D MA
D irect
F ly
F act
F lor
G PS
J AC
M er
M NA
R R
S ol
S ports
T ank
T ower
T oy
W U
W ard
W all
a tives
b ic
e ase
h ol
h ow
i ams
m ans
o ating
p ur
y out
å Ń
Ġ ce
Ġ und
Ġ other
ľ ĭ
áģ º
áĢĲ áĢĮ
ĠáĢĲ áĢŀáĢķ
áĢķ áģ¼
ĠáĢĢ áĢŀáĢļ
ĠáĢĢ áĢĢáĢĢáĢĲáĢħ
ĠáĢķ áĢĿáĢĲ
áĢĽ áĢģáĢĦ
áĢĽ áĢŀáĢĺ
áĢ² /
áĢ² áĢ»áĢ·
áĢ« '
áĢľ áĢ¡áĢĲáĢĶ
áĢ½áĢ± /
ĠáģĬ âĢĵ
áĢ±áĢ¬áĢ· .
ĠáĢļ áĢĿ
ĠáĢĬ áĢĢáĢľáĢĬ
ĠáĢĲáĢĽ áĢĭ
ĠáĢħáĢħ áĢģ
ĠáĢ¥ áĢľ
áĢĩ áģ¹
áĢĮ áĢŁ
ĠáĢŀáĢĢ áĢĴ
áĢľáĢĢ áĢĻ
áģĦ áģĥáģĥ
áĢĶáĢĢ áĢĢ
ĠáĢĽáĢŀ áĢĽ
áĢ»áĢ® áĢ¯áĢ¸
Ġáģħ áģģáģĩ
Ġáģħ áģģáģĢáģĢáģĢ
ĠC PP
ĠC BS
ĠC RI
ĠC rop
ĠM n
ĠM t
ĠN ur
ĠN ich
ĠáĢķáĢĳáĢĻ áĢķáĢħ
ĠS G
áĢĻáĢĢ áĢĲ
ĠA L
ĠáģĨ áģģáģĥ
Ġáģĩ áģĤáģĤ
Ġáģĩ áģĩáģĪ
ĠP ag
ĠT ap
ĠT ick
áĢĢáĢħ áĢĲáĢĦ
ĠF eng
ĠF itness
ĠáĢĻáĢģ áĢħ
it ure
ĠáģģáģĤ áģģáģĢ
ĠáģģáģĤ áģĦáģĨ
ĠI f
ĠR ic
ĠR at
ĠG ang
ĠG EM
ĠáģģáģĪ áģĤáģģ
ĠáģģáģĪ áģĦáģĩ
ĠáģģáģĪ áģĦáģĨ
ĠáģģáģĪ áģĦáģģ
ĠL ia
as one
áģģáģĪ áģĦáģĦ
Ġáģģáģĥ áģģáģĦ
áģģáģħ áģģáģĢ
áģģáģĤ áģĩáģħ
ĠW ong
ĠáģģáģĦ áģĤáģĢ
ĠáģģáģĦ áģĩáģħ
ou p
ed t
ol ia
CA P
áĢ§ áĢĢáĢķ
áģģáģĩ áģģáģĦ
áģģáģĩ áģīáģģ
ĠJ i
ĠJ us
ĠJ iang
ĠY ut
oc ent
ch ang
ĠáģĤáģī áģħáģĢ
áĢĢáĢĮ áĢĻ
Ġt ouch
ĠThe H
ĠThe in
ul u
ul atory
Ġs um
Ġc r
ew able
ap tist
áģĥáģĨ áģĢáģĢáģĢ
ĠáģĦáģħ áģĤ
ĠáģĦáģħ áģĪ
ĠáĢ¹ áĤıáĢ½
áģīáģĢ áģħ
In st
In stitution
áģĥáģī áģĢáģĢ
ud a
PC W
ĠTh a
ĠTh ong
ĠTh esis
qu is
ĠAn al
St ructure
ĠPh oenix
áĢºâĢĭ áĢ¸âĢĭ
áģĦáģĪ áģĨ
EA R
per ia
iv ed
ĠAl ert
ĠEx tension
Ġg un
ĠáĢ¡áĢħáĢĢ áĢĲáĢĬ
ĠComm it
con n
amp s
ER AT
Ġst ep
The Voice
ea ve
row ser
ĠAd visor
Ġ0 4
ĠMA P
à¸ ¡
ĠAir Asia
ĠBr ad
ĠBr anch
ĠTrans national
ĠÂł Âł
Ġac tiv
ĠQ Z
ĠáģģáģģáģĦ áģĦ
Ex po
An imal
HA M
Ġk n
ĠPR O
Mr s
ĠDay s
Ġ09 4
ĠSky net
Photo Google
For est
ĠMPC áĢĢ
ĠSun tec
esh ield
áĢºáĢº áĢºáĢº
ĠZh ong
Pr int
ĠFed er
ĠCNF áĢĢ
akh on
Tel ecom
osph ere
ĠAng el
utt ing
ĠSim on
ĠOcean ian
umb ia
ĠAustral ian
Kh in
pir atory
ĠVideoConferencing áĢĸ
ĠXia omi
ĠSin ovac
Lab our
eal and
ÂłÂł ÂłÂł
ĠOpp o
USA ID
Â±Â± Â±Â±
aki art
âĻ«âĻª âĻ«âĻª
ĠWild life
ĠWel come
gent a
ĠBR ICS
ĠUNC TA
Bio NTech
iol ence
Ġmind set
ĠMut ual
ĠGO LD
ĠáĢ§áĢĿ áĢĽáĢĢ
ĠIL BC
ĠJust in
isd iction
odor oki
ĠOverse as
âĻ¬âĻª âĻ©âĻŃâĻ«âĪ®
ĠArth ur
ðŁİ ĭ
ĠOptim ist
ĠKore an
theriver news
ienti st
1 20
> >
B agan
G ym
H olland
J ames
K in
L in
L ar
M CC
M ind
N ay
S ign
S afe
b usiness
d ong
h ya
k ov
m or
o T
p oss
r ag
r iting
u ti
w eg
w ei
Ï Ģ
Ð ¾
áĢ± âĢĿ
áĢ± âģł
áĢ± áĢ»áĢ¾áĢ¬áĢº
áĢĢ áĢ¡áĢĲ
áĢ±áĢ¬ áģĬ
ĠáĢ¡ áĢĥ
ĠáĢĢ áĢķáĢĦ
áĢĻ áĢħáĢĬ
áĢĻ áĢĮ
áĢģ áĢĻáĢĬ
áĢ¶ áģĬ
áĢ¾áĢ¯ âĢĭ
áĢ½áĢ² .
ĠáĢ¡áĢĽ áĢĢáĢĻ
ĠáĢ¡áĢĽ AA
ĠáĢ¡áĢŀ áĢĻ
ĠáĢĬ áĢħáĢī
áĢĮ áĢķ
áĢĮ áĢĢáĢĢ
áĢĲáĢĢ áĢĹ
áĢ»áĢ¬ áģĭ
ĠáĢ¡áĢĨ áĢĽ
ĠâĢ ¡
áģĢáģģáģ ģáģĤ
áģĩ áģģáģĤ
áĢĲáĢĻ áĢĻáĢĶ
áģī áģĩáģħ
ĠáĢĽáĢŀ áĢĺ
Ġáģħ áģģáģħ
Ġáģħ áģĤáģĨ
Ġáģħ áģĥáģĤ
Ġáģħ áģĩáģĩ
Ġáģħ áģĩáģĪ
ĠM aw
ĠM ons
ĠN TU
ĠáĢķáĢĳáĢĻ áĢŁ
ĠáĢķáĢĳáĢĻ áĢĹ
ĠA Y
ĠA lan
ĠáĢĽáĢĻ áĢĳ
Ġáģĩ áģĥáģĤ
ĠáĢ¤ áĢĶ
ĠP V
ĠP ir
ĠT itan
ĠF eedback
it ecture
ĠB un
ĠB um
ĠB ak
ĠB uk
ĠáģģáģĤ áģģáģĥ
ĠáģģáģĤ áģĥáģĩ
ĠáģģáģĤ áģĦáģī
ĠáģģáģĤ áģīáģĩ
ĠD B
ĠD er
at re
ĠG rain
áĢ¼áĢ±áĢ¬áĢº .
ĠH ug
ĠK um
ĠU RL
ĠU pper
el ih
ĠL ap
ĠL uk
ĠE NAC
áģģáģĪ áģħáģģ
áģģáģĤ áģģáģħ
áģģáģĤ áģĩáģĢ
ĠW T
ĠW oman
ĠáģģáģĦ áģĨáģĢ
ĠáģģáģĨ áģĥáģĨ
ĠáģģáģĨ áģĨáģħ
áģģáģĩ áģĪáģĪ
ĠJ ETRO
áģĤáģģ áģĢáģĢáģĢ
ur on
ĠV enture
ĠY QR
us áĢĻ
ĠáģĤáģĩ áģĢáģĢáģĢáģĢ
ch i
áģĤáģĢáģģáģī áģĤáģĢ
ĠáģĨáģĢ áģħ
Ġt ake
ĠThe Irrawaddy
ul ate
ra el
ew oo
Ġm en
ab ad
ab out
our age
ĠMr S
Ġb etter
áģĩáģħ áģī
eg en
ĠKNU áĢĻ
ĠáĢ¾ áĢ®
ĠáĢ¾ áĢ®áĢ¸
qu ency
áĢº.. "
ex ico
St ock
ld ers
ace u
áģĦáģĪ áģī
end ment
ĠáĢ½ áĢ¾áĢ±
ĠEx tr
SSA áĢĲáĢķ
ĠAR V
ile ver
ĠáģħáģĨ áģĤ
eng al
ĠNR GI
Ġa f
ĠMy Co
ĠNGO áĢĻ
Ġ0 2
ĠMar ina
âĢ¬ âĢ¬
ĠMo isturizer
to M
ĠWh o
ĠáģīáģĢáģĢ áģĢáģĢáģĢ
ĠCCTV áĢĻ
ĠQ áĢĿáĢĦ
ĠEm manuel
ĠTV áĢĢ
ĠPark Royal
ĠDis k
ĠáģģáģģáģĪ áģĩ
ĠPositive áĢĳ
Ġde ad
ĠBar b
EN T
amb oo
ĠCr iter
ĠStayatHome áĢĻ
arch y
Cor p
ĠShow room
Cont ent
ĠPan Aust
dr agon
Trans port
ĠInstitution al
ĠBOT áĢħáĢĶáĢħ
Ġz one
ĠSMEs áĢľ
One Road
ĠART áĢĨ
ĠColl agen
Ġï ĥĺ
At t
ĠMoh ammad
Times áĢŀáĢĲáĢĦ
pir ation
cont in
ĠProv ider
ĠPhotos hop
ĠPun áĢĢ
áĢ¸áĢ¸ áĢ¸áĢ¸
FR EL
Ġmo tivation
Ġreg ister
osc ow
ĠKW AT
imb un
Ġdem ocracy
Aust ral
ĠDiv ide
ĠRemdesivir áĢĨ
ĠIntel lectual
ĠCel ebrity
oos evelt
Self ie
ĠNit rogen
ĠBed room
ĠSep ar
wid th
myanmarlatest news
âĻ«âĻªâĻ«âĻª âĻ¬âĻªâĻ©âĻŃâĻ«âĪ®
elih ood
9 001
A z
C amb
E lection
E vent
F ight
G am
H aw
L Y
M atch
M ilitary
M echan
O h
O o
O ctober
R am
S olution
S olar
W S
d el
h um
i ot
l ation
n ight
s k
s ky
t om
t ing
w alk
y roid
áĢĢ áĢľáĢĻ
áĢ½ áĢŃáĢ¯áĢ·
ĠáĢĻ áĢ¡áĢħ
ĠáĢĲ áĢĨáĢĶ
ĠáĢ¡ áĢĮáĢĻ
ĠáĢĢ áĢĢáĢĶáĢ¦
ĠáĢŀ áĢĵ
áĢĽ áĢĻáĢĽ
áĢ® áĢ®
áĢŀ áĢĿáĢı
áĢģ áĢĨ
áĢģ áĢĳ
áĢģ áĢĢáĢķ
áĢ²áĢ· "
ĠáĢħ áĢĳáĢĽ
áĢŃáĢ¯áĢ¸ (
ĠáĢļ áĢķáĢĢ
ĠáĢ¡áĢĽ áĢħáĢī
ĠáĢ¡áĢĽ áĢĶáĢħ
ĠáĢ¡áĢĽ áĢ¡áĢļ
ĠáĢ¡áĢĢ áĢĻ
áĢı áĢħ
áĢı áĢĢáĢĶ
áĢı áĢĳáĢĢ
áĢ½áĢ²áĢ· âĢĭ
ĠáĢĤ áĢľáĢĢ
ĠáĢĤ áĢĽáĢĢ
ĠáĢĬ áĢĸáĢĢ
ĠáĢĩ áĢĿáĢĶ
áĢĵ áĢĨáĢĦ
áĢĮ áĢĹ
áģħ áģĤáģĪ
ĠáĢ¡áĢĨ áĢĲáĢħ
ĠáģĢ áģĤáģħ
ĠáĢĮ áĢ¦
áĢ¾áĢŃáĢ¯ áĢ¯
ĠáĢĽáĢŀ áĢķ
er on
ĠáģĦ áģģáģĢáģĢáģĢ
on o
ĠC ulvert
ĠM ob
ĠM ister
ĠM ixed
ĠN G
ĠS r
ĠS we
ĠS etting
ĠS ensitive
áĢĢáĢķ áĢħ
ĠáģĨ áģĥáģħ
or ry
ĠáģĪ áģīáģĩ
ĠáģĪ áģīáģĪ
Ġáģĩ áģĩáģģ
ĠP eng
ĠP act
ĠP ush
ĠP urpose
ĠT ian
Ġáģī áģĨáģħ
Ġáģī áģĨáģĩ
áĢĻáĢģ áĢĻáĢĤ
ĠF ab
ĠB Y
ĠB áĢĢ
ĠáĢħáĢĻ áĢķ
ĠáģģáģĤ áģĩáģĪ
ĠáģģáģĤ áģĪáģģ
ĠD HA
ĠD oug
at um
ĠH ex
ĠH AG
ĠK V
ĠK w
ĠK ang
ĠáģģáģĪ áģģáģĢ
ĠL at
ĠL um
ĠL ud
ĠáĢĽáĢ¡ áĢĻáĢĬ
áģģáģĤ áģģáģĤ
ĠW here
ĠáģģáģĦ áģĩáģĢ
ĠáĢī áĢĲ
ĠáĢĲáĢľ áĢĲ
st ream
st udy
ad ers
áģģáģĩ áģīáģĢ
áģģáģĩ áģīáģĩ
áģģáģĩ áģħáģĥ
ĠO d
ĠO ly
ĠáĢģáĢı áĢķ
áģĤáģħ áģģ
ĠV in
ĠY ing
ĠY uan
ĠY atai
ĠáĢĻáĢ¡ áĢĤ
ot ine
ch ing
ch ester
Ġp ri
Ġc ore
ew is
ew ill
ĠCh icken
im it
Ġm iss
ab ar
og lob
our g
áĢĺáĢĿ áĢŀáĢħ
ĠPro biotics
áģĥáģĩ áģĢáģĢáģĢ
áĤ ģ
ĠCom fort
Ġáģĩáģħ áģħ
Qu een
ef ore
ĠKNU áĢ¥áĢĢ
ĠKNU áĢĹáĢŁ
áģĥáģī áģĥ
ĠTNLA áĢĲ
if y
ĠTh ilawa
ĠáģĥáģĦ áģħáģĢ
ĠRCSS áĢĶ
qu ality
ĠĠ Ġ
áģīáģī áģĥ
lic ations
lan tic
ech at
ĠáģĦáģĪ áģĩ
ĠáģĦáģĪ áģī
Ġh air
Ġáģĥáģī áģĢáģĢáģĢ
ĠPr as
ĠPr ison
ĠáģĨáģĨ áģĤ
Ġn ight
ah i
ok er
Ġáģħáģī áģĨ
Ġ4 3
ĠMan uel
ish ield
ĠCo C
Ġr ate
ĠOr ange
ĠFDA áĢĻ
Ġáģħáģĩ áģī
ĠSch olar
ĠáģĨáģĩ áģĦ
ĠOn ly
log y
ĠCont inu
pl ain
ĠBr on
Ġ9 9
ator s
11 7
aj a
ati tis
ĠMin h
ĠáģģáģģáģĦ áģħ
TNLA áĢĢ
áĢĻáĢĩ áģ¥
ĠEm ployment
ĠReg ulation
áģģáģīáģĦáģĢ áģĦáģģ
Ac cord
ĠBlack list
ĠCommunity Standard
orn áĢĢ
ĠáģĢáģī áģĤáģħ
tim ate
ĠáģģáģģáģĪ áģħ
ĠPPST áĢĢ
ĠGAP áĢħáĢĶáĢħ
ett a
iter ature
par ed
rak ing
ĠTest ing
til ity
ĠBook s
ĠZh ou
ĠAccount ing
Ġres ult
Pr actice
Ġhe at
Ġpl atform
ĠSpecial ist
ĠJapan ese
Fl u
ĠSD Gs
ĠCheck list
Trans fer
ĠWFP áĢĢ
áĢĺáĢĺ áĢ¦
Work ing
ĠRap e
Ġper mit
ĠEss ential
John son
IG HT
ĠPhotos ynthesis
ĠSte ering
ĠBir th
ĠKD NG
Environment al
Strate gic
ĠGre ater
ðĿ Ĺ
ĠWil son
Ġfre eradical
++++ +
ĠJur ong
Ġteach er
ĠInvestig ative
ĠUC L
âĸłâĸł âĸłâĸł
ĠKC NA
ĠAfric a
ĠDraw ing
elan in
Ã¢ t
ĠRog er
ĠNCG UB
upt aáĢĢ
ĠRAS U
A y
B RI
C NA
C irc
C lear
D V
E c
J ob
K e
K umar
M em
M its
N ote
P L
P en
R unner
V ersion
W ide
g ae
l en
m ind
o D
q a
q iang
r ence
z an
áĢ¬ áĢ°
áĢĢ áĢĻáĢĲ
áĢŃáĢ¯ áĢ±
áĢĲ áĢ¡áĢĻáĢĬ
ĠáĢĻ áĤĢáĢĢ
ĠáĢĲ áĢĲáĢĢ
ĠáĢĢ áĢĤ
áĢħ áĢĽáĢĶ
ĠáĢķ áĢľáĢĶ
áĢŃáĢ¯áĢ· .
ĠáĢĨ áĢŀ
ĠáĢĨ áĢģáĢĶ
áĢ¾áĢ¬ âĢĭ
áĢĿ áĢĻáĢĢ
áĢĿ áĢĻáĢľ
áĢĴ áĢĻáĢĽ
ĠáĢ¡áĢĻ áĢĤ
ĠáĢ¡áĢĽ áĢĢáĢļ
ĠáĢ¡áĢĽ áĢĻáĢķ
ĠáĢĻáĢĽ áĢľáĢĬ
áĢĵ áĢħ
ĠâĢ ¬
áģĪ áģĩáģħ
áģĦ áģĥáģī
áĢĲáĢĻ áĢ¡
áĢĽáĢĢ áĢķ
er ia
on ing
ĠC HO
ĠC HE
áĢ»áĢ± áĢ±áĢ¬áĢº
ĠM L
ĠM es
ĠN AG
ĠáĢķáĢĳáĢĻ áĢ¡áĢļ
ĠS ut
ĠA BA
áģĤáģĢ áģĤáģĩ
Ġáģĩ áģĪáģħ
ĠP ep
ĠP ink
ĠT oh
es ium
ĠF ro
ĠF RC
ĠF NG
ĠF FI
ĠáĢĻáĢģ áĢķ
ĠáĢħáĢĻ áĢľ
ĠáģģáģĤ áģĥáģĥ
ĠáģģáģĤ áģĪáģĦ
ĠáģģáģĤ áģĩáģī
ĠD ial
ĠI LA
ĠR and
ac ht
ĠáĢĻáĢĻ áĢĴ
áĢ¼áĢ±áĢ¬áĢº áģĬ
el ines
ĠL LB
ĠE DS
ĠNLD áĢģ
áģģáģĪ áģģáģģ
áģģáģĪ áģĦáģħ
Ġáģģáģĥ áģĤáģĢ
Ġáģģáģĥ áģħáģĢáģĢáģĢ
Ġáģģáģĥ áģħáģĪ
áģģáģĤ áģīáģĢ
áģģáģĤ áģĪáģħ
áģģáģĤ áģĨáģħ
áģģáģĤ áģĨáģī
le ic
he at
ou b
am y
ol an
ĠáĢĻáĢĤ áĢĶ
áĢ¤ áĢĶáĢĬ
ad ol
áģģáģĥ áģĤáģħ
ĠJ J
ĠV S
ĠV HS
of B
ĠIn iti
áĢĽáĢĽ áĢ¡
ch er
ia áĢľ
Ġt alent
áģĦáģĢ áģĥ
áĢĻáĢĸ áĢģáĢĦ
Ġs im
Ġs olution
Ġc hemical
ap a
Ġf in
Ġf ield
Ġf amily
ht he
ĠUN F
ĠPro per
áģĥáģĩ áģĤ
ip áĢĢ
Ġd a
áģĦáģħ áģĪ
ĠáģĪáģĪ áģĤ
ide os
av ir
se en
ry ption
ĠTr uth
Ġ2 50
áĢĻáĢ¡ áĢĺ
ĠáģĨáģħ áģĢáģĢáģĢáģĢ
ung áĢĢ
iss ance
ĠáĢ½ áĢŃáĢ¯
EA F
EA M
Ġáģħáģħ áģĤ
Ġáģħáģħ áģĨ
ach us
ism áĢĢ
RC EP
Ġn ow
SSA áĢ¡áĢĸ
Ġâģł áĢ±âģł
ĠQuarantine áĢģ
ĠáģģáģĤáģĢ áģħ
ĠCor ridor
con f
ĠInd onesia
ĠDr um
io let
Ġ201 0
ĠáģĦáģī áģĨ
ish op
ĠSc ientific
ree k
ĠAg ainst
ĠAd s
man agement
ĠPl ate
Sh ang
ĠOn go
ĠMA EX
mit ment
à¸ µ
ĠMS I
NCA áĢĢ
MP U
min i
ĠBank áĢĢ
Ġac tive
Facebook áĢķ
áģģáģģáģĦ áģĨ
ĠWork er
ĠáģģáģģáģĦ áģĨ
ĠWe ight
att ing
ĠCB O
Ac cess
ĠChar oen
ĠPer manent
ĠRec overy
ĠSur veillance
ĠáģģáģģáģĪ áģĥ
áģĢáģī áģĤáģħ
Plan ning
pro fit
System áĢĢ
ari at
áĢµ áĢŃáĤĤáĢ¸
ĠBi ology
til ateral
à¤ °
ĠNV áĢĢáĢĲ
ĠStandard s
CN N
Gu idelines
ĠIns ight
88 8
200 8
ĠáĤ į
ĠAIDS áĢĽ
acter ial
ran ational
ĠAdv ocacy
áĢĺáĢĺ áĢľáĢĲ
ĠDoing Business
ĠMN D
Sup ply
ĠPhil ippines
ĠGenocide Convention
incip le
Public Co
ĠHRW áĢĢ
ĠSol idarity
ĠABC D
Pre vention
Ġter rorism
col i
ĠáĢľáĢĿ áĢĢáĢĢ
ĠLot us
ĠTri angle
ĠBur gener
nes ium
âĹ Ĭ
ĠMont ana
Ġorgan ization
Anti gen
etermin ed
arw addy
ĠExcell ence
ĠIM db
Mag azine
ĠSor ry
ĠLux ury
Fort une
ĠKle ptocracy
ĠEmp ire
ĠLiqu id
Coord in
ĠHarm ony
Anal ysis
prom ise
ĠStarbuck s
ĠDoctorofSciences áĢĺ
ofCon duct
Provisional Measures
3 50
A lex
B GB
B ilateral
C hem
C ulvert
G allery
K S
K ye
L ian
M en
M useum
T F
T oday
V E
V is
V EN
Y ang
a ut
b oy
c ore
c ert
f i
g est
h on
h anáĢĢ
l ate
n ormal
o áĢĲ
o tism
s g
s up
Ã ¡
Ġ art
Ġ áĤĢ
Ġ use
áĢ± :
áĢ± áĢ»áĢ¬
áĢĢ áĢĸáĢĻ
áĢŃáĢ¯ (
áĢ· áĢ½áĢ¶
áĢ±áĢ¬ .
áĢķ áĢĽáĢĢ
ĠáĢĢ áĢħáĢī
áĢĻ áĢĨáĢļ
ĠáĢľ áĢ¡
áĢ® áĢºáĢ¹
áĢŀ áĢ¡áĢĶ
áĢľ áĢķáĢĶ
áĢľ áĢĺáĢĻ
áĢ¶ /
ĠáĢħ áĢĳáĢĻ
áĢ®áĢ¸ áĢ±
áĢĿ áĢĤ
áĢĴ áĢ¿
áĢĺ áĢĳ
áĢĺ áĢľáĢħ
ĠáĢ¡áĢĻ áĢ¡áĢĢ
ĠáĢĹ áĢ¡
áĢ«áĢ¸ áģį
ĠáģĤ áģģáģħáģĢáģĢ
áĢĻáĢĲ áĢŀ
áĢĻáĢĲ áĢķáĢĬ
ĠáĢĩ áĢĹ
áĢŀáĢĻ áĢĢ
áĢ¼áĢ® .
áĢ¼áĢŃáĢ¯ .
áĢĲáĢĶ áĢĶ
áģħ áģĨáģħ
ĠáĢĲáĢĲ áĢĬ
ĠáĢĲáĢĲ áĢĽ
áģģ áģĢáģģáģĤ
áģĦ áģĤáģĥ
ĠáĢĻáĢĶ áĢŀ
ĠáĢĽáĢĽ áĢĻáĢĬ
ĠáĢŀáĢĶ áĢĻ
áģĩ áģģáģĢ
áĢ¡áĢĻ áĢĢ
áĢ¡áĢĽ áĢģ
áĢ¾áĢ¶ áĢ¶
Ġáģħ áģĤáģģ
Ġáģħ áģĤáģĤ
ĠM eng
ĠM AR
áĢ»áĢŃáĢ¯ áĢ°áĢ¸
ar iáĢĢ
ĠN DP
ĠN ever
ĠN EP
ĠS Y
ĠS ter
ĠS evere
ĠS MART
ĠS ultan
áĢ¼áĢ½ áĢ®
en tic
ĠA j
ĠáģĨ áģĤáģĨ
ĠáģĨ áģĥáģĪ
ĠáģĨ áģīáģħ
ĠáģĨ áģĦáģī
ĠáģĨ áģĦáģĢáģĢ
or p
ĠáģĪ áģĦáģī
ĠáģĪ áģīáģĤ
Ġáģĩ áģĤáģĩ
Ġáģĩ áģĨáģĨ
ĠP seud
ĠáģĤáģĢ áģĤáģĩ
ĠT et
ĠT odoroki
es áĢĻ
Ġáģī áģīáģĪ
it her
ĠB od
Ġáģģáģħ áģĤáģĩ
Ġáģģáģħ áģĩáģħ
ĠáģģáģĤ áģĤáģģ
ĠáģģáģĤ áģĨáģĩ
ĠáģģáģĤ áģĩáģĦ
ĠD AC
ĠI ss
ĠR on
ĠR ural
om ething
ĠK T
ĠK in
ĠK at
ĠK id
ĠK ill
ĠK itchen
ĠáģģáģĪ áģĥáģĪ
ro v
il ight
ĠNLD áĢĢáĢķ
áģģáģĤ áģīáģī
áģģáģĤ áģĦáģĨ
ĠW ag
ĠW MR
Ġáģģáģĩ áģħáģī
et al
st one
and Road
áĢ¾áĢº áĢŃ
id as
ĠO t
ĠJ our
ĠV ib
un ya
ot onin
ĠMyanmar DigitalNews
ir on
áĢĽáĢĽ áĢľ
ĠáģĤáģĪ áģħáģĢ
ĠáģĤáģĪ áģĢáģĢáģĢáģĢ
ch at
ce p
ĠáģĨáģĢ áģĩ
Ġt echnology
Ġp romotion
ĠCh i
ap t
up áĢķ
áģĤáģī áģħáģĢ
Ġm illion
og lu
ĠRC áĢĪ
ĠáģīáģĢ áģĤ
ĠáģīáģĢ áģĩ
DP N
áģīáģĢ áģĦ
Ġb ed
ov ago
ers áĢĻ
In tern
In sp
Ġw oman
áģĥáģī áģģ
ĠQu otient
ain áĢĢ
ĠTh it
ĠAn ne
ph ant
ĠáģĨáģħ áģĨ
ĠáģĨáģħ áģĩ
ĠEn c
ĠAl p
ary n
ĠáģĦáģĨ áģĦ
ĠáģĦáģĨ áģī
ĠáģĦáģĨ áģĢáģĢáģĢ
ĠCP R
ĠáģĦáģĩ áģĤ
ĠJMC L
con dition
ĠBl ink
Ġon ly
ina áĢĢ
Ġ5 7
áĢ½áĢŃ áĢ±
áĢ¡áĢĺ áĢ¦
ĠPe uge
ĠAd ams
ĠSch raner
ĠPl astic
ĠGlobal Witness
Ġ0 8
áģģáģĤáģĢ áģĤáģĢ
ĠMar uy
ĠáģģáģĥáģĢ áģĨ
ĠHIV áĢĽ
Ġ6 6
AT M
Ġ9 6
Ġáģģáģģáģħ áģĢáģĢ
ĠáĢĶáĢĿ áĢĴ
Tr ading
ĠEm power
sc he
Quarantine áĢĿáĢĦ
ĠGAP áĢĶ
Or der
ĠVol ume
ĠSoft Power
ĠHar ry
ĠAC HC
ĠCSO s
He ad
ĠUnited Nations
Pol itics
Ġqu ality
ĠAS IA
oil et
OP IA
ĠPan asonic
Institute áĢĻ
ĠNH S
ĠTeach ers
Ġim pact
ĠLead ers
ĠPat rol
ĠList ed
Ġfl avonoids
ĠEC G
yt echn
ĠIndustry áĢĢ
osph ate
áĢľáĢĺ áĢĲáĢĽ
ĠMem or
ĠUnivers ities
achin ery
Ġanti bodies
RE E
ours elf
egr ity
ĠRet urn
Rec ord
ĠPT TEP
ĠSign al
ĠEc osystem
Chin ese
Ġskill s
ĠBO D
ogen ic
ĠNoVote áĢľ
ĠDiv ision
Ġgr ade
Ġdel ivery
Ġadd ed
Phot ocredit
Ġï¼ ī
ĠASF áĢĽ
ĠeS port
alsef alsefalse
irth day
ĠMent or
ĠMyaw addy
ĠAmar a
ĠPom pe
ĠLov ely
igen ous
ĠAlt air
Lou is
ĠAmbient e
ĠGEM BA
aceu tical
A er
B os
B rain
C orn
D ot
G ar
H ydro
I f
I FC
K amar
M i
M yan
M ur
O pp
P i
P ersonal
S ale
V s
W H
b ell
b ury
e ine
i i
j ust
l op
l eráĢĢ
m aker
o V
o es
p en
p ublic
s pe
t othe
æ ľ
áĢ¬ áĢ¼
áĢ¯ (
áĢ¯ áĢ¬áĢ¸
áĢ¯ áĢºáĢ¯
áĢ± áĢ¾
áĢŃáĢ¯ áģĭ
áĢĲ áĢħáĢħ
áĢĶ áĢ¡áĢĳ
áĢ¾ áĢ¾áĢŃ
ĠáĢĻ áĢĨáĢļ
ĠáĢĲ áĢĸáĢĲ
ĠáĢ¡ áĢĩáĢĦ
áĢĻ áĢĩáĢĦ
áĢĻ áĢ¡áĢģáĢĶ
áĢħ áĢĻáĢĶ
áĢ¬áĢ¸ áĢ±
áĢ±áĢ¸ (
áĢ®áĢ¸ áģĭ
áĢ¡ áĢŁáĢĶ
ĠáĢĳ áĢĳ
áĢ½áĢ± .
ĠáĢĺ áĢĨ
áĢĴ áĢĽáĢĢ
ĠáĢ¡áĢĻ áĢħ
ĠáĢ¡áĢĻ áĢĲáĢĽ
áĢ¼áĢ± áĢ®
áĢı áĢĺ
áĢı áĢĢáĢĢ
ĠáĢĲáĢĢ áĢĲ
áĢ¼áĢŃ áĢ®áĢ¸
áĢĩ áĢľáĢĶ
ĠáĢĻáĢŁ áĢķ
áģħ áģĦáģħ
ĠáĢĲáĢĶ áĢĢ
áģĪ áģħáģĢáģĢ
áĢĢáĢĻ áĢĢ
ĠáģĦ áģĤáģĥ
ĠC áĢķ
ĠC ement
ĠC HA
ĠC SI
ĠC afe
ĠM ate
ĠM ey
ĠN LP
ĠN urs
ĠáĢķáĢĳáĢĻ áĢ¡áĢľ
ĠS ah
ĠS ule
ĠS elling
ti ge
ĠáģĨ áģĤáģĢáģĢ
ĠáģĨ áģĤáģĦ
ĠáģĨ áģīáģī
al in
ĠáģĪ áģĦáģħ
ĠáģĪ áģĦáģĩ
Ġáģĩ áģĦáģĨ
ĠP SA
ĠáģģáģĢ áģīáģħ
ĠT P
ĠT al
ĠF P
ĠF atty
ĠF isher
ĠF ellowship
ĠâĢĪ Ġ
ĠB u
ĠB ubble
ĠB eyond
áĢģáĢı áĢģ
ĠD OC
ĠD raft
áĢĻáĢľ áĢĶ
ĠI RC
ĠR u
ĠR aw
at onin
ĠG W
ĠáģģáģĪ áģĤáģĩ
ĠáģģáģĪ áģĤáģī
ĠL int
ĠL yn
ĠL INE
as at
as ma
ĠE CC
ĠE DCF
ĠNLD áĢ¡áĢĲ
Ġáģģáģĥ áģģáģģ
ĠW er
ĠW ash
ĠáģģáģĦ áģĪáģĢ
am aáĢĢ
Ġáģģáģĩ áģĪáģĪ
Ġáģģáģĩ áģĨáģĥ
ed ucation
et ch
et ts
áģģáģĦ áģīáģĤ
ad v
áģģáģĩ áģīáģĥ
áģģáģĨ áģĪáģĢ
ĠJ U
ĠJ ing
áĢŀáĢļ áĢĿáĢĦ
ĠV eter
ĠV ijay
of DoingBusiness
áĢ© áĢĥ
ĠáģĤáģĨ áģĢáģĢáģĢáģĢ
áĢĿáĢĻ áĢĸ
ig o
ig her
áģĪáģĢ áģī
Ġs ensor
ĠCh ak
os por
ut es
ut ral
ĠáģĪáģĢ áģĦ
uc t
our c
áĢļáĢĻ áĢĻáĢĦ
áĢļáĢĻ áĢ¡áĢĸ
tic ultural
PP ST
Ġáģģáģīáģħ áģĢáģĢ
Ġb rain
ov en
Ġw ay
iz ing
EC áĢĢ
FC O
ĠQu ad
áģĪáģħ áģĪ
ĠPh yt
áģīáģī áģĨ
áģĦáģĪ áģĢáģĢáģĢ
ĠáģĨáģħ áģĤ
Ġáģħáģħ áģĢáģĢáģĢáģĢ
iv ision
ĠAl f
ĠEx pect
áĢĢáĢĳ áĢľ
ðŁ Ķ
ĠPr ide
IT C
ĠáĢ¼ áĢ»
ĠQuarantine áĢľ
Ġfor ce
ĠGr aduate
áģĦáģī áģģ
Ġst ore
The in
ool s
ĠáģĦáģī áģĤ
ĠPol itic
ĠWorld wide
ĠComp act
the m
ĠOr d
áģĩáģĪ áģĩ
ĠAd am
af ed
Ġpro v
ĠáģģáģĥáģĢ áģģ
ĠAss urance
ĠMA V
à¸ ¢
à¸ ģ
ĠFr es
ĠCont ain
ĠCont ainment
ĠSup ervisor
áģģáģĪáģĢ áģī
ith m
ĠCol onel
ĠCar go
ĠMO M
ĠGDP áĢĲ
ĠáģģáģģáģĤ áģī
ĠEm peror
US DA
ĠReg ent
Ġis ot
Ġth ird
ĠAb e
ĠUNDP áĢķ
Ġk now
Ġk nowledge
ĠáģĢáģī áģĩáģĩ
ĠPS I
ĠPositive áĢĲ
ĠMPT áĢĢ
ĠCompany áĢĢ
ĠAC T
oth ers
Im pact
ĠáĢ½áĢ¾ áĢ½áĢ¾
ĠUp grade
ĠMul timedia
ĠSe in
New York
ĠExpress áĢĢ
epend ence
Gen ocide
ĠNe uro
ĠSil icon
urg ical
ĠInn ov
ĠBang ladesh
emb ourg
ĠPet rol
Mon itoring
Ġcor ruption
ĠVirtual Meeting
Cons ervation
ĠHack athon
ĠRet ail
ĠAbd ullah
ĠâĢĪâĢĪâĢĪâĢĪ âĢĪ
Ġinter est
Per mit
ĠPT T
Ġen ergy
ĠJan uary
ĠKe ep
ĠMill er
ĠJob s
ĠSC G
YBS áĢļ
Ġcamp aign
BM U
Ġsex y
ĠIF ES
ĠExper t
ĠExper ience
Mess age
cor p
ĠViv o
asht ag
âĻ© âĻª
ruct ural
Influenza A
kel ey
Sex y
ĠMond ay
ĠBound ary
âĺħ âĺħ
ĠPier re
prov ement
yton utrients
Aug ust
ĠChow dhury
yout u
ĠCommit ment
ĠPeuge ot
1 30
@ @
B ag
D ig
G R
G et
H RC
J A
L ai
M K
M TA
M att
N or
S áĢĲ
S ong
S oe
U r
X uan
f all
g ender
h in
h ill
i ant
l it
n ut
s berg
t ory
w ebsite
z i
å ľĭ
Ġ own
Ġ enc
áĢŃ áģĭ
áĢĢ áģ½
áĢ· áĢ¬
áĢĲ áĢ£
áĢķ áĢĢáĢĻ
áĢħ áĢĲáĢļ
ĠáĢķ áĢķáĢĢ
ĠáĢŀ áĢĽáĢĶ
áĢļ áĢĻáĢĨ
áĢģ áĢĢáĢľáĢĬ
áĢľ áģ»áĢĢ
áĢ±áĢ¬áĢº )
áĢºáĢ· (
áĢĳ áĢ¡
ĠáĢ¡áĢĻ áĢģ
áĢ±áĢ«áĢº âĢĮ
ĠáĢ¡áĢĽ áĢķáĢĲ
ĠáĢ¡áĢĽ áĢļáĢī
ĠáĢĿ áĢĿáĢĿ
ĠáĢľáĢĢ áĢĦ
áĢ½áĢ¾ áĢ·
ĠáĢ¥ áĢķáĢĶ
áģĦ áģĪáģĪ
áģĦ áģīáģħ
áģĨ áģģáģĤ
áĢ¡áĢĢ áĢĦ
an al
ĠáĢħáĢĽ áĢĸ
áĢĢáĢĽ áĢĬ
in áĢĵ
ĠM og
ĠM ach
áĢĻáĢĽ áĢħ
en et
áĢĻáĢĢ áĢħ
ti le
ĠáģĪ áģģáģĥ
Ġáģĩ áģĩáģĦ
ĠP PC
ĠP red
ĠP ile
ĠP LC
ĠP UB
ĠP JS
ĠT ip
ĠT obacco
es áĢĲ
Ġáģī áģĩáģĨ
ĠáĢĻáĢħ áĢģáĢĦ
ĠF S
ĠF ant
ĠF TA
ĠF ound
ĠF eed
ĠF inding
ĠB uddhism
Ġáģģáģħ áģĤáģħ
Ġáģģáģħ áģĦáģĤ
ĠáģģáģĤ áģģáģĤ
ĠáģģáģĤ áģĩáģĩ
ĠáģģáģĤ áģħáģĨ
ĠáģģáģĤ áģĨáģĪ
ĠáģģáģĤ áģħáģĩ
ĠD ew
ĠD eng
ĠI NTER
ĠR ams
ĠR achel
ĠG CE
om in
ĠáĢŀáĢĽ áĢĿáĢı
ĠH SL
ĠH erald
ĠU FC
ing áĢĶ
ing and
re es
ro f
ĠL ai
ĠL ens
ĠE T
áģģáģħ áģĤáģģ
áģģáģħ áģĨáģĦ
ĠW LC
he on
ĠáģģáģĦ áģĦáģĢ
ĠáģģáģĦ áģĪáģħ
ĠáģģáģĨ áģĦáģĤ
Ġáģģáģĩ áģĩáģħ
Ġáģģáģĩ áģħáģħ
ed by
st op
and Environment
áĢ¤ áĢħ
áĢ¤ áĢĨ
áĢ¤ áĢ¡áĢģ
áģģáģĩ áģħáģħ
áģģáģĨ áģĤáģĢáģģáģĩ
áģģáģĨ áģĪáģī
ĠJ ail
ĠV I
ĠV e
Ġ... áģĭ
ĠáģĤáģĤ áģĨáģģ
ĠáģĦáģĢ áģĥ
áģĤáģĢáģģáģħ áģģáģĨ
ag ar
ch ina
ia o
ia v
áĢĢáĢĮ áĢ¦
ul p
um m
Ġs el
Ġc y
Ġc he
Ġc ustom
áģĩáģĢ áģĪ
Ġf r
Ġf ocus
Ġf olate
Ġm ail
Ġm ust
od iversity
est ra
ĠáģīáģĢ áģĦ
ip po
Ġb ank
ĠSh w
Ġ= =
Ġ= ================
áģĤáģĢáģģáģĤ áģĤáģĢáģģáģĥ
ĠáģĪáģĪ áģħ
Ġáģĥáģĩ áģĥ
ĠáĢ¾ áĢ·
qu er
ĠAs per
Ġ3 1
ly wood
ĠáĢ¡áĢĽáĢ¡ áĢĻáĢĬ
ĠáģĦáģĪ áģĦ
Ġ7 2
sh ore
ach s
ach ai
áģħáģī áģĨ
áģĨáģĩ áģĥ
ount ain
ĠX uan
ĠX peria
row ing
ĠSc hedule
ĠáģĨáģĪ áģĢáģĢ
ĠMy Tel
ĠSp ecific
Ġre t
Ġ6 00
eth asone
ĠBr ight
ĠTrans mission
12 3
áģģáģĪáģĢ áģĤ
Ġáģģáģģáģħ áģĪ
ĠáĢĶáĢĿ áĢĻáĢľ
ĠJICM áĢĢ
Ġac cess
ĠRep or
Eleven MediaGroup
áĢ¯áĢŃ áĢ»
ĠCCTV áĢĢ
count ry
Facebook áĢħ
ĠMR F
ĠDPN S
ĠMod erator
ĠWe Love
ĠáģĪáģĨ áģĢáģĢáģĢ
UN ODC
OR LD
yl ene
ĠÃ «
oe k
Ac tivities
ĠUMFCCI áĢĢ
ĠTour s
ĠFood Court
ĠáģģáģģáģĪ áģī
Ġy ears
Â° Â°
ĠðŁ Į
ES T
ĠGAP áĢĢ
University áĢĻ
ĠSu icide
ĠLab oratory
let t
DR R
tr act
áģģáģīáģģáģĦ áģģáģĪ
ĠDav is
200 9
ĠAp ollo
ĠMyanmarNow áĢŀáĢĲáĢĦ
ĠSem b
YA L
ĠYear s
ĠAdv ance
ĠCustomer áĢĲ
ĠMet ropolitan
Foundation áĢĢ
Social Distancing
Ġro ad
ĠAdmin istrative
Stay Home
Post ed
Ġcor tisol
ĠDist rict
WHO áĢĢ
ict ator
ĠSupport ing
Per formance
ĠFriend s
ĠJack son
áĢ¾áĢ¾ áĢ¾áĢ¾
ĠMarc us
asm ine
Dec laration
ĠVi ol
Aung San
ĠSo alt
áģĢáģģáģģáģ ģáģĤ
ĠAh mad
ĠGetty Images
ĠCompl aint
******** ********
Ġsem inar
Econom y
ĠCath olic
ĠNuc lear
ĠMathema tics
ĠâĢª #âĢİ
UW SP
ĠSoalt ee
1 70
8 501
A u
B h
B an
C al
C ro
D es
D ictionary
E ver
F ish
G Y
I J
K w
K PC
M u
M oral
N utrition
P ack
R D
R od
R IT
R ural
T e
T an
T ri
T ai
U s
V T
a ug
b est
c ott
f ers
g ue
h y
l ot
m usic
o in
o ley
p ersonal
r áĢĢ
r ase
s is
t and
z z
Ã ª
Ð °
Ġ tit
Ġ economic
áĢ± -
áĢŃ áĢ½áĢ¯
áĢĢ áĢ¡áĢĶ
áĢ½ áĢ½áĢ¬áĢ¸
ĠáĢĻ áĢĻáĢĽáĢļ
áĢķ áĢŁ
áĢķ áĢħáĢī
áĢĻ áĢĴáĢĻ
ĠáĢľ áĢķáĢĲ
áĢģ áĢĿáĢĲ
ĠáĢģ áĢľáĢļ
ĠáĢĸ áĢĬ
áĢŃáĢ¯áĢ· áĢ»
áĢ»áĢ¬áĢ¸ /
áĢ¡ áĢĶáĢħ
áĢ·áĢº áģį
áĢ±áĢ¬áĢº áĢº
áĢ¹ áĢ»
áĢĿ áĢ¡áĢľ
áĢĿ áĢĻáĢķ
áĢĴ áĢŀáĢĬ
áĢĴ áĢĮ
áĢ»áĢŃáĢ¯áĢ¸ /
áĢ¼áĢ± áĢ¶
áĢĤ áĢĨ
áĢĤ áĢĿ
áĢĤ áĢĢáĢĢ
ĠáĢ¡áĢĽ áĢĵ
ĠáĢ¡áĢĽ áĢĲáĢĢáĢļ
ĠáĢ¡áĢĶ áĢĻáĢĲáĢĤ
ĠáĢĹ áĢĴ
ĠáĢĽáĢķ áĢĶ
ĠáĢ¥ áĢĩáĢĺáĢĢ
áĢľáĢĢ áĢħ
áģĥ áģĥáģģ
áĢŀáĢĶ áĢ¡áĢĸ
áģĪ áģģáģĢ
áģĨ áģĤáģī
áĢĲáĢĻ áĢģ
áĢĲáĢĻ áĢģáĢĶ
ĠáĢĻáĢŀ áĢĴ
áĢĢáĢĽ áĢģ
er ma
on us
ĠC OR
ĠC ancer
ĠM ai
ĠM MS
ar io
ar ium
ĠN y
ĠN FC
ĠS ant
ĠS TI
ĠS weet
ĠA U
ĠáģĨ áģĤáģī
al and
ĠáģĪ áģīáģħ
ĠP ain
ĠP AP
ĠP aint
ĠP VC
ĠáģģáģĢ áģģáģĢ
ĠáģģáģĢ áģĦáģħ
ĠT Y
ĠT SC
Ġáģī áģĪáģĨ
áĢħáĢĻ áĢľ
ĠF uel
ĠáĢĻáĢģ áĢĻáĢĤ
áĢ¡áĢĦ áĢĲ
ĠB oom
ĠB XT
Ġáģģáģħ áģģáģĨ
Ġáģģáģħ áģĨáģħ
ĠáģģáģĤ áģĤáģĥ
ĠáģģáģĤ áģĥáģĦ
ĠáģģáģĤ áģīáģħ
ic áĢĢ
ĠD ip
ĠD rip
ĠD utch
ĠD elta
áĢĿáĢĿ áĢĿáĢĿáĢĿ
ĠI NA
ĠR ange
ĠG ro
ĠG ab
om iasis
is ed
áĢ¼áĢ±áĢ¬áĢº -
ĠH ood
ĠH az
ĠK l
ĠK ent
ĠK MD
ĠU AB
ĠáģģáģĪ áģģáģĦ
ĠL P
ĠL ost
ĠL TE
ĠE lement
ĠE state
áģģáģĪ áģģáģĢ
Ġáģģáģĥ áģīáģĢ
Ġáģģáģĥ áģħáģĢáģĢ
Ġáģģáģĥ áģĩáģĨ
áģģáģĤ áģģáģĨ
áģģáģĤ áģħáģĨ
áģģáģĤ áģħáģĦ
Ġ" áģĭ
ĠáģģáģĨ áģĦáģĦ
am on
st ore
and um
id i
áģģáģĩ áģīáģĦ
áģģáģĩ áģĨáģĤ
ĠO ct
áģģáģĥ áģĨáģĢ
ĠJ D
ĠJ MB
em erg
oc he
ag us
ch ant
20 21
Ġp rivate
Ġs ol
Ġc ost
Ġc ancel
th ithtoolwin
ĠCh ronic
Ġf ormal
ĠFacebook áĢ¡áĢŀ
ut ation
ut ter
áģĤáģĪ áģħáģĢ
ĠUN WTO
uc os
ard on
áģĥáģħ áģģ
ev ision
ĠMr K
áģīáģĢ áģĥ
Ġb uilding
NLD áĢ¡áĢĶ
ers áĢĢ
ĠáģĪáģĪ áģĢáģĢáģĢ
ven tive
ĠáĢ¾ áĢ¸
ĠTh ant
ĠRCSS áĢĲáĢķ
ee áĢĢ
St at
ĠZ umb
anc ang
ĠáĢ¼ áĢŃáĢ¯
ox y
Ġn et
oy a
ĠáģĦáģĦ áģī
áģĨáģī áģĤ
áģĪáģī áģĤ
áģĩáģĨ áģĤ
Ġ5 01
ĠICJ áĢĲáĢĽ
ĠAd vertis
Sh opping
HR I
ĠáĢĴáĢĽ áĢĿáĢĻ
ĠGu arantee
10 5
Day s
www facebookcom
áģģáģĪáģĢ áģĨ
ey a
ĠLockdown áĢķ
ĠPublic Private
áģģáģģáģĤ áģĢáģģáģĪ
ĠWe ather
ĠPar ami
ĠCommunity Based
ĠRec all
Ġáģģáģģáģĥ áģģ
ĠTax Amnesty
ĠUNHCR áĢĢ
ĠCr ans
ett el
fr ont
han ouk
ĠPres idential
Ġ200 8
ĠFDI áĢĻ
ĠFB IáĢĢ
Ġáģģáģģáģģáģ Ĩ
ĠResp ect
Fl ower
ĠInst all
ĠEqu ity
ĠNe igh
ĠKar im
ĠIR R
ĠMel ody
Centre áĢĻ
ĠðŁĺ ģ
MH z
ĠRh iz
ĠMulti ple
ĠMah ar
Ġper oxide
ĠSU V
Ġro ck
ĠVer tical
ĠOper ations
Indust ries
ĠColl aboration
De ath
ĠDa ewoo
ĠYang hee
ĠPi Kye
ĠBer til
UR MA
Ġspe ech
Lockdown áĢģ
ĠVis it
áģ¸ áģ¸
ĠRen ewable
enk o
ĠGerman y
ĠRating áĢħáĢĶáĢħ
ĠBreak fast
ĠDA Y
ĠFormal in
Ġec onomy
ç²ķ áĢŁ
ĠOw n
áģģáģģáģĤáģĢ áģĤáģĢ
Ġchar acter
ĠPhilip pe
ĠAZ G
ĠGraph ic
prot ected
ĠUCS M
phot ocredit
GGS áĢĢ
aze era
Ġaf ter
) ,
, "
A EC
B urmes
C ook
C rown
D SA
F TA
G ene
H el
L iv
M erc
N ature
P ACE
P ollution
R Y
S ite
T ruck
Y P
Y ield
a a
c heck
g re
l ik
m ess
n ect
s ylvan
Ġ ky
áĢº ;
áĢ± áĢ±áĢ¬áĢ·
áĢ±áĢ¬ áģĭ
áĢĶ áĢĿáĢĦ
ĠáĢĻ áĢĴáĢĶ
áĢķ áĢĮ
áĢĻ áĢĢáĢŀ
áĢĻ áĢĻáĢķ
ĠáĢĽ áĢĨáĢĶ
áĢĽ áĢĽáĢĻ
áĢļ áĢĴ
áĢ« (
áĢ« áģĮ
áĢľ áĢ¡áĢģ
áĢ±áĢ¸ .
áĢŃáĢ¯áĢ· áģĮ
ĠáĢĨ áĢĺ
áĢ¯áĢ¶ áĢ¶áĢ·
áĢºáĢ· áĢ¯
áĢĳ áĢ¡áĢĢ
áĢĳ áĢĽáĢļ
áĢĴ áĢĩ
áĢ±áĢ¬áĢ· áģĭ
áĢĺ áĢī
ĠáĢ¡áĢĻ áĢĨ
ĠáĢ¡áĢĻ áĢĴ
ĠáĢ¡áĢĻ áĢķáĢĦ
áĢĤ áĢ¥áĢĢ
ĠáĢĦ áĢŀ
ĠáĢĿ áĢĳ
ĠáĢĬ áĢŀ
ĠáĢ¥ áĢķáĢĢ
ĠáĢĨáĢĽ áĢŀ
áĢĮ áĢĢáĢľáĢĬ
ĠáĢ¡áĢĨ áĢ¡áĢľ
áĢ¡áĢĶ áĢĲ
ĠáĢĲáĢĲ áĢĲ
áģĪ áģīáģħ
áģĦ áģĤáģĢáģĢáģĢ
áģĨ áģĦáģĦ
áģĩ áģĦáģĢ
áĢ¬áĢ· áĢ·
áĢ¡áĢĽ áĢļ
an ish
Ġáģħ áģĤáģĦ
ĠC RO
ĠM ine
ĠM bps
ar ieties
ĠN CC
ĠN ike
ĠN elson
ĠS N
ĠS CA
ĠS ev
ĠS CS
áĢ¡áĢŀ áĢĽ
áĢĻáĢĢ áĢľ
ĠA ch
ĠáģĨ áģģáģĦ
ĠáģĨ áģĥáģĤ
ĠáĢĽáĢĻ áĢħ
áĢ»áĢ° áĢ¶
al ine
or o
Ġáģĩ áģģáģħ
Ġáģĩ áģīáģī
Ġáģĩ áģĨáģħ
Ġáģĩ áģĨáģĩ
Ġáģĩ áģĨáģĥ
ĠP it
ĠP earl
ĠP overty
ĠáģģáģĢ áģīáģĢ
ĠT am
ĠT urb
ĠT aing
ĠT ropical
Ġáģī áģīáģħ
áģģáģĢ áģĥáģĢ
ĠF ine
ĠáģģáģĤ áģħáģĤ
ic ed
ic id
ĠD ul
ĠD AP
ĠD esc
ĠI FA
ĠI RA
ĠáĢĻáĢĻ áĢĳ
ĠH ag
ĠH ons
ĠK now
ĠK fW
il er
ĠL ok
ĠL ocation
ĠE ch
ĠE PS
áģĬ áĢº
Ġáģģáģĥ áģģáģĨ
Ġáģģáģĥ áģĩáģĦ
ent h
ent ed
ent ures
áģģáģħ áģĩáģĢ
ĠW int
ĠW EF
oo se
ĠáģģáģĨ áģģáģĤ
ĠáģģáģĨ áģĨáģĢ
ĠáģģáģĨ áģħáģĢáģĢ
am ing
Ġáģģáģĩ áģīáģĤ
Ġáģģáģĩ áģīáģĥ
et ti
st age
st ock
and ar
áĢ¤ áĢķ
áģģáģĩ áģĤáģħ
áģģáģĩ áģħáģĩ
áģģáģĨ áģĦáģĪ
ĠO G
ĠO mini
ĠJ agu
áģĤáģħ áģħáģĢ
eb y
ĠIn le
ĠY a
ĠY oga
ay áĢĢ
em ony
áĢĻáĢĻ áĢģáĢĦ
ĠáģĦáģĢ áģĩ
ĠáĢĭ áĢĢáĢĲ
ig m
ĠAA A
ia h
áĢĢáĢĮ áĢĲ
Ġt rip
ĠSt ability
Ġc ov
Ġf air
ri od
Ġm Ah
our Earth
ĠPro ceed
CC áĢĢ
Ġd og
aw an
SS ystem
BS c
Ġb aby
NLD áĢĻ
ĠKIA áĢĶ
ĠKNU áĢ¡áĢĸ
áģĨáģĨ áģĪ
ĠTh in
ĠTh ang
Ġ3 9
ĠUP I
áĢĻáĢ¡ áĢĦáĢļ
áģĨáģħ áģĨ
ĠEn cyclopedia
end az
per ience
ĠáģĦáģĪ áģģ
ĠEx clusive
ach ment
ĠAr m
ME N
ĠPr ay
ĠPr ague
ĠáģĨáģĨ áģĩ
IT BMU
ian o
Ġn atural
Ġn umber
ah n
ĠWHO áĢĢáĢľáĢĬ
ĠCP áĢĢ
áģĨáģī áģĩ
ĠGr ace
ĠáģħáģĨ áģĩ
áģĦáģī áģĤ
Ġáģħáģī áģĩ
pr int
Ph otos
ĠCl ose
Ġ? áģĭ
Ġv ir
ĠCo al
ĠCo ast
ĠáģħáģĪ áģĦ
ĠFor b
add ed
ĠAd ult
ĠAd visory
ĠCenter áĢĢ
Ġáģħáģĩ áģĢáģĢáģĢ
ĠáģģáģĪáģĢ áģĪ
Day News
ĠTrans action
Ġcom plex
ins on
ĠEng agement
Ġch ip
ĠáģīáģĪ áģĢáģĢáģĢ
ĠEm ploy
ĠÃ ¡
ĠWin Win
ĠDNA áĢĶ
yd ney
ĠSur vival
Development áĢĢ
ĠRef ugee
ĠPR áĢħáĢĶáĢħ
ĠBar camp
inc are
ĠDigital Marketing
sc ar
sc ience
ĠKy oto
ĠCO E
ĠIT D
ĠVol untary
ats u
ĠAT H
enn is
Ġtr end
Im port
Pol ice
áĢķáĢĳ áĢĻáĢĲáĢħ
ĠáĢĩáĢĶáĢĢ áĢĩ
ĠUNESCO áĢĢ
Ġpl ant
ĠWar ren
ĠResp ir
ĠOb s
ĠList ening
Ġ13 00
Trans parency
Sec ond
áģģáģĤáģĥ áģĦáģħáģĨáģĩ
Ġun it
Ġtrans port
ĠID EA
?? ?
Ġanti oxidant
utri ent
ĠDipl omacy
Cap acity
ĠChrist mas
ĠNik ol
Ġtest ing
And roid
ĠHen ri
Ġne ed
rim inal
Aut o
ĠáĢķáĢĮ áĢĻáĢĨ
ĠYMBA áĢ¡áĢŀáĢĦ
ĠInvest or
het amine
zer land
ĠMinister s
ĠSW AN
ĠSang ai
Port al
Ġmed ical
Vol unteer
bi ology
EV ER
áĢĻáĢ¿ áĢĢ
ĠPerson ality
ĠMen u
mir al
ĠCount ries
ĠConc ert
pons ibility
Payment áĢħáĢĶáĢħ
Enter tainment
daily mail
ĠRail way
ĠLC M
arat ine
Ġaw areness
ĠHit achi
orph ins
Cartoon Aw
Rob ert
Ġeth nic
ĠSaving ourEarth
ĠOneStop Service
Mir ror
oqu ine
ĠJung le
ĠSubsc ribe
NewLight ofMyanmar
ĠOneBelt OneRoad
ĠSavingourEarth andEnvironment
B or
C ount
C ru
C ancer
D áĢķ
E st
E ss
F E
F amily
H ub
H ousing
K han
L iteracy
M ade
M aur
M otor
M ajor
N ot
O PS
P a
R ap
R NA
S a
S yn
V i
V enture
W riter
Y un
Y outube
b ol
c i
d uce
f in
f ac
i ots
j ob
j ective
m u
n etwork
p ad
r int
t v
t ourism
Â »
ï ģ
áĢ¸ ..
áĢ± áĢºáĢ¸
áĢ± áĢ·áĢº
áĢĢ áĢ¡áĢĨ
áĢĢ áĢĳáĢķ
áģ ·
áĢĲ áĢ¡áĢĨ
áĢ±áĢ¬ áĢºáĢ¸
áĢħ áĢŀáĢĻ
ĠáĢĽ áĢ¡áĢŀ
ĠáĢĽ áĢĿáĢĢ
áĢĽ áĢļáĢĶ
áĢĽ áĢĽáĢģ
áĢ² áĢ¼
áĢ² áĢ»áĢ½
áĢ¶ áĢ»áĢ¯áĢ¸
áĢŃáĢ¯áĢ· áĢ¸
áĢ¡ áĢĳáĢĻ
áĢ·áĢº (
áĢ¯áĢ¶ áģı
áĢ¼áĢ®áĢ¸ áĢ·
áĢĨ áĢĽáĢĢ
áĢĳ áĢĹ
áĢĺ áĢĸ
áĢĺ áĢļáĢĢ
ĠáĢ¡áĢĽ áĢĳáĢĦ
ĠáĢĿ áĢĨ
ĠáĢĻáĢĽ áĢ¡áĢĸáĢĲ
ĠáĢ¥ áĢĸ
áĢ¼áĢ® áĢº
áĢ¼áĢ® áĢŃáĢ¸
ĠáĢĲáĢĬ áĢĢ
áĢĹ áĢĨ
ĠáĢĽáĢĲ áĢĽáĢķ
áģĦ áģģáģĨ
áģĦ áģĦáģĪ
áĢĲáĢĽ áĢĿ
áĢ¡áĢĽ áĢľáĢĬ
áĢį áĢĸ
áģģáģī áģĢáģĢáģĢ
Ġáģħ áģĨáģĨ
áĢ¡áĢľ áĢħ
áĢ»áĢ± áĢŃáĢ¯
ĠM TE
ĠM ental
ĠáĢĺáĢĿ áĢĲáĢħ
ĠN I
ĠN ir
ĠN ord
ĠáĢķáĢĳáĢĻ áĢĽáĢĬ
ĠA my
ĠáģĨ áģĥáģĨ
al ism
ĠáģĪ áģĥáģĤ
ĠáģĪ áģĨáģī
Ġáģĩ áģĥáģī
Ġáģĩ áģĨáģĤ
ĠáĢ¤ áĢĲ
ĠP av
ĠP ast
ĠP ATH
ĠP BF
ĠáģģáģĢ áģħáģħ
ĠT i
ĠT ow
ĠT ED
ĠT ao
ĠT WO
Ġáģī áģħáģħ
ĠáĢħáĢĲ áĢŀ
ĠF un
ĠB eg
ĠB urn
ĠB aidu
ĠáĢħáĢĻ áĢĻ
Ġáģģáģħ áģĥáģħ
Ġáģģáģħ áģħáģĢáģĢáģĢ
ĠáģģáģĤ áģĩáģĥ
ĠD R
ĠI H
ĠI con
ĠR ak
ĠR anger
LD C
ĠG at
ĠG ary
ĠG avi
ĠH ans
ĠH abitat
ĠK ids
ing áĢķ
il ia
ĠL et
áģħáģĢ áģĤ
áģģáģĪ áģģáģĩ
ID E
he me
ĠáĢĲáĢľ áĢģ
Ġáģģáģĩ áģħáģĨ
Ġáģģáģĩ áģħáģĦ
Ġáģģáģĩ áģĪáģĩ
ĠáģħáģĢ áģĤ
áģģáģĦ áģĪáģħ
áģģáģĩ áģģáģĤ
áģģáģĥ áģģáģĨ
ĠJ ama
em et
Ġt ourism
ĠSt ellar
ra ine
Ġp et
Ġp ack
Ġp ackage
Ġs etting
ĠCh ung
Ġf inal
ĠáĢĢáĢĽ áĢĻáĢĢ
ant ota
Ġm ake
uc ose
ard áĢĢ
ist ence
áģĥáģĩ áģĨáģħ
aw n
áģĦáģħ áģģ
áģīáģĢ áģĤ
Ġb anking
eg o
eg uard
ĠUn ilever
áģĪáģħ áģĢáģĢáģĢ
ass o
ex ual
áģīáģī áģĤ
Ch ampionship
ung unya
ĠáĢ¡áĢĴ áĢħ
ĠáģĦáģĪ áģĢáģĢáģĢáģĢ
áģĦáģĩ áģĢáģĢ
TV áĢĢ
ĠáģĨáģĨ áģĢáģĢ
ĠDaily mail
ĠáģħáģĨ áģĪ
con sin
ĠBl u
áģĨáģĩ áģĤ
ĠNews week
ĠáģĦáģī áģĢáģĢáģĢ
Ġ? -
ea ven
ĠáģħáģĪ áģĥ
AA D
ath ome
ĠSch istos
ĠáģģáģĪáģĢ áģī
à¸ §
Ġ9 11
Ġac tivity
ĠáģĩáģĨ áģĢáģĢáģĢ
ĠLaw s
Ex hibition
ĠPark ing
ates hi
ĠCamp ing
ĠRef ugees
NC O
ĠBar code
tor ial
ĠGe ographic
ĠPass ive
World Insurance
He art
Ġxx xx
que áĢĢ
ĠIns ider
angu ages
ĠEv aluation
ĠOut standing
ĠEITI áĢ¡áĢĸ
Ġim port
ĠPop ulation
ĠRob o
ke ep
ĠIP M
ĠIP GA
ĠProm ote
vers ation
Book s
ĠFord áĢĢ
Am b
ĠLA U
Ġag ainst
ĠConn ectivity
Ġtest osterone
ict ures
Ġbook ing
Human Rights
And rew
Ġpe ace
áģ¶ áģ¶
ĠNC UB
ĠMu hammad
ĠXia o
ĠMil k
ĠMerc y
ĠFron ti
rav ity
ĠBroad band
ĠFarm ing
ulph ate
feed s
arw on
ĠVirgin ia
Ġrec ycle
Ġpop ular
ĠHeavy Met
ĠAfric an
bet es
Ġmut ations
ĠBit co
Euro pean
áĢºáĢ³ áĢŃáĢ¸
ĠStream ing
Ġinst all
ĠGovern or
ĠAgro forestry
ĠFlex ible
erem y
ĠStim ulus
entle man
Ġdev ice
ĠIntro duction
ĠCox s
exam ethasone
Glob e
ĠZhe jiang
neum onia
Toy ota
ĠNich olas
genta Foundation
ĠHAG L
pared ness
achus etts
1 000
B ak
B OT
B ubble
C I
C OVAX
D om
D ow
D ialogue
E p
F il
F all
G ate
G SP
G ames
K FC
M ore
M ont
N ic
N IA
P sych
S áĢĻ
S oft
T ask
W Y
W estern
a áĢľ
b s
b orn
b bc
c ern
e ing
g reen
h ab
i áĢĶ
i ology
k ha
m outh
o ter
p el
r ul
s w
y b
y IW
Ð µ
Ġ irrawaddy
áĢº ]
áĢŃ ..
áĢĢ áĢ¡áĢľ
áĢŃáĢ¯ áģİ
áĢºáĢ¸ áĢ¸
áĢ½ áĢ»áĢ¾
áĢħ áĢļáĢĶ
Ġáģ ¡
ĠáĢķ áĢĴáĢĢ
ĠáĢŀ áĢŀáĢĬ
áĢĽ áĢħáĢĻ
áĢ² (
áĢ® áģĬ
áĢľ áĢĿáĢĶ
áĢľ áĢ¡áĢĽ
áĢľ áĢģáĢħ
áĢŃáĢ¯áĢ· áĢŃáĢ¯
áĢĸ áĢĽáĢĢ
áģĢ áģĤáģĢ
áĢ°áĢ¸ -
ĠáĢŁ áĢŀ
áĢ½áĢ¬áĢ¸ /
áĢĤ áĢĿáĢĲ
ĠáĢ¡áĢĽ áĢķáĢĶ
ĠáĢ¡áĢĽ áĢĢáĢĦ
ĠáĢ¡áĢĽ áĢĳáĢķ
ĠáĢ¡áĢĽ áĢĺáĢĦ
ĠáĢĻáĢĽ áĢħáĢĽ
ĠáĢĽáĢĢ áĢĢ
ĠáĢĽáĢĢ áĢļ
ĠáĢŀáĢĻ áĢģ
áģħ áģĪáģħ
áģħ áģĦáģĩ
ĠáĢĻáĢĢ áĢľáĢĢ
áģĪ áģĤáģĢ
áģĦ áģĤáģĪ
Ġáģģ áģĢáģģáģĦ
an ol
ĠáģĦ áģĨáģĨ
Ġáģħ áģģáģĢáģĢ
Ġáģħ áģĨáģī
ĠC AP
ĠC IM
ĠM ICA
ĠáĢĺáĢĿ áĢĨ
ar lay
ĠN ative
ĠN avy
áĢĻáĢĶ áĢ¿
ĠS eg
ĠS UN
áĢ¾áĢ° áĢŃ
ĠáģĨ áģĩáģĩ
ĠáģĨ áģĦáģĥ
ĠáģĪ áģģáģĤ
ĠáģĪ áģĦáģĦ
ĠáģĪ áģīáģĦ
ĠáĢ¤ áĢĽ
ĠP atch
ĠP ull
ĠP UI
ĠáģģáģĢ áģĩáģĨ
ĠáģĤáģĢ áģĤáģĪ
ĠT T
ĠT U
ĠT oo
ĠT ong
ĠT HS
es us
Ġáģī áģģáģħ
Ġáģī áģģáģĥ
Ġáģī áģĦáģĪ
Ġáģī áģĪáģĩ
ĠáĢ¡áĢĬ áĢĲáĢĽáĢŀ
ĠF if
ĠF AT
ĠF ix
ĠF DR
ĠF PPS
ĠB ond
Ġáģģáģħ áģĪáģĢ
Ġáģģáģħ áģħáģĩ
ĠáģģáģĤ áģīáģĤ
ĠD ow
ĠD inner
ĠD iesel
ĠR onald
ĠR oosevelt
ac a
ac o
ac tiv
ĠG on
ĠG av
ĠG FP
ĠH us
ĠH umpty
ĠK i
ĠK MT
ĠU d
ĠáģģáģĪ áģģáģĪ
ĠáģģáģĪ áģĥáģĦ
ro ly
áĢĻáĢķ áĢĳáĢĻ
il ience
ĠL act
ĠL ift
as al
ĠE E
ĠNLD áĢŀáĢĬ
áģģáģĪ áģĦáģĥ
áģģáģĤ áģĥáģĨ
ĠW are
ĠW onder
ĠáģģáģĦ áģīáģĢ
ĠáģģáģĨ áģĤáģħ
am el
ed u
st orm
áģģáģĩ áģĩáģĢ
áģģáģĩ áģĨáģĪ
áģģáģĨ áģĥáģĢ
áģģáģĨ áģĦáģĦ
ĠO MI
ĠO PCW
ĠIn stitut
ĠY ope
em ale
áģĤáģĢáģģáģĪ áģĤáģĢáģĥáģĢ
ĠáģĤáģĩ áģħáģĪ
áģĨáģĢ áģħ
Ġt arget
Ġt reatment
Ġt ravel
áģĪáģĢ áģħ
ĠThe Farmer
ang anese
ĠCh anger
os ed
Ġf ederal
Ġf alsefalsefalse
ĠFacebook áĢŁ
ri x
ri en
ant e
ant om
Ġm ode
Ġm igrant
uc lear
áģĥáģħ áģĢáģĢáģĢáģĢ
ĠPro spect
ĠSh er
ĠUn icef
Ġw edding
ĠáĢ¾ áĢ±áĢ¸
Ġ3 50
ĠZ oo
Ch ap
Ġáģħáģħ áģĥ
ĠAl cohol
ank ar
enc ies
ach ing
ME NT
ism áĢľ
SSA áĢĶ
ok u
ĠCor al
áģĦáģī áģĥ
her áĢĢ
áģĦáģĨ áģĦ
NP áĢķ
Ġe ID
Ġe ver
ĠRe action
IV E
ish a
MA áĢĢ
Ġv accine
Com mercial
add er
ĠCC SA
KIA áĢĲ
ĠCN BC
ĠHome áĢĢ
ĠChe e
ĠSchool s
icy lic
NGO áĢ¡áĢĸ
UN ICEF
ĠÃ ³
ĠDNA áĢĢ
Ġle adership
Ind icator
sp ir
ple te
gen eral
ĠDVB áĢĢ
oph arm
âĸ Ħ
Ġáģģáģģáģĩ áģħ
ĠAFP áĢŀáĢĲáĢĦ
Ġáģ¤ áĢ¯
ÃĹÃĹ ÃĹ
ĠElect ronics
TU D
ĠOx ley
RO UP
áģģáģģáģĥ áģħ
áģģáģģáģĩ áģĢ
Ġres ources
eh ind
Ġáģģáģģáģģáģ ī
ĠáĤ Ĵ
erg arten
Med iáĢĲ
ĠPat ri
Ġwh at
ĠMD Y
Centre áĢĲ
ĠMag ic
School of
ĠðŁĺ Ĥ
Social Media
Ġwork shop
My int
Ġz ero
Dem ocratic
ĠFact ory
ĠCan ada
ĠInf ection
Ġag reement
ĠConn ection
Positive áĢĸ
ĠBack ground
Ġdaily mail
ĠMi G
ĠHD L
ĠMass age
Ġæ ¶Ľ
Ġspe aker
ĠSat ellite
Prot ocol
ĠProvisionalMeasures áĢģ
ĠInvest ors
ĠAirlines MNA
UEC áĢĢ
ĠCat al
feed bur
ichi Life
ĠâĹ Ĭ
email protected
ĠInvestig ation
Oper ating
ĠHay man
ä¸ Ń
ĠRot ary
ĠUM NO
Ġcre ative
TheL adies
ĠBuck et
asw anáĢĢ
ĠMoham med
kn own
ĠBeau tiful
ĠArg ument
ĠRepro ductive
å¤ §
ĠUNCTA D
weg ian
ĠDoug las
ĠSemb corp
yIW V
feedbur ner
7 37
A k
A li
B G
B ridge
C áĢĲ
D G
D ar
K g
K nowledge
L one
L ocal
O DA
S or
S yndrome
T it
W IN
X in
a áĢĽ
b ian
d ar
d or
d oc
d ated
f il
g age
j ec
m al
n s
o enáĢĢ
r itten
t oday
u rop
v b
v t
y ch
Ã «
ĠáĢ ´
áĢº ,
áĢº áĢ«
áĢĢ áĢ¡áĢķ
áĢĢ áĢħáĢķ
áĢĢ áĢĺáĢļ
áĢĲ áĢ¡áĢĦ
áĢ½ áĢ½áĢ²áĢ·
áĢĶ áĢĽáĢļ
áĢ¾ áĢ¾áĢ¬
ĠáĢĲ áĢ¡áĢķ
áĢķ áĢľáĢĶ
ĠáĢĢ áĢĲáĢħ
áĢĽ NLD
áĢ® áĢŃáĢ¸
áĢŀ áĢ¡áĢŀ
áĢģ áĢĻáĢĢ
Ġáģĭ áĢº
áĢ²áĢ· áģĬ
áĢ»áĢ¬áĢ¸ âĢĭ
áĢ¾áĢ¯ áĢ°
áĢ¾áĢ¯ áĢ¯áĢ¸
áĢĿ áĢĽáĢķ
áĢĿ áĢŀáĢļ
áĢĺ áĢĽáĢķ
ĠáĢ¡áĢģ áĢķ
ĠáĢļ áĢĢáĢľáĢĬ
áĢĤ áĢĻáĢŁ
ĠáĢ¡áĢĽ áĢŀáĢķ
ĠáĢĦ áĢĳ
ĠáĢĲáĢĽ áĢı
ĠáĢĽáĢĢ áĢ¿áĢķ
ĠáĢħáĢĢ áĢĻ
Ġ) .
áĢ»áĢ¬ '
áĢºáĢ¹ áĢ¸
ĠáĢĲáĢĶ áĢĲ
áĢ¡áĢĶ áĢĻ
áģģ áģĢáģģáģħ
ĠáĢĻáĢĢ áĢľáĢĬ
ĠáĢĵ áĢ¥áĢķáĢĴ
áģĦ áģĥáģģ
áģĨ áģĪáģħ
ĠáĢĻáĢĲ áĢĻ
ĠáĢĻáĢķ áĢĻ
áĢĲáĢĻ áĢŀ
áĢĶáĢĢ áĢĦ
Ġáģĥ áģģáģħáģĢ
áĢĲáĢĽ áĢ¡áĢħ
ĠáĢ§ áĢĢáĢĻ
er ating
ĠáģĦ áģģáģģ
áĢ»áĢ® áģ¤
Ġáģħ áģĤáģĥ
Ġáģħ áģĤáģĢáģĢáģĢ
ĠC FC
ĠC ater
ĠC ities
ĠM un
ĠM ujah
ĠáĢĺáĢĿ áĢ¡áĢĻ
áģĤáģĢáģģáģ ģáģĤáģĢáģģáģĤ
ĠN ut
ĠN DC
ĠN yo
ĠáĢķáĢĳáĢĻ áĢ¡áĢĸ
ĠS ud
ĠS old
ĠS SC
ĠS ugar
en on
ĠáģĨ áģĪáģĪ
ĠáģĨ áģĪáģī
ĠáģĨ áģĩáģĤ
ĠáģĨ áģĦáģģ
áĢ¼áĢ¾ áĢ±
al inn
ĠáģĪ áģĩáģĪ
Ġáģĩ áģĪáģĪ
Ġáģĩ áģĥáģĨ
ĠáĢ¤ áĢľ
ĠP SO
ĠT MH
ĠáĢ¡áĢĽáĢķ áĢħ
áĢĢáĢĢ áĢľáĢķ
Ġáģī áģīáģĩ
ĠF ang
ĠF iscal
it em
ĠB T
ĠB av
ĠB ai
ĠB ull
ĠB erg
ĠB rake
ĠB aptist
Ġáģģáģħ áģĨáģĦ
ĠáģģáģĤ áģģáģĪ
ĠáģģáģĤ áģĥáģĪ
ĠD ol
ĠD ota
ĠD BE
ĠD iffer
ĠI BA
ĠáĢĻáĢĻ áĢŀáĢĶ
is an
ĠH ep
ĠK r
ĠK el
ĠK elly
ĠáģģáģĪ áģĤáģĤ
ĠáģģáģĪ áģħáģģ
ĠL IN
ĠL enovo
ĠL iberty
ĠE A
ĠE lders
Ġáģģáģĥ áģĨáģĪ
áģģáģħ áģģáģĦ
áģģáģħ áģĦáģĢ
áģģáģĤ áģģáģĥ
áģģáģĤ áģīáģĪ
ĠW ik
ĠáģģáģĦ áģīáģĤ
ĠáĢĽáĢħ áĢĶáĢħ
ĠáĢ¡áĢĽáĢĻ áĢŀáĢĶ
ĠáģģáģĨ áģĤáģĢ
ĠáģģáģĨ áģĪáģĪ
et z
et in
ol ester
st ep
and s
and ex
áģģáģĦ áģĢáģĢáģĢáģĢ
áģģáģĩ áģģáģĢ
áģģáģĩ áģĪáģĨ
áģģáģĩ áģĪáģģ
áģģáģĨ áģģáģĩ
áģģáģĨ áģĨáģĢ
áģģáģĨ áģĥáģī
áģģáģĥ áģĤáģĢ
ĠJ ar
ĠV O
of India
ĠáĢĻáĢ¡ áĢĻáĢĬ
ĠáĢĻáĢ¡ áĢŀáĢĦ
oc hemistry
áĢģáĢĻ áĢ¡
ig ion
áģĤáģĦ áģħáģĢ
ĠáģĤáģĢáģģáģĦ áģĤáģĢáģģáģħ
ĠáģĨáģĢ áģĨ
Ġt alk
Ġs n
Ġs w
Ġc le
Ġc ann
Ġc itizen
Ġc ourse
áģĤáģĤ áģħáģĢ
ĠCh ampion
os m
os ite
ap ixel
Ġf ull
ion g
Ġm id
Ġm ethod
ab ul
áĢķáĢĳáĢĻ áĢĨáĢĦ
ĠPro xy
CC P
Ġb urmese
ĠCon dom
áģĩáģħ áģģ
ers ons
Ġ20 30
ĠáģĥáģĨ áģĢáģĢáģĢáģĢ
ell ery
Ġl imit
Ġin n
ĠTr am
ĠTr ich
qu ake
ĠAn y
St e
St art
St ory
St aff
St ars
ĠUP OV
áĢºâĢĭ áĢ·
áģĨáģħ áģī
Ch en
áģĦáģĪ áģĩ
ĠáĢ½ áĢ¶
Ġáģħáģħ áģĦ
ĠInternational áĢĢ
Ġáģĥáģī áģģ
RC áĢĴ
ĠáģĨáģĨ áģĪ
áģĩáģĩ áģĦ
áģĩáģĩ áģĩ
wit hthe
oy arlay
ĠáģĦáģĦ áģĤ
ĠGr id
oh yd
Ph D
ER N
Ġst ory
The ory
ĠáģĦáģī áģĢáģĢ
ĠRe ader
Ġv ictim
ute in
áĢ»áĢ¸ áģĬ
ĠICJ áĢĽ
ann ing
ĠáģĨáģĪ áģĢáģĢáģĢ
AA áĢĶ
Ġáģħáģĩ áģĦ
af ter
Ġpro blem
ĠPlan áĢĢ
ĠMar tial
áĢļáĢĲ áĢĹ
Th omas
ĠMo z
NCA áĢĻ
cess ion
ĠáģĩáģĪ áģĩ
áģĨáģĢáģĢ áģĢáģĢáģĢ
ĠTrans formation
ĠáĢĶáĢĿ áĢĻáĢķ
ĠCar ter
ĠProject áĢĢ
ins ula
ern and
Tr ump
ĠPost ed
ĠFl ag
oon áĢĢ
ĠMin imum
ĠTechn ological
ĠáģģáģģáģĤ áģĢáģĢáģĢ
au thor
Ġsh ock
ick ing
ĠAb b
Ind ian
ĠMon ument
ĠDis order
ĠIDP áĢħáĢģáĢĶ
Ġ10 1
International áĢĢ
Development Plan
ĠUnion Pay
Ġph osphorus
sc ious
itor s
ĠFoundation áĢĢ
áģģáģģáģī áģĢ
ĠDep osit
rib usiness
à¤ ¿
áģģáģģáģĥ áģĢ
ĠSen ate
ĠBrand Fail
áģģáģģáģĨ áģĩ
áģ» áĢĩáĢĺáĢı
ument ary
flu ence
áģģáģģáģģáģ Ī
ĠKNLA áĢĢ
ĠDec ember
ĠProcess áĢĢ
Pe oples
ĠMart y
Mask áĢĻ
ĠBre ad
ĠEth ic
ĠâĻ ©
ĠCivil ization
ĠNet her
ĠDef icit
ĠProt ect
AD S
ĠClass ic
ĠMN SP
ĠBM X
ĠME NG
ĠCR F
ĠMac int
gr aduate
áĢ»áĢ¾áĢŃ áĢ°
áģ¢ áĢ¯
áĢŃ/ -
Ġoff ice
Sing háĢĢ
ĠDipl omatic
ĠProf it
ĠSl ow
ĠChat rium
At Home
âĺ Ĩ
Ġgen eral
ĠSS JAC
raz y
Ġcol or
ĠDet ail
ĠVi ettel
ĠPrincip les
inter est
________________________________ ________________________________
ĠGR ET
ĠGuid elines
car otene
ĠFour th
Li u
ĠConstitution al
Spe ech
ĠGam ble
Letter toM
áģĢáģīáģī áģĨ
ĠCirc le
ĠîĨ ²
andB alance
ĠGuang dong
Nov el
Ġchar ge
ĠRou te
Vir tual
gi ene
ĠJeff rey
ĠChall enges
ĠFPT P
oflav in
ĠáĢ¾áĢ®áĢ¯ -
NM SP
ĠRena issance
ĠAMC HAM
Ġven til
ĠYAC L
ĠYut ong
ĠOly mp
ĠDAC U
ĠZumb a
ĠJagu ar
âĸĦ âĸĦ
LettertoM oemaka
A LD
D ie
F MI
F OR
F rid
H us
J a
K áĢ¡áĢĸ
K AW
L V
L iang
L IFT
N aing
P o
R áĢĢ
S y
S ide
S NDP
T in
U SS
V ic
W a
W ell
Y u
b ill
c ur
d em
d isease
g illus
h igh
m at
m ade
p ul
r us
s áĢķ
s áĢħ
s from
t u
w ash
w atch
w iki
Ñ Ģ
Ġ ill
Ġ any
Ġ tim
Ġ 000
áĢ¯ áĢŃáĢ¯áĢ·áģı
áĢ¼ áĢ½áĢ±áĢ·
áĢ¼ áĢºáĢ¬
áĢ½ áĢºáĢ¬
áĢķ áĢ¡áĢĶáĢĸ
ĠáĢ¡ áĢ¡áĢĶ
ĠáĢĢ áĢĢáĢĢ
áĢ¬áĢ¸ )
áĢĽ áĢĽáĢĻáĢľ
áĢŀ áĢĽáĢħ
áĢģ áĢĨáĢĦ
ĠáĢĨ áĢĮ
áĢ¯áĢ¶ /
ĠáĢĺ áĢŁáĢĶ
áĢĴ áĢĻáĢĶ
áĢ°áĢ¸ /
áĢ½áĢ±áĢ¸ /
ĠáĢ¡áĢĸ áĢ¦
ĠáĢĬ áĢĢáĢķ
áĢĻáĢĲ áĢĺ
áĢ¶áĢ· áĢ·
áģĢáģĢ áģģ
áģħ áģĪáģĨ
ĠáĢĵ áĢĻáĢĦ
ĠáĢĻáĢĲ áĢľ
ĠáĢĽáĢģ áĢĽ
áĢĲáĢķ áĢľ
on i
áĢ¿ áĢĽáĢĬ
ĠC ron
ĠC AB
in ol
áĢ»áĢ± áĢ½
ĠM Z
ĠM att
ĠM oscow
ĠS ac
ĠS ister
ĠA SEA
ĠáģĨ áģīáģĪ
al ed
ĠáģĪ áģĨáģĦ
Ġáģĩ áģģáģĤ
ĠáĢ¤ áĢĶáĢĬ
ĠáĢĸáĢĲ áĢĨ
ĠP ip
ĠP PD
ĠP ixel
ĠP ioneer
ĠáģģáģĢ áģĤáģĤ
ĠT ent
áĢĽáĢĻ áĢģ
Ġáģī áģĤáģĪ
Ġáģī áģĥáģħ
Ġáģī áģĤáģĢáģĢáģĢ
Ġáģī áģĦáģī
Ġáģī áģĩáģģ
áģģáģĢ áģĦáģĦ
ĠF b
ĠF i
ĠF u
ĠF uk
ĠF uj
ĠF uji
ĠáĢģáĢĢ áĢĲ
it ar
ĠB art
ĠB lan
ĠB enz
ĠB rowser
Ġáģģáģħ áģīáģĢ
áĢģáĢı áĢĲ
áĢģáĢı áĢķ
ĠáģģáģĤ áģģáģħ
ĠáģģáģĤ áģĦáģĤ
ic in
ĠD M
ĠD EA
ĠD opamine
Ġ/ /
ĠI oT
ĠR t
ac es
ĠG ap
ĠG ao
ĠK ur
ĠK OPIA
ĠU b
re pt
il s
ĠL il
ĠL ept
ĠL eft
ĠE S
ĠE vening
ĠáĢ§áĢķ áĢĽáĢļ
Ġáģģáģĥ áģĥáģħ
áģģáģĤ áģĩáģĥ
ĠW ide
ĠW ings
ĠW edding
ol and
id in
áģģáģĩ áģħáģī
áģģáģĩ áģĨáģĦ
áģģáģĩ áģħáģĦ
áģģáģĩ áģĪáģĩ
áģģáģĨ áģĨáģĩ
ĠO A
ĠO TP
áģģáģĥ áģģáģħ
Ġ.. ..
ĠJ B
ĠV ill
ĠV VIP
ĠNCA áĢĶ
áĢĲáĢĿ áĢĻ
ir ates
ch am
áĢĢáĢĮ áĢĽ
áĢĢáĢĮ áĢĸ
ĠSt rand
ra it
Ġp ap
Ġp osition
Ġp pm
um or
Ġs ensitive
áĢºáĢ» áģĬ
ĠCh ong
im ming
os áĢĢ
ĠáĢĽáĢĸ áĢĨáĢķáĢľ
ut athion
ĠáĢķáĢĳ áĢħ
ĠáĢķáĢĳ áĢĻáĢļ
ĠáģĪáģĢ áģħ
Ġm ovement
ab les
ab uri
áĢķáĢĳáĢĻ áĢ¡áĢĨáĢĦ
ev in
est o
ob ic
ob acter
ort ure
Ġd ry
ep ticism
Ġb in
ĠSh ell
Ġw ind
av or
Ġl iving
ass ment
ee x
qu ar
qu ire
ik ungunya
St eel
St atement
ĠáģĥáģĪ áģĢáģĢáģĢáģĢ
áģħáģħ áģĥ
áģħáģħ áģĪ
ĠZ ar
ĠZ uckerberg
ph y
ans as
ĠáģĨáģħ áģĪ
ĠáģĥáģĤ áģħáģĢ
ĠEx porter
ach im
Ġh ack
Ġh yp
ĠAr k
ĠAr n
ah an
ok a
áģĨáģī áģĪ
ĠáģĦáģĩ áģģ
ĠáģħáģĨ áģģ
ĠJMC áĢĢ
Ġst yle
áģĪáģī áģĦ
ĠáģĦáģī áģĥ
ĠCl inton
ont rol
MA N
ĠSSPP áĢĢ
ĠComp uting
áģĨáģĪ áģĦ
ĠáģĨáģĪ áģĢáģĢáģĢáģĢ
Ġre quest
ĠTwitter áĢĻ
ĠIS IL
Ġ6 800
ĠFr an
ĠAir con
pl ier
ĠLe ap
GB RAM
ĠEAO áĢĲ
Ġcom munication
ĠRFA áĢĢ
ĠáģģáģĨáģĢ áģħ
ĠGreen peace
ati re
ĠáģģáģģáģĦ áģĩ
res pond
ĠTom as
ĠPC MJ
ĠAb stract
ĠâĢĮâĢĮ âĢĮ
ĠRec e
ĠSur akiart
Ġde ep
Ġáģ¾ áĢĢáĢĬ
oph en
ĠIs rael
Center for
Ġph ot
sc ape
ĠCr ush
izz a
CP U
Or ch
ĠId e
Ġ09 25
Ġáģģáģģáģī áģģ
Ġan tig
ĠElect rical
ĠVol vo
Ad s
ĠFA RC
ĠAt tr
ĠSun ny
ĠHR D
áĢķáĢĳ áĢĻáĢĲáĢĶ
Ġres pect
Mar io
ĠDec entralization
ĠWar ning
ĠSE O
Team áĢĻ
Wh at
ĠBro ther
eff ect
Ġ25 6
No Vote
emb ers
ĠCur ium
war f
EU T
ĠBy te
áģģáģĪáģĤáģĦ áģģáģĪáģĤáģĨ
Mon itor
Rel ation
ĠFact s
ĠVan essa
ĠDeb it
anth a
ĠIt al
ĠEuro pe
ĠáĢ³ áĢ¸
ĠREC áĢĢ
ĠHack ing
ĠInf ra
ĠWal let
Ġdis play
ĠInfluenza A
ĠDocument s
ĠHol iday
ĠAtt ention
ĠIA I
Ġsur vey
Elect ronic
ĠRepublic an
Ġwin ner
Ġcur riculum
Op inion
ĠRub ber
ĠWr iter
Ġcons ult
ĠTerm s
ĠLim it
Ġrel ationship
ĠAssoci ates
ĠRead ers
mir ror
ĠInsp iration
ĠðŁ¤ ©
ĠNat al
ĠMyCO áĢĲ
Eth nic
ĠJon athan
ĠLux embourg
ĠJO OX
ĠCalc ium
ĠRhod amine
^^ ^^
Ġvol unteer
ĠHugh es
ĠPPT T
ĠHistor ical
ogn ition
aws int
Ron áĢĲáĢħ
ĠPurch ase
ĠComple te
Ã¢t eau
ytechn ic
ĠJU DE
tand awsint
A ffairs
B IA
C ustom
C ustomer
C opy
D a
D et
D iamond
F EC
F ederal
G re
I SS
J os
J oe
K ong
L ady
L inn
M ill
M bps
N am
P LA
P aper
R ohingya
W i
W heel
X X
Y V
Y ong
Y oung
b p
c ase
d it
e o
e ur
f ar
g les
h at
j ay
m ilitary
n yeinchanaye
p ap
p ai
p osition
r ade
v or
v irus
w ikipedia
º ï¸ı
Ã ¸
Ì ĭ
ä º
Ġ <
Ġ lect
Ġ its
Ġ round
Ġ very
áĢº âĢľ
áĢ¬ '
áĢ¬ áĢºáĢ¸
áĢ¯ áĢ²
áĢ± '
áĢĲ áĢĵáĢĻ
áĢĶ áĢ¡áĢŀ
áĢ¾ "
ĠáĢĲ áĢĪ
áĢķ áĢĸ
áĢķ áĢĢáĢķ
ĠáĢ¡ áĢ¡áĢĢ
áĢĻ áĢĴáĢı
áĢĻ áĢħáĢĲáĢĦ
áĢĻ áĢ¡áĢŀáĢħ
Ġáģ ¥
ĠáĢĽ áĢĸáĢĢ
ĠáĢĽ áĤĢ
áĢĽ áĢĿáĢĢ
áĢ® áģ¤
áĢģ áĢĻáĢĲ
áĢ« áģ¤
áĢ« áĢ½áĢ¸
áĢľ áĢĳáĢķ
áĢ±áĢ¸ -
áĢ° (
áĢ° áĢ¶
ĠáĢĳ áĢĢáĢĶ
áĢ·áĢº áĢ·áĢº
áĢ¼áĢ®áĢ¸ /
áĢ±áĢ¬áĢº áģĮ
áĢ±áĢ¬áĢº áģİ
áĢ¾áĢ¯ áĢ±
ĠáĢĴ áĢŁ
áĢĴ áĢľáĢĻ
áĢ½áĢ¬áĢ¸ "
áĢĤ áĢĢáĢľáĢĬ
ĠáĢ¡áĢĽ áĢģáĢĦ
áĢ½áĢ²áĢ· "
áĢ½áĢ¬ âĢĭ
ĠáĢĽáĢĶ áĢĲ
ĠáĢĹ áĢĽáĢĻ
ĠáĢĻáĢĽ áĢŀáĢĢ
áĢĻáĢĲ áĢ¡áĢĽáĢĬ
Ġ) (
Ġ) áģĭ
Ġ) áģĮ
áģĢáģĢ áģĥ
áĢĵ áĢĲáĢĢ
ĠáĢĨáĢĽ áĢŀáĢĬ
áĢĹ áĢķ
áģħ áģĤáģĩ
áģĨ áģīáģĢ
áĢĳáĢĻ áĢĶ
áģĩ áģĥáģħ
áģī áģĩáģĢ
áĢĲáĢĽ áĢĻáĢļ
áĢĲáĢĽ áĢĻáĢĬ
áĢħáĢĢ áĢķ
áĢŀáĢĲ áĢĿ
ĠC SEA
in stein
ĠM ort
ĠM SC
ĠM UNG
áĢĻáĢĽ áĢĽáĢĦ
ĠN F
ĠN T
ĠN u
ĠN ang
ĠN UD
ĠN exus
ĠS of
ĠS AW
ĠS ulphur
ĠA min
ĠA ND
ĠáģĨ áģĥáģĥ
ĠáģĨ áģĥáģĢáģĢáģĢ
al p
ĠáģĪ áģīáģī
Ġáģĩ áģĦáģī
Ġáģĩ áģīáģĦ
Ġáģĩ áģīáģĨ
Ġáģĩ áģĩáģī
ĠP ab
ĠP rav
ĠT E
ĠT amp
ĠT issue
Ġáģī áģģáģĨ
Ġáģī áģĤáģĦ
Ġáģī áģĩáģĦ
Ġáģī áģĪáģĥ
it ations
ĠB engal
Ġáģģáģħ áģģáģĥ
Ġáģģáģħ áģĪáģĪ
Ġáģģáģħ áģĪáģĩ
áĢģáĢı áĢĢ
áĢģáĢı áĢľ
ĠáģģáģĤ áģĤáģĩ
ĠáģģáģĤ áģĥáģī
ĠáģģáģĤ áģĪáģĢáģĢáģĢ
ic ture
ĠD awei
ĠI MS
ĠR i
ĠR av
ĠáĢĻáĢĻ áĢħáĢĶ
ĠG yi
ĠG MAT
ĠáĢŀáĢĽ áĢĺ
ĠáĢŀáĢĽ áĢĻáĢļ
is es
ĠH l
ĠH IT
ĠH alf
ĠK PI
ĠU CC
el come
ĠáģģáģĪ áģģáģĥ
re port
ĠL E
ĠL ian
ĠL ane
ĠE L
ĠE k
Ġáģģáģĥ áģĪáģħ
áģģáģħ áģĥáģħ
áģģáģħ áģĦáģĥ
áģģáģĤ áģīáģĤ
áģģáģĤ áģĪáģĥ
le v
ĠW O
ĠW ine
ĠW ish
ĠW ireless
ĠáģģáģĦ áģģáģĦ
ĠáģģáģĦ áģĤáģħ
ĠáĢ¡áĢĽáĢĻ áĢŀ
ĠáģģáģĨ áģģáģħ
ĠáģģáģĨ áģĪáģĢáģĢáģĢ
Ġáģģáģĩ áģģáģĢ
Ġáģģáģĩ áģĨáģĨ
Ġáģģáģĩ áģĨáģĦ
Ġáģģáģĩ áģĩáģĥ
ol in
st and
st arter
ter res
áģģáģĦ áģħáģĥ
ad h
áģģáģĩ áģĪáģĢ
áģģáģĥ áģģáģĢ
ĠJ ess
ĠJ asmine
áĢŀáĢļ áĢĻ
Ġ... âĢľ
oc yt
ag ic
ch in
ch ain
ĠAA áĢ¡áĢĶ
ĠAA áĢĢáĢľáĢĬ
ia b
Ġt ablet
ĠThe Global
ul ife
ra áĢĢ
ra tio
Ġs olar
Ġc arb
Ġc amera
Ġc alcium
ĠCh it
ĠCh ai
ĠCh rom
Ġf an
ĠFacebook áĢĶ
Ġm and
uc áĢĢ
ab l
ail ey
DA C
ĠáĢĥ áĢĭ
ist ential
ĠPro sperity
ĠáĢ± áĢ½
Ġd rive
ial s
Ġb it
Ġb ad
Ġb reak
ill o
áģĩáģħ áģĨ
ov mm
In tel
In frastructure
áģĨáģĨ áģģ
se áĢĢ
ĠáĢ¾ áĢ¾
are a
St and
St rike
ock ing
ĠPh y
duc tor
áģĨáģħ áģĪ
end o
Ġáģħáģħ áģĩ
áģīáģħ áģĦ
ĠEx ercise
ivers ary
Ġh al
ĠAr c
ME R
RC ode
áģħáģī áģĩ
ĠáģĦáģĨ áģĤ
ĠáģĦáģĨ áģĥ
old er
ĠáģĦáģĤ áģħáģĢ
ĠáĢ£ áĢĽ
amp hetamine
áģĨáģĩ áģģ
eng áĢĢ
áģĦáģĨ áģĢáģĢ
ĠáģĪáģħ áģĢáģĢáģĢáģĢ
ens is
Pro ducts
Ġst orage
áģĪáģī áģĩ
áģģáģīáģĦáģĪ áģĦáģī
form er
ĠComp ass
ĠX Ray
ĠáĢĢáĢĴ áĢĲ
ann y
ĠáĢŀáĢĻáĢĲ áĢĳ
áģīáģĪ áģĩ
ĠSp ectrum
AA áĢĲ
ton áĢĢ
ĠTwitter áĢĲ
ĠGlobal GAP
ĠIS áĢ¡áĢĸ
ĠMar gar
ĠMar itime
ĠCovid áĢĢ
Th ird
me eting
ĠGu o
ĠGu terres
ĠFr uit
eth inking
ĠCont est
Ġi Pod
Ġ9 4
www mizzimaburmesecom
ĠáģģáģģáģĢ áģĤ
ĠáģģáģģáģĢ áģħ
Ġáģģáģģáģħ áģħ
Sc out
ĠáģģáģĦáģĢ áģħ
cl os
por teráĢĢ
Ref er
Group áĢĶ
ĠMin or
ĠTechn ologies
VB G
áĢŃáĢº áģ¢áĢ¯
res h
áģĩáģĢáģĢ áģĢáģĢáģĢ
ĠAI R
ĠAI áĢĢ
ĠÃ İ
KN DO
ĠAb out
News Journal
Ac c
ĠOrgan isation
ĠFOB áĢħ
ĠAm ata
ĠDe al
ĠMe at
ĠáģģáģģáģĪ áģģ
ĠáĢį áĢĽáĢĦ
Al ert
âĢĪâĢĪ âĢĪ
Ġph othutaw
TO I
ĠáģģáģģáģĨ áģħ
CS R
ole c
Ġan th
Re al
ĠEd ition
ĠHar ris
Ad visor
ĠIntern ship
Ġmask áĢĲ
ĠHigh light
Cor ps
ĠReport ing
áģ» áĢĩ
ĠOut bound
ĠAG IPP
ĠCEC áĢĢ
lam ing
Bl ock
ĠNH TOI
________________ ____
Fl ag
HE MP
Le ader
Le adership
ĠCall Center
AIDS áĢĽ
ĠMC EF
Stud ent
ĠBelt andRoad
ĠHil ux
áģ¾áĢ¡áĢĢ áĢĻ
Min istry
Ġz inc
ĠHor se
ĠRem ote
Sing le
Green Tea
ĠDeb t
ĠDisc overy
ĠDist ance
ĠPilot Project
ĠInf o
ĠTravel s
ĠAbd ur
ĠTre asure
ĠFre quency
iff any
raz il
ĠMBA PF
ĠSign ature
ĠIsland s
Anti body
iat ric
ĠLin ux
ĠKNDO áĢĲ
ĠTouch screen
ĠFall Armyworm
obil ization
ĠBB Q
atin um
ĠTw ilight
ĠJim my
Cr ime
ĠLif elong
ĠEric sson
Ġev ent
Mich ael
ĠPub lished
ĠeS ports
ĠSnow den
ĠCOVAX Facility
Mul ti
Ġra tio
Add ed
apl ang
Hop kins
Rad io
ĠOpport unity
ĠOpport unities
ĠTed ros
Ġcoun ter
Secret ary
Sk epticism
ĠPrep aid
ĠOccup y
ĠHamb antota
ĠCoh es
TIO NAL
èı ľ
ĠSath irath
ĠBuk it
ĠInnov ative
rof en
ĠMUNG DAW
3 60
B oy
B ird
B NI
C IA
C lean
D ate
D istribution
E merg
F ocus
F ederation
G round
H as
I chiro
J in
K am
K achin
M W
N NER
O ld
P áĢķ
P est
P ath
R ot
R ail
R SO
S on
T en
V ID
W is
W ild
a qu
b r
b re
b ability
d y
d ata
e es
g ies
g ame
h om
h im
n ame
p ositive
r il
r ans
s o
s áĢ¡áĢĸ
t ax
w ant
y g
à ª
Ġ age
Ġ oxide
ĥ £
áĢŃ áĢ¬
áĢĦ áĢĢ
áĢĢ áĢħáĢī
áĢŃáĢ¯ /
áĢ¼ áģĬ
áĢĲ áĢ¡áĢĽáĢŀ
áĢ±áĢ¬ áĢ¶
áĢ±áĢ¬ áģı
áĢ½ áĢ»
ĠáĢĻ áĢĺáĢļ
ĠáĢĲ áĢĲáĢļ
ĠáĢĲ áĢĳáĢĦ
ĠáĢ¡ áĢ¡áĢģ
ĠáĢ¡ áĢ¡áĢķ
áĢ¬áĢ¸ (
áĢ¬áĢ¸ áĢ»
ĠáĢķ áĢŀáĢħ
ĠáĢķ áĢ¥áģ¥
ĠáĢŀ áĢ¡áĢĸ
ĠáĢŀ áĢĽáĢĲ
áĢĽ áĢĺáĢı
áĢŀ áĢĿáĢĲ
áĢ° áģĭ
ĠáĢģ áĢŀ
áĢĿ áĢĽáĢĦ
ĠáģĬ áĢ¸
áĢĴ áĢĽáĢĦ
áĢĴ áĢ¡áĢľ
ĠáĢ¡áĢĻ áĢĽáĢļ
ĠáĢ¡áĢĽ áĢĨáĢĦ
ĠáĢ¡áĢĽ áĢ¥áĢĽ
ĠáĢ¡áĢĽ NCA
ĠáĢľáĢĢ áĢ¿áĢķ
ĠáĢĻáĢĽ áĢ¡áĢģ
ĠáĢĩ áĢŀ
ĠáĢħáĢĢ áĢĽáĢĦ
âĢ ª
áĢĮ áĢĤ
áĢľáĢĢ áĢľ
ĠáĢ¡áĢĨ áĢĲ
ĠáĢĲáĢĲ áĢħ
áģĪ áģĦáģħ
áģĨ áģĤáģĤ
áĢ¼áĢ¯áĢ¶ âĢĭ
Ġ- -
áĢķáĢĶ áĢ¡áĢģáĢĻ
áĢĢáĢŀ áĢĲ
ĠC ou
ĠC ant
ĠC ub
ĠC af
ĠC OM
in y
ĠM CB
ĠM exico
ar ak
ĠN N
ĠN CP
ĠN afed
ĠáĢķáĢĳáĢĻ áĢħáĢĲáĢĦ
ĠáĢķáĢĳáĢĻ áĢ¡áĢģáĢĶ
ĠS id
ĠS ok
ĠS ush
ĠS ulf
ĠS ession
ĠS ettlement
ĠA ven
ĠáģĨ áģģáģĪ
ĠáģĨ áģĥáģĦ
áĢ¼áĢ¾ áĢ±áĢ¬áĢ·
ĠáģĪ áģĨáģĥ
Ġáģĩ áģģáģĨ
Ġáģĩ áģīáģĤ
ĠáĢ¤ áĢĢáĢĶ
ĠáĢ¡áĢĳáĢĢ áĢĢ
ĠP K
ĠP riv
ĠP rak
ĠT at
ĠT oilet
ĠáĢĻáĢĳ áĢŀáĢĢ
Ġáģī áģĤáģĩ
Ġáģī áģĦáģĩ
Ġáģī áģĨáģĦ
ĠF al
ĠF us
ĠF ully
it ric
ĠB N
Ġáģģáģħ áģĨáģĢ
Ġáģģáģħ áģĥáģģ
Ġáģģáģħ áģĦáģĥ
ĠáģģáģĤ áģĤáģĨ
ĠáģģáģĤ áģĩáģĤ
ic ally
ĠD SR
ĠD uke
ĠI MA
ĠI ts
ac ar
ac ement
ĠG G
ĠH ak
ĠH earing
ĠK os
ĠK PP
ĠK ai
ĠK erry
ĠU FA
ing the
ĠáģģáģĪ áģħáģĢáģĢáģĢ
áĢľáĢĶ áĢĦ
ĠL ower
ĠL ind
Ġáģģáģĥ áģĦáģĪ
Ġáģģáģĥ áģĦáģĩ
Ġáģģáģĥ áģħáģģ
áģģáģħ áģģáģĤ
áģģáģĤ áģģáģĢ
áģģáģĤ áģĥáģĦ
ĠW or
ĠáĢĲáĢĻ áĢĳ
Ġáģģáģĩ áģīáģĢ
Ġáģģáģĩ áģīáģģ
ol n
CA T
and ee
ow ment
áĢ¤ áĢľ
áģģáģĦ áģĦáģĢ
ad ian
áģģáģĥ áģĥáģĦ
ĠJ er
ĠJ ovago
ĠáģĤáģĦ áģħáģĨ
ur an
ĠV UI
ĠNCA SEAO
em or
us áĢĲ
us áĢĶ
áĢĻáĢĻ áĢħ
ig e
20 3
20 25
20 2012
ĠáģĨáģĢ áģĤ
ĠáģĨáģĢ áģģ
ver se
Ġt oo
Ġt em
ĠThe Chin
ul ner
Ġp oe
Ġp ump
Ġp sych
um s
Ġs ong
Ġs omething
Ġc al
Ġc ultural
Ġc ritical
Ġc offee
Ġc opper
Ġc ertificate
ĠCh er
im ages
Ġf ever
ĠUN EP
ĠáģĤáģĢáģģáģĥ áģĤáģĢáģģáģĦ
Ġm ay
Ġm eth
ist amine
ak eráĢĢ
est he
ĠMr M
ĠáĢ± áĢ¯
IC OE
áģĩáģħ áģĩ
áģĥáģĪ áģĥ
áģĥáģĪ áģģ
ĠáģĪáģĪ áģĩ
áģĤáģĢáģģáģĥ áģĤáģĢáģģáģĦ
ĠUn seen
Ġâ ľ
ong o
com áĢĢ
Ġl ess
ĠQu int
ĠQu aratine
ĠTh ings
Ġin vestment
ma h
St one
St orm
Ġ3 4
ĠPh en
ĠPh osphorus
ĠZ ealand
ph ere
Ch lor
erv ative
áģīáģħ áģī
ĠAl ain
ĠEx im
Ġg as
Ġh otel
ue áĢĢ
ĠPr adesh
ĠáģĦáģĨ áģģ
ok ing
áģģáģħáģĢ áģĤ
ile ad
ĠRes olution
ĠRes ettlement
ĠDr ink
ĠBus áĢĢ
NP K
Ġst and
Ġst eel
ina food
ĠRe quest
ĠMan h
áģĪáģĨ áģĪ
PN O
ĠSc ore
Ġa id
ĠFor tify
ĠáģĨáģĪ áģĦ
Com m
AA áĢ¡áĢĢ
Ġpro duction
HR DP
Th ilawa
me al
Ġáģīáģī áģģ
áģĪáģĦ áģĢáģĢáģĢ
ĠáģĨáģī áģĢáģĢáģĢ
oint ment
ĠLe on
por tional
ĠRep ly
ĠNo tification
ĠFl at
ĠFl oor
ĠGreen House
Ġch lor
ene er
ĠáģģáģģáģĦ áģī
au x
ĠInt ensive
ĠCap ti
ĠPre ventive
ĠDNA áĢĲ
Ind ependent
Ac tive
IP O
ĠáĢĻáĢĳáĢŀ áĢĹáĢŁ
Ġáģģáģģáģĥ áģĩ
ĠAnd y
ĠSur prise
ĠHuman ity
Ġáģ¾ áĢ¡áĢķ
Ġph ytonutrients
Ġáģģáģģáģĩ áģģ
Ġwww m
TO O
ĠAll en
elt ing
ĠEd u
ĠAT BT
par ents
EM G
news myanmar
news asia
ĠLab or
ĠAt lantic
áĢµ áĤĤ
ĠDel ay
ĠSARS áĢĽ
ĠCer ium
yc in
Ġ200 6
udd in
Pr actices
eh avior
Ky is
ĠHand set
Air port
Ġsc ience
ĠAD S
ĠNNER áĢĢ
ru Rice
be an
ĠFil ter
ĠProt ective
ĠBe et
ĠMain ichi
ĠCur rency
HIV áĢķ
ĠMc C
ĠCyber b
ĠModern aáĢĢ
Ġman ual
ĠAng eles
ĠáĢģáĢģ áĢļáĢļ
utt aw
Reg ional
Ġsup ply
mon ella
Ġcar oten
ĠUnder standing
ĠMAI áĢĢáĢļ
ĠPy thon
Ab d
pol itical
Coun ter
Ġwe ather
Aut onomy
________________________________ ____________________
Ġsub ject
ĠGh ost
ĠDV R
ĠUNC LOS
ĠâĪĳ áĢ²
ĠEmb assy
Ġconf irm
ĠJoh ann
gor ithm
ĠOSS C
ĠSak ura
ĠNDA K
omon as
ĠRod rig
Ġpoly phenol
ĠWu han
Tem ple
ĠCrow d
epro sy
ĠEle phant
áĢ¯áĢ¯áĢ¯áĢ¯áĢ¯áĢ¯áĢ¯áĢ¯áĢ¯áĢ¯áĢ¯áĢ¯áĢ¯áĢ¯áĢ¯áĢ¯ áĢ¯áĢ¯áĢ¯áĢ¯áĢ¯áĢ¯áĢ¯áĢ¯áĢ¯áĢ¯áĢ¯áĢ¯áĢ¯áĢ¯áĢ¯áĢ¯
ĠGC BA
plac ed
Ir rigation
Stra its
ĠSumit omo
ĠVeget ative
ĠTAX I
ĠJum ma
ecti ous
olester ol
Ġantig ens
EUT ERS
ĠHIT LC
andee yar
3 80
: :
A mar
B IT
B rown
C ourse
C alif
D J
G od
G ust
G iang
G rowth
H o
H al
K H
L es
L ives
L eaf
M other
M VA
N ame
R a
R ing
R IC
R ating
S et
T u
U O
V ariety
X Y
Z oom
a er
b ro
c us
c iss
c ulture
c raft
d c
d ef
f atty
h ound
i veness
j o
r ust
r ights
s ur
s ays
t áĢĢ
t able
u tic
v re
v olution
x in
Ï Ĥ
â ĥ£
æ ī
Ġ Ç
Ġ ht
Ġ ~~
Ġ alk
áĢº áĢ»áĢŃ
áĢ± áģ
áĢ± áĢ®
áĢĢ áĢĢáĢŀ
áĢĢ áĢ¡áĢĸ
áĢĢ áĢĢáĢľáĢĬ
áĢĢ áĢĿáĢĿ
áĢ½ áĢ½áĢ²
áĢ½ áĢŃáĢ·
áĢ¾ áĢ¾áĢŃáĢ¯
áĢ¾ áĢ¾áĢ¯áĢ¶áĢ¸
ĠáĢĻ áĢ¿
ĠáĢĻ áĢĿáĢĢ
ĠáĢĲ áĢ¡áĢĦ
áĢķ áĢĽáĢĻ
áĢķ áĢķáĢĢ
áĢķ áĢĽáĢģ
áĢħ áĢ¡áĢķ
áĢ¬áĢ¸ '
ĠáĢŀ áĢ¿
áĢĽ áĢĽáĢĢ
áĢĽ áĢĭ
áĢĽ áĢ¡áĢĨáĢĢ
áĢŀ áĢļáĢħ
áĢŀ áĢļáĢĶ
áĢļ áĢŀáĢĬ
áĢģ áĢ¡áĢĲ
áĢľ áĢĲáĢģ
áĢ¶ áĢ¹
ĠáĢĸ áĢĽáĢĢ
ĠáĢĨ áĢŀáĢĬ
áĢ¡ áĢī
áĢ¯áĢ¶ ..
áĢºáĢ· .
áĢĿ áĢĢáĢĢ
ĠáĢĺ áĢŀáĢĶ
ĠáĢĴ áĢŀáĢħ
áĢ±áĢ¬áĢ· âĢľ
áĢ½áĢ² áģĮ
ĠáĢ¡áĢĽ áĢĿáĢļ
ĠáĢĿ áĢĶáĢļ
áĢĻáĢĲ áĢ¡áĢĢ
áĢĻáĢĲ áĢ¡áĢĻ
áĢĩ áĢĤ
áĢĩ áĢĶáĢĢ
ĠáĢŀáĢĻ áĢŀ
ĠáĢŀáĢĻ áĢĸ
âĢ ³
áĢĮ áĢĢáĢĶ
ĠáĢĲáĢĶ áĢĶ
áģĥ áģģáģģ
áģĪ áģĨáģħ
áģĩ áģĤáģĩ
áĢĲáĢĻ áĢĶáĢļ
Ġáģĥ áģĤáģĢáģĢáģĢáģĢ
Ġ- áĢ±
áĢĲáĢĽ áĢĹ
Ġáģģ áģĢáģģáģħ
Ġáģģ áģĢáģģáģĥ
Ġáģģ áģĢáģģáģĨ
áĢ¡áĢĽ áĢ¡áĢĽ
on ym
Ġáģħ áģīáģī
Ġáģħ áģĦáģī
ĠC ategory
áĢ»áĢ± áĢŃ
ĠM ik
ĠM CP
áĢ»áĢŃáĢ¯ /
ĠN ev
ĠáĢķáĢĳáĢĻ áĢĢáĢĻ
ĠS V
ĠS ung
ĠS PA
ĠS OE
ĠáģĨ áģĤáģĩ
ĠáģĪ áģĥáģĩ
ĠáģĪ áģĨáģĨ
ĠáģĪ áģħáģī
ĠáģĪ áģĩáģĩ
ĠáģĪ áģĩáģģ
Ġáģĩ áģĥáģĪ
Ġáģĩ áģĦáģĦ
ĠáĢ¤ áĢĢáĢħ
ĠP ing
ĠP FM
ĠP OP
ĠáģģáģĢ áģĤáģĢáģĢ
ĠáģģáģĢ áģĪáģĪ
ĠT ib
ĠT EA
ĠáĢ¡áĢĽáĢĬ áĢĿ
áģģáģĢ áģĦáģĢ
áģģáģĢ áģīáģĢ
áģģáģĢ áģĨáģĨ
áĢĻáĢģ áĢĿ
ĠáĢ¡áĢĬ áĢĦ
ĠF ear
ĠF ixed
ĠB BS
ĠB attle
ĠB rief
ĠB attery
ĠB oston
áĢĪ áĢĢ
Ġáģģáģħ áģģáģĤ
ĠáģģáģĤ áģĨáģī
ĠáģģáģĤ áģĪáģĨ
ĠáģģáģĤ áģĨáģĦ
ic ago
ĠD re
ĠD ell
ĠD ancer
ĠD HL
ĠI sh
ĠI BC
ĠI PS
ĠR ory
ĠR atch
ĠáĢĻáĢĻ áĢĨ
ĠG GI
om at
ĠáĢŀáĢĽ áĢģ
ĠH oi
ĠH eaven
ĠU FO
el or
ĠL t
ĠL it
ĠL ad
ĠL av
ĠL akh
ĠL inn
ĠE IL
ĠáģĥáģĢ áģħáģĢ
ation áĢľ
ĠNLD áĢĳ
áģģáģĪ áģģáģĥ
Ġáģģáģĥ áģĤáģĪ
Ġáģģáģĥ áģĨáģĩ
Ġáģģáģĥ áģħáģĩ
áģģáģħ áģĤáģħ
áģģáģħ áģĪáģĪ
áģģáģħ áģĤáģĦ
áģģáģĤ áģĥáģħ
le ts
ĠáģģáģĦ áģģáģħ
ĠáģģáģĦ áģĩáģĤ
ĠáģģáģĦ áģĦáģĢáģĢáģĢ
ĠáĢ¡áĢĽáĢĻ áĢŀáĢĦ
ĠáĢĲáĢľ áĢģáĢĶ
ĠáģģáģĨ áģĨáģĦ
Ġáģģáģĩ áģĪáģģ
st rom
ow een
ad uzz
id ul
ec tic
áģģáģĩ áģģáģĪ
áģģáģĩ áģħáģĪ
áģģáģĨ áģĪáģĪ
áģģáģĥ áģģáģĥ
ĠJ ong
ĠJ ane
ĠV CD
ĠNCA áĢ¡áĢķ
ay Maung
ĠMyanmar Harp
áĢĻáĢĻ áĢ¡áĢĻ
ag ers
ook iat
áģĨáģĢ áģĦ
op es
ĠAA áĢĲáĢķ
SA L
ess el
ia áĢĻ
Ġt one
ĠSt rike
ra ig
ra ve
Ġs pr
Ġs afe
Ġc ash
ew art
ang i
ang ible
ĠCh un
ĠCh uck
os lav
ap s
Ġf oot
ĠáģĩáģĢ áģĪ
up rofen
ri áĢĢ
ĠUN OPS
ĠáģĪáģĢ áģĤ
Ġm al
Ġm at
Ġm igration
od ore
ĠPro tein
Ġb ias
ĠCon gr
áģĩáģħ áģħ
áģĩáģħ áģĥ
áģĩáģħ áģĦ
áĢĿáĢŀ áĢĮ
Ġl ow
Ġl ast
ĠQu eens
áĢĽáĢĵ áĢĻ
ĠTh ought
áģĥáģĤ áģħáģĢ
ĠAs ahi
ib u
áģħáģħ áģĦ
ung i
áģīáģħ áģĪ
ĠAl am
ĠAl ice
Ġg ene
Ġg round
Ġh arm
ĠAr med
ðŁ Ĵ
ĠáģĨáģĨ áģģ
ff icking
ah áĢĢ
ĠáģħáģĨ áģĢáģĢáģĢ
Ġáģħáģī áģĤ
ĠInd oor
Pro file
ER D
áģħáģĨ áģĢáģĢ
Ġe asy
ĠRe use
áģĩáģĨ áģĢáģĢ
Ġr ay
áģĦáģĥ áģĢáģĢáģĢ
ĠComp ound
áģīáģĩ áģĥ
áģĨáģĪ áģĩ
ĠáĢŀáĢĻáĢĲ áĢĻ
ug u
ĠáģħáģĦ áģģ
ĠSp ecies
Ġre ject
áģħáģĪ áģĢáģĢ
ĠMar x
ĠMar co
Sh in
ĠáģģáģĥáģĢ áģħ
ĠMA S
Th ree
Un icode
az ole
MS UNG
ous and
pl ants
áģģáģĪáģĢ áģĩ
áĢŀáĢĻáĢļ áĢŀ
CCI I
Sc ot
Sc reen
ðŁļ¥ðŁļ¥ ðŁļ¥
cl er
Ġac adem
ĠCol td
ĠCar ry
ĠMO EAF
áģģáģģáģĦ áģħ
ĠWe alth
Ġsh op
OR Y
Ġis olation
ĠMed iáĢĲ
Ġth reat
ĠDis play
ĠáģĪáģĩ áģĢáģĢáģĢ
ĠDe ut
Ġk g
ye ong
reed ing
Ġph otos
ĠðŁ Ķ
lish ing
IN T
ĠIT áĢĶáĢĬ
áģģáģīáģĥáģħ áģĥáģĨ
ĠAnti gen
ĠBi ological
ĠBi otechnology
ĠBi odiversity
off ice
ĠCy cle
Ġ! !!
ces sto
Gu ideline
Mar sh
oan ews
Ġpl ayer
ĠCMP áĢħáĢĶáĢħ
200 7
ĠChannel newsasia
Bl ood
ĠLa unch
ĠLeg isl
áģ± áĢ®
ĠEqu al
ĠUNICEF áĢĢ
ĠSuper market
Le ague
Dr ug
unte ers
ĠMag ne
ĠView Point
ĠMain ten
SEAO áĢĻ
Research Institute
áģ¾áĢ¡áĢģ áĢħ
Win ner
SE Z
ĠMM TC
ĠMc Kin
ĠDepartment of
ĠEver ything
Ġsocial media
ues day
ĠODA áĢģ
ĠRule ofLaw
ĠVirtual ization
ows ki
uang porn
Bi otech
lear ning
omo tive
cont act
ĠRelief Flight
mall ow
ĠSav ethe
ĠAh med
Court of
aceae áĢĻ
Ġequ alization
group s
ĠMinistry of
Jun ior
ĠAN Z
ĠBut ton
ĠCoordin ating
ĠCarl sberg
ĠFaculty of
ĠLiv elihood
ĠîĨ ¶
Def ence
yll ab
ĠJF K
sor iasis
ĠHind u
arbon ate
ĠPhot ography
Wind ow
ĠSTA R
ĠMRC P
Ġent ry
Coord ination
rif ication
ĠMyaw ady
ĠKind ergarten
Microsoft InternetExplorer
ĠKenn edy
Phys ical
itiv ity
áĢ±áĢµ áĢ¬
ĠFlor ida
ĠSwit zerland
jur ul
ĠMahm ood
vet as
itam et
ucurbitac ins
ĠChau vin
ðŁĵ ļ
Inst agram
aryn ge
ĠMemor andum
ĠAsper gillus
emerg ence
sylvan ia
abul ary
áĢ±áģ ŀ
/ %
9 00
B atch
C ash
D am
E duc
E mail
E ITI
F eed
F ron
G áĢĻ
G ates
H ass
H ope
H appy
J et
L ow
L TE
L aur
L aptop
M LM
N at
N yein
O m
P BZ
R un
S ab
S av
T able
U t
U ser
V iet
W olf
a uc
b in
b ana
b illion
c al
c all
d ec
d etermination
f ather
g ed
l ia
l ass
o ise
p it
p ute
q ing
s áĢĽ
s ay
s im
s ocial
s elf
s ki
t ong
u ong
y en
Å į
Ì ı
Î ¿
à ®
â ľ
Ġ Ø
Ġ ann
áĢº áģ²
áĢĲ áĢĳáĢķ
áĢĶ áĢŀáĢĻ
áĢķ áĢĲáĢļ
áĢķ áĢķáĢĬ
áĢĻ áĢ¡áĢĳáĢĦ
áĢħ áĢ¡áĢģ
áĢĬ áĢĪ
ĠáĢĽ áĢħáĢķ
áĢĽ áĢ¡áĢĨáĢĦ
áĢļ áĢĢáĢĦ
áĢģ áĢĻáĢĽ
áĢ¶ áĢ±
áĢ±áĢ¸ áĢ¯
áĢ° áĢ±
ĠáĢĸ áĢľáĢĶ
áĢ®áĢ¸ áĢ»
áĢ®áĢ¸ áģį
áĢŃáĢ¯áĢ· âĢĿ
áĢ¼áĢ®áĢ¸ áĢ¯
áĢ¾áĢ¯ áĢ¾áĢ¯
áĢ¾áĢ¯ áģį
áĢ¯áĢ¶áĢ¸ "
áĢ¯áĢ¶áĢ¸ áģı
áģĢ áģīáģĤ
áĢĴ áĢľáĢĢ
áĢĴ áĢĢáĢĻ
áĢ½áĢ¬áĢ¸ ..
áĢ±áĢ«áĢº áģį
áĢĤ áĢ¡
áĢĤ áĢ¡áĢĲ
ĠáĢ¡áĢĽ áĢľáĢĲ
ĠáĢ¡áĢĽ áĢ¡áĢŀáĢĦ
ĠáĢĻáĢĽ áĢŀáĢĦ
áĢĻáĢĲ áĢľáĢĢ
áĢĻáĢĲ áĢĻáĢĸ
áĢ¼áĢ® áĢ¯áĢ¸
âĢ ²
âĢ Ĺ
áĢĹ áĢľáĢĢ
áģħ áģĪáģĪ
áģħ áģĥáģĪ
áĢĽáĢķ áĢĬ
áĢ¡áĢĶ áĢĦ
ĠáĢķáĢĲ áĢķ
áģĥ áģĪáģĪ
áĢ±áĢ«áĢ· .
áģĪ áģīáģĢ
ĠáĢĻáĢĶ áĢĲ
áģĨ áģģáģĨ
áģĨ áģĦáģĤ
áĢĲáĢĻ áĢŁáĢĦ
áģī áģģáģĤ
áĢ¡áĢĻ áĢĶ
áĢħáĢħ áĢģ
áĢĲáĢĽ áĢ¡áĢģ
áĢĲáĢĽ áĢ¡áĢľ
ĠáģĤáģĢáģģáģ ģáģĤ
ĠC M
ĠC orm
in ternational
ĠM ans
ĠM ood
áĢ»áĢŃáĢ¯ áĢ¯
ar es
ĠáĢķáĢĳáĢĻ áĢľáĢĢ
ĠS ag
ĠS MEC
ĠS anta
ĠS ample
ĠS ydney
ti tion
ĠA ff
ĠáģĨ áģģáģĨ
ĠáģĨ áģĤáģĢáģĢáģĢ
ĠáģĨ áģĦáģĩ
ĠáģĨ áģĩáģĨ
ĠáģĨ áģĩáģĪ
al let
or ail
or se
Ġáģĩ áģĦáģĢáģĢ
ĠáĢ¤ áĢĨ
ĠP U
ĠP el
ĠP ool
ĠP aj
ĠP AN
ĠP ARK
ĠáģģáģĢ áģħáģĢáģĢ
ĠáģģáģĢ áģĪáģĢáģĢáģĢ
ĠT RA
Ġáģī áģĥáģī
Ġáģī áģĪáģħ
Ġáģī áģħáģī
áģģáģĢ áģĨáģħ
áģģáģĢ áģīáģħ
ĠáĢĻáĢħ áĢŀ
ĠF eb
ĠF ib
it el
ĠB ac
ĠB oo
ĠB ol
ĠB LO
ĠB DS
Ġáģģáģħ áģĨáģĨ
Ġáģģáģħ áģħáģĨ
ĠáģģáģĤ áģĪáģĪ
ĠáģģáģĤ áģĨáģĨ
ĠáģģáģĤ áģĨáģħ
ĠáģģáģĤ áģĦáģĥ
ĠD Y
ĠD AW
ĠD etermined
áĢĿáĢĿ áĢģáĢĶ
ĠR he
at on
at el
ĠG NCáĢĢ
is b
ĠH DB
ĠK es
ĠK ish
ĠL an
ĠL ech
as pp
áģģáģĪ áģĤáģĢáģģáģī
áģģáģĪ áģĢáģĢáģĢáģĢ
Ġáģģáģĥ áģĤáģĩ
áģģáģħ áģĥáģĨ
áģģáģĤ áģĦáģħ
áģģáģĤ áģĥáģĪ
áģģáģĤ áģĪáģģ
ĠW ing
ĠW IN
he y
ĠáģģáģĨ áģħáģĨ
Ġáģģáģĩ áģģáģĦ
Ġáģģáģĩ áģĤáģħ
Ġáģģáģĩ áģħáģĪ
ol or
st ay
st ud
ĠáĢķáĢļ áĢĲ
ow el
ter fly
id or
áĢ§ áĢĢáĢĶ
ĠO lam
ĠO ctober
áģģáģĥ áģĤáģĦ
áģģáģĥ áģĪáģģ
ĠJ r
ĠJ eremy
áĢŀáĢļ áĢĲáĢĽ
un it
ĠY unn
ay uki
ir s
ir áĢĢ
ir al
ir icid
ig ence
ig ne
áģĨáģĢ áģĩ
áģĨáģĢ áģī
op er
ver ter
Ġt able
ment ed
ĠSt ad
ĠThe y
ul ic
ra ham
Ġp at
Ġp ath
áģģáģīáģĨ áģĤáģĨáģĥ
Ġs leep
ew ater
ĠCh amp
Ġf at
Ġf ire
ion áĢĢ
ri ber
áģĤáģī áģĢáģĢáģĢ
ĠáĢķáĢĳ áĢĨ
ĠáģĤáģĢáģģáģĤ áģĤáģĢáģģáģĥ
LA ND
Ġm aj
ab is
ab ilities
ĠáĢĻáĢĲáĢĢ áĢĺáĢĲ
ĠKN G
áĢĺáĢĿ áĢľ
ĠRC áĢĻ
ob ium
DP C
CC C
ĠáĢ± áĢº
Ġd ist
Ġb or
Ġb el
Ġb io
Ġb illion
ĠSh ark
ĠSh akes
ill ustration
áģĩáģħ áģĩáģĨ
Ġ20 25
Ġ20 21
In come
se arch
ĠTNLA áĢĶ
Ġl iteracy
ĠTr ig
St orage
áģĦáģĪ áģĤáģĪ
ly cer
end ers
end iture
EA P
erv ed
áģĦáģĩ áģĥ
Ġ7 9
sh i
ĠAl ter
enc ing
Ġh istory
anc oz
ĠUWSA áĢĲáĢķ
ĠáĢ¼ >áĢ½
Ġn ote
ĠComm ander
áģģáģħáģĢ áģħ
áģĦáģī áģĢáģĢ
áģĨáģĩ áģĦ
ĠInd igenous
ĠRes cue
ign ity
ĠáģĦáģĥ áģħáģĢ
Ġv oting
áģĪáģĨ áģĤ
áģĪáģĨ áģĥ
áģĪáģĨ áģĦ
Ġa áĢĢ
Ġa áĢĪ
ĠáĢŀáĢĻáĢĲ áĢ¡
ug ht
Ġ19 88
áģīáģĪ áģĦ
ĠGen ius
ĠSp ot
ĠMNDAA áĢĢ
ĠáĢ¡áĢĩ áĢħ
Ġpro biotics
Ġpro file
ĠáģģáģĥáģĢ áģĥ
ĠáģĨáģĩ áģģ
áģħáģĩ áģī
ĠMA N
mit ter
ĠMo ore
az i
app lication
pl aint
ĠSNLD áĢĶ
áĢĺáĢĽ áĢŁáĢĶ
ĠAsia Pacific
fl amm
ĠMI P
ĠMI TV
ĠGDP áĢ¡áĢģ
Ġáģĩáģĩ áģĢáģĢáģĢ
arm aceutical
Group áĢĲ
Ġch arg
Ġch allenge
ĠMod i
Ex am
áĢľáĢŁ áĢľ
ĠDKBA áĢĲáĢķ
ĠInt egration
áģģáģĥáģĢ áģĩ
áģģáģĥáģĢ áģī
ĠCap t
ix ture
ick starter
ĠPar am
ĠEU áĢĶ
ĠUNDP áĢĢ
HA I
Ġk ing
Ġáģģáģģáģĥ áģĪ
ĠáģĢáģī áģħáģĢ
Development Go
ert ainment
ĠHuman Rights
áģģáģīáģĥáģĪ áģĥáģī
Ġde al
Ġph ase
Ġex change
ĠBBC áĢĢ
pro ject
Pl ate
University áĢĲ
ĠStayatHome áĢķ
14 4
Ġj ustice
Re ading
ĠHealth care
Ass oci
ĠBi om
ĠTomorrow áĢŀáĢĲáĢĦ
ĠAmeric ium
han om
NO W
áģģáģģáģĩ áģħ
ĠCer tified
Col or
Ġacid áĢĢ
hold er
Pr ice
eh yd
Mar tial
ĠNov ember
ĠOut break
ĠOut door
CB T
ĠNation Building
++ +
Fl ow
ĠHold er
ĠRob ot
Ġpr ice
ĠAD HD
ĠCheck andBalance
ĠáĢĽáĢĻáĢĽ áĢĨ
arth ritis
ĠGl iricid
Trans mission
ĠIP O
Sec urities
ĠCash For
Ġel even
Min ister
ĠCR EA
tre me
ĠRock et
Ġtrans fers
ĠSEA P
mon ary
Sing h
gress ive
ICJ áĢĻ
Ġcor onavirus
ĠPot ential
ĠVOM áĢĢ
ĠMaj ority
ĠUnit ary
aste ur
Per iod
ĠRichard son
ga on
ĠTri ple
ĠSn ork
ĠMindset áĢĢ
SME s
ĠDes k
ĠNationwide CeasefireAgreement
ĠáĢ¼áĢ¯ áĤĭ
ĠBir en
ĠSeasonal InfluenzaA
ĠShin zo
ĠRevolution ary
ĠCitizen ship
ÃĹÃĹÃĹÃĹ ÃĹÃĹÃĹÃĹ
plan et
ĠBul og
ĠJo in
Mart in
ĠMang o
à¥ į
pi red
xy chlor
ĠKySDP áĢķ
pris onment
ĠCarl os
Ma Ka
ĠCob ra
ĠInsp ection
ĠAcc ident
ĠJud ge
Ġbut ton
ĠAnaly tica
Ġsem i
Will iam
ĠHost el
ĠPic ture
ĠBeh ind
Ġdr ink
ĠWithout áĢĢ
cell ence
ĠHealthy Skepticism
ĠRelig ions
Av iation
ĠGly phosate
ĠComb ined
Develop er
ĠGAqP áĢħáĢĶáĢħ
ĠKenn eth
los an
ĠNep al
Ġreal me
Ġtechn ical
ĠValent ine
ĠValent ino
ocl onal
ĠIb rahim
Engine er
Guard ian
ĠQual comm
Ġprom ote
Suu Kyi
ĠNest le
Ġfail ure
ĠIden tification
Tex as
âĻ«âĻªâĻ«âĻªâĻ¬âĻªâĻ©âĻŃâĻ«âĪ® âĻ«âĻªâĻ«âĻªâĻ¬âĻªâĻ©âĻŃâĻ«âĪ®
hanouk ville
Task Force
aduzz aman
xychlor oquine
* âĸ¬
1 12
2 10
A Y
A ye
B ern
B rief
C arb
C ritical
C risis
D ong
E Q
F inding
G V
G ov
H un
L akáĢĢ
P ile
R en
S RI
S EN
S IM
S etting
S uccess
T ree
T ouch
W il
Y an
Y RTA
Z O
b uilding
e or
g al
g el
g rowth
j ournal
m ill
m aster
n ote
r ack
r ength
s he
t ouch
v ester
w eed
w estern
y ine
z ep
Â ®
Ð ¸
ä »
Ġ ing
áĢº áģ³áĢ®
áĢ¯ áĢ¹
áĢĲ áĢĴáĢĦ
áĢĲ áĢĩáĢĿ
ĠáĢ¡ áĢ¡áĢĸ
áĢĻ áĢĸáĢĶ
ĠáĢķ áĢĢáĢĶ
ĠáĢķ áĢĽáĢķ
ĠáĢŀ áĢĻáĢĲáĢħ
ĠáĢĽ áĢ¡áĢĳ
áĢ® áģĮ
áĢŀ áĢĻáĢĲáĢĢ
áĢļ áĢ¡áĢħ
áĢ« -
áĢľ áĢ¡áĢľ
áĢ±áĢ¸ âĢĿ
áĢ®áĢ¸ áģı
áĢŃáĢ¯áĢ· )
áĢŃáĢ¯áĢ· áģİ
ĠáĢĨ áĢĲáĢļ
ĠáĢĨ áĢĹ
áĢ·áĢº áģİ
áĢ¾áĢŃ áģı
áĢ¹ áĢ·
áĢĿ áĢŀáĢĶ
ĠáĢļ áĢĿáĢĿ
áĢŁ áĢħáĢĶáĢħ
ĠáĢĹ áĢľáĢĶ
áĢ»áĢ¯ áĢ¬áĢ¸
ĠáĢĬ áĢ¦
ĠáģĤ áģģáģģáģĤ
ĠáģĤ áģģáģģáģĥ
ĠáĢĽáĢĢ áĢĻ
ĠáĢĩ áĢļáĢĢ
ĠáĢ¥ áĢ¿
áĢ¼áĢ® áĢ·
áĢĵ áĢĶáĢĽ
áĢĹ áĢĽáĢĻ
áģĦ áģĤáģĦ
áģĦ áģĥáģĢáģĢ
áģĨ áģĥáģħ
áģī áģīáģĢ
áĢĽáĢĢ áĢĻ
áĢĲáĢĽ áĢŁ
áĢĲáĢĽ áĢģáĢĽ
áĢ¥ áĢ¿
áĢį áĢŀáĢĬ
Ġáģħ áģĥáģģ
Ġáģħ áģĦáģĪ
Ġáģħ áģĦáģĤ
ĠáģĤáģĢáģģáģ ģáģĤáģĢáģģáģĤ
ĠC z
ĠC LA
ĠC isco
in el
áĢ»áĢ± áĢ±
ĠM iz
ĠM ISIS
ar an
ĠN K
ĠN yein
ĠáĢķáĢĳáĢĻ áĢĨáĢļ
ĠS ans
ĠS ituation
ĠáģĨ áģīáģĤ
áģĤáģĢ áģĥáģħ
or ama
ĠáģĪ áģģáģĨ
ĠáģĪ áģĤáģĩ
ĠáģĪ áģĤáģĪ
ĠáģĪ áģĥáģĪ
ĠáģĪ áģĦáģĤ
ĠáģĪ áģĩáģī
Ġáģĩ áģĥáģĦ
Ġáģĩ áģĪáģĤ
ĠáĢ¤ áĢħ
ĠP ont
ĠP HI
ĠáģģáģĢ áģĤáģĢáģĢáģĢ
ĠT ail
ĠT ry
áĢĢáĢĢ áĢĳ
Ġáģī áģĨáģĢáģĢ
ĠáĢ¡áĢĬ áĢĲáĢĽáĢĲ
ĠF U
ĠF ot
ĠF emin
áĢ¡áĢĦ áĢĦ
it as
it able
ĠB ou
ĠB CS
ĠB ago
ĠB EDC
ĠB raking
ĠáģģáģĤ áģħáģħ
ĠáģģáģĤ áģĦáģĪ
ĠáģģáģĤ áģħáģī
ĠáģģáģĤ áģīáģĦ
ĠáģģáģĤ áģħáģĦ
ĠáģģáģĤ áģħáģģ
ĠáĢķáĢĽ áĢĿ
ic ate
ic ies
ĠD in
ĠD ot
áĢĿáĢĿ áĢľáĢĦ
ĠR D
ĠR if
ĠR ush
ĠR EDD
ĠG ov
ĠG eng
ĠG ROUP
is áĢĻ
is hed
ĠH art
ĠH ung
ĠH unger
ĠK rat
ĠU L
ĠU HC
ĠU HT
ĠU VA
el ph
ĠáģģáģĪ áģĥáģģ
ĠáģģáģĪ áģĥáģĥ
ĠL I
ĠL ik
ĠL oft
ĠL obby
ĠE I
ĠE AS
ĠE agle
ĠáģĥáģĢ áģĥáģģ
Ġáģģáģĥ áģĤáģĢáģĢáģĢ
Ġáģģáģĥ áģĨáģī
Ġáģģáģĥ áģĦáģĤ
áģģáģĤ áģĤáģħ
áģģáģĤ áģĪáģĪ
áģģáģĤ áģīáģĦ
áģģáģĤ áģħáģĪ
áģģáģĤ áģħáģĥ
ĠW ah
ĠW ORLD
he p
ĠáģģáģĦ áģĦáģħ
ĠáģģáģĦ áģħáģĢáģĢ
ĠáĢ¡áĢĽáĢĻ áĢħ
ĠáģģáģĨ áģħáģħ
ĠáģģáģĨ áģĥáģĢáģĢáģĢ
Ġáģģáģĩ áģīáģĩ
st rain
and f
ec ause
áĢ§ áĢĿ
áģģáģĩ áģģáģħ
áģģáģĩ áģĩáģģ
áģģáģĩ áģĩáģī
áģģáģĨ áģĦáģĥ
ĠO v
áģģáģĥ áģĤáģĤ
áģģáģĥ áģĦáģĩ
áģģáģĥ áģĪáģĤ
ĠJ ak
ĠáĢı áĢŀ
un o
ĠIn stit
ĠIn ner
ĠMyanmar V
áĢ© áĢĶ
ir ty
oc o
oc om
oc ha
áģĨáģĢ áģĥ
SA áĢĢ
20 30
áģĢáģĢáģĢáģĢ áģĢáģĢ
Ġt own
áģĦáģĢ áģĩ
áģĪáģĢ áģĥ
ĠThe atre
Ġp ush
um áĢĢ
Ġs ense
Ġs ulf
Ġs usp
Ġc ount
Ġc ross
ang a
ĠCh ill
ĠCh atting
áģĩáģĢ áģĩ
im itz
ap tive
ap se
ut in
ĠáģĪáģĢ áģģ
Ġm all
od erma
ist ure
ĠáģīáģĢ áģĥ
ĠáģīáģĢ áģĪ
CC h
ĠáĢ± áĢ·áĢ«
Ġd uty
Ġb re
Ġb urma
Ġb uy
Ġb asic
ĠSh adow
áģĥáģģ áģĢáģĢáģĢ
NLD áĢľ
NLD áĢ¡
Ġáģĩáģħ áģĨ
ĠKIA áĢĢáĢľáĢĬ
eg i
ure d
ĠKNU áĢĳ
Ġw alk
iz a
ust rated
Ġáģĥáģĩ áģĢáģĢáģĢáģĢ
ĠáĢ¾ áĢº
ĠáĢ¾ áĢ¯áĢ¸
orm one
ĠTh om
ĠTh under
Ġin c
ĠAs par
ĠAn s
ĠPh yu
ĠPh andeeyar
ph aly
ĠáģĨáģħ áģī
over e
ĠáĢ½ áĢ±áĢ¸
per iod
Ġáģħáģħ áģģ
MC ard
sh an
Ġg el
Ġg rammar
ĠÂ ¸
ĠAr du
áģĦáģĦ áģĢáģĢ
ĠUWSA áĢĿ
ax anth
ĠáģģáģĤáģĢ áģĥ
ĠáĢ¡áĢĤ áĢļ
áģĨáģī áģĦ
áģĨáģī áģĨ
ĠCor ner
ĠáĢ£ áĢħ
áģĨáģĩ áģĨ
ens on
ric a
ER O
Ġst ation
Ġst roke
ond ing
ĠMan ipur
ĠMan ulife
Ġ5 000
ash able
ound s
the tic
ĠSc ale
ĠOr al
Ġa ud
áģĩáģĪ áģĥ
ich ai
ĠNew ton
ĠPl atinum
Ġpro tein
ĠáģģáģĪáģĢ áģĦ
Ġ6 7
Ġáģīáģī áģĥ
NCA áĢ¡áĢĢ
ĠAir line
ĠSME áĢĲ
Ġáģģáģģáģħ áģĤ
min ster
ĠáĢĶáĢĿ áĢĲáĢĶ
Ġcom mitment
ĠCol lective
land Post
ĠOnline áĢĢ
Con stitution
ĠFl ood
ĠGreen Way
ĠLaw rence
Ġáģĩáģĩ áģĢáģĢ
ĠáģīáģĨ áģĢáģĢáģĢ
Government áĢħáĢĶáĢħ
ĠMin eral
ĠáģģáģģáģĦ áģĢáģĢáģĢ
ĠáģģáģģáģĤ áģĤ
ĠÃ ª
US T
US X
ĠMed al
Ġth rough
Ġle ader
ale áĢĢ
ĠTeam áĢĢ
áģģáģīáģĥáģī áģĦáģĢ
Ġáģīáģĩ áģĢáģĢáģĢ
ĠOrgan izer
ĠDis count
ĠPage áĢĻ
ĠAnd riod
ĠáģģáģģáģĪ áģĨ
enti a
Al bum
inc oln
ĠWebsite áĢĲ
Ġáģģáģģáģĩ áģĦ
by áĢĢ
ĠCO FCO
ĠRel ax
ĠVol t
ĠIntern ation
ĠSub st
ĠGrand i
ĠAP B
tr as
Sp ot
Comp anies
ĠAccount áĢĢ
ĠTra v
ĠEnter prises
Ġ200 2
Col a
Col lection
áģģáģģáģģáģ Ĩ
rup t
Pr ince
ĠFDI áĢĢ
ret a
ĠPan ic
ĠKBC áĢĢ
Ġpl us
ĠProcess ing
ĠCEC áĢ¡áĢħáĢĬ
ĠHand Gel
ĠCode ofConduct
Mask áĢĲ
Ġim prisonment
hi ro
áĢ½áĢ· áĢ²
Test ing
Ġwh ich
Ġpol ice
ĠMY EA
ĠMY SAP
ĠMel inda
ĠCNN áĢŀáĢĲáĢĦ
IR RI
ĠDef inition
har vest
GI Z
ugh ter
áĢ³ áĢ¸
amm asat
Dem and
AW EI
ĠSam uel
ĠUNODC áĢĢ
ĠLock Down
ĠScreen shot
ĠVirtual áĢħáĢĶáĢħ
ĠRest oration
Har vest
ĠHel vetas
ĠContact Tr
ĠMNA áĢĢáĢļ
ĠReal ism
anger ous
áĢħáĢģ áĢĽáĢĦ
ĠArch ae
ĠCommission er
ĠSA MSUNG
ĠFranc ois
68 00
pol ice
ĠWalk er
ĠEase ofDoingBusiness
ĠMass achusetts
cent ration
ĠSat ur
ĠPrincip al
ĠProvisionalMeasures áĢĢ
ĠSC MP
High way
Ġcur rency
Press ure
ĠSolution s
ĠFa ith
ĠFa una
ĠBuff alo
à¥ Ģ
eau tiful
ĠWood side
Sky ler
ĠCirc uit
ĠCos me
xi ety
ĠImm une
Hold ings
asak awa
ĠMyanma alinn
Val ley
Fer tilizer
Ġrem ote
Ġsign al
ĠTay y
Shan State
heb rey
Er ror
ĠVM SSystem
ĠKNC áĢķ
ĠEb ola
Spr ing
ĠBioNTech áĢĲ
ĠHass an
Ġstrate gy
Ġstrate gic
ĠMillenn ium
ĠAyey arwaddy
ĠPeac eful
ĠHapp iness
ilet ral
sl ide
ĠCin ema
ĠOry z
ĠTitan ic
ĠáĢĩáĢĿáĢĶ áĢī
ither idge
ĠVeter inary
ĠExpect ation
ohyd rate
Calif ornia
âĢĹ âĢĹ
ancoz eb
ĠSnork eling
1 80
2 50
3 000
A ID
A BS
B oat
C up
C ab
C ast
D im
D ist
D ouble
D ebate
E W
F ile
F ED
F inal
G W
H TC
J im
J ud
K RC
K ind
M il
M ary
N go
N VC
O ur
R akhine
S MS
S eason
T ro
T ablet
U F
U áĢĲ
U AE
V est
V TI
W un
Y áĢĢ
a eda
b ed
d isc
f amily
h r
h ub
h rel
l ow
l if
l ite
q i
r ite
r ise
s áĢŁ
s uw
t reatment
v oy
w ings
á »
â Īĳ
Ġ ou
Ġ ur
Ġ ice
áĢ¯ áĢ¯áĢ¶áĢ·
áĢ± áĢ½
áĢ± áĢ±áĢ¬áĢº
áĢĢ áĢĲáĢķ
áĢĢ áĢ¡áĢŀ
áĢĢ áĢł
áĢ¼ áĢ«áĢ¸
áĢºáĢ¸ Â´
áĢ±áĢ¬ =
áĢĶ áĢľáĢĢ
ĠáĢĻ xxxx
áĢķ áĢ¡áĢĸ
áĢķ áĢĢáĢľáĢĬ
áĢķ áĢĩáĢĦ
ĠáĢĢ áĢĨáĢĢ
áĢĻ áĢħáĢĽ
áĢĽ áĢģáĢĽ
áĢ² áĢ¹
áĢ² áģĬ
áĢļ áĢ¡áĢĦ
áĢģ áĢĪ
áĢ« áģĬ
áĢľ áĢĽáĢĬ
áĢľ áĢĴáĢĦ
áĢ° )
ĠáĢħ áĢĻáĢĶ
áĢ¯áĢ¶ áģĭ
áĢºáĢ· áĢ·áĢº
áĢĳ áĢĿ
áĢĸ áĢģ
ĠáĢĴ áĢĽáĢĻ
áĢĴ áĢĢáĢķ
áĢ±áĢ¬áĢ· áĢ·
áĢĺ áĢĽáĢĢ
ĠáĢ¡áĢĻ áĢŁ
áĢ¼áĢ± "
ĠáĢ¡áĢĽ áĢŀáĢĶ
ĠáĢ¡áĢħ áĢĶ
ĠáĢ¡áĢħ áĢĻáĢķ
ĠáĢĻáĢĽ áĢĴ
áĢĻáĢĲ áĢĴ
ĠáĢĽáĢĢ áĢķ
ĠáĢ¥ áĢĶ
ĠáĢĲáĢĶ áĢľ
ĠáģĢ áģģáģħ
ĠâĢ ¦
áģģ áģĢáģģáģĦ
áĢ¼áĢ¯áĢ¶ áĢ¶
ĠáĢĻáĢľ áĢĻáĢĦ
áĢ¡áĢĽ áĢ¡áĢģ
áĢ¡áĢĽ áĢ¡áĢĻ
áĢį áĢĢáĢĶ
ĠáĢĻáĢŀ áĢĲáĢĦ
áĢĢáĢĽ áĢ¡áĢĸ
ĠáĢĢáĢĲ áĢĨáĢĦ
er d
er i
ĠáģĦ áģģáģħáģĢ
Ġáģħ áģĥáģĢáģĢ
ĠC itizens
ĠM erg
ĠN PC
ĠN RC
ĠN SP
ĠN PA
ĠáĢķáĢĳáĢĻ áĢŁáĢĦ
ĠS z
ĠA PT
ĠA CS
ĠA UNG
ĠáģĨ áģģáģģ
ĠáģĨ áģĦáģĤ
ĠáģĪ áģĤáģĥ
ĠáģĪ áģĤáģĨ
Ġáģĩ áģĤáģĥ
ĠáĢ¤ áĢģ
ĠáĢ¤ áĢ¥áĢķáĢĴ
ĠP and
ĠP od
ĠP ram
ĠáģģáģĢ áģĩáģħ
ĠáģģáģĢ áģĪáģĨ
ĠT aj
ĠT RT
ĠT EI
ĠT RADE
ĠT iffany
Ġáģī áģĨáģĨ
Ġáģī áģĨáģĥ
áģģáģĢ áģĤáģħ
áģģáģĢ áģĪáģĦ
ĠáĢĻáĢħ áĢ¥
ĠF ellow
ĠF oley
ĠáĢĻáĢģ áĢĽ
ĠB ao
ĠB iden
ĠB ishop
ĠáģģáģĤ áģĤáģĦ
ĠáģģáģĤ áģħáģĪ
ĠD un
ĠD ictator
ĠR yan
ĠR up
ĠR ex
ĠR atio
ĠR oof
ĠR eex
ĠG em
ĠG og
ĠG ift
áĢĶáĢĿ áĢĻ
ĠH orn
ĠH SE
ĠK Y
ĠK áĢĢ
ĠK ate
ĠK aw
ĠK VA
ĠáĢ¡áĢĺ áĢľ
el ect
el ain
el ection
ĠáģģáģĪ áģģáģĩ
ĠáģģáģĪ áģģáģĨ
ĠáģģáģĪ áģĦáģħ
ĠáģģáģĪ áģĨáģĤ
re ach
il in
ĠL AN
ĠL oss
ĠL exus
áģħáģĢ áģĦ
ĠE F
Ġáģģáģĥ áģģáģĩ
Ġáģģáģĥ áģĤáģĦ
Ġáģģáģĥ áģīáģĪ
áģģáģħ áģĥáģĥ
áģģáģĤ áģĤáģĨ
áģģáģĤ áģĥáģĥ
áģģáģĤ áģĦáģĦ
le m
le us
áĢŀáĢĸ áĢģáĢĦ
oo áĢĢ
ou ss
ĠáģģáģĨ áģĦáģĢ
ĠáģģáģĨ áģĪáģħ
ĠáģģáģĨ áģĤáģĢáģĢáģĢ
ĠáģģáģĨ áģĦáģĥ
am at
Ġáģģáģĩ áģģáģĪ
mar que
ed the
st e
st roke
ow a
ow der
ad s
id al
áģģáģĩ áģĥáģĥ
áģģáģĩ áģĨáģħ
áģģáģĩ áģĩáģĩ
áģģáģĩ áģĩáģĪ
áģģáģĨ áģģáģĦ
áģģáģĨ áģĥáģĪ
ĠO li
áģģáģĥ áģĥáģī
áģģáģĥ áģĨáģĪ
ĠV it
ĠV ital
ĠV PS
of D
un i
ĠIn land
ĠY ohei
us al
ir med
áĢĻáĢĻ áĢķáĢħ
ĠáģĤáģĥ áģħáģĢáģĢ
ag reement
áģĨáģĢ áģģ
ch a
ĠAA áĢħáĢħ
SA KAW
ĠáģĤáģī áģģáģĤ
Ġt e
ĠSt em
ĠSt roke
ĠThe t
ĠThe Sun
Ġp o
Ġp en
Ġp ixel
um n
um áĢĻ
Ġs he
Ġs ee
Ġs port
Ġs odium
Ġc ong
Ġc ells
Ġc ondition
ĠCh ikungunya
Ġf ile
Ġf und
Ġf oreign
ĠáģĩáģĢ áģĩ
ĠáģĪáģĢ áģĥáģĤ
Ġm ir
Ġm achine
ab or
ab ol
áĢķáĢĳáĢĻ áĢ¡áĢģ
Ġ1 70
ak ul
ĠáĢĲáĢŀ áĢĻáĢĲ
ob ank
ub in
Ġd ont
Ġd egree
aw h
ep ay
ĠáĢĺáĢĽ áĢı
Qu estion
eg apixel
ĠKNU áĢĺáĢĢ
art o
art áĢĢ
Ġw all
Ġw ell
Ġw heel
ĠáĢĬáĢĢ áĢľáĢķ
ĠáĢ¾ áĢ°
ĠáĢ¾ áĢ°áĢ¸
ĠIC S
Ġl ip
Ġl amp
ĠáģģáģħáģĢ áģħ
ĠTh ing
ĠTr ick
ear ner
ĠAn na
áģħáģħ áģĢáģĢáģĢ
ĠZ n
ĠZ inc
ĠZ TO
ly n
Ġthe ir
ĠAc et
ĠYBS áĢĢáĢĴ
Ġáģħáģħ áģī
áģĦáģĩ áģĤ
áģīáģħ áģĨ
ĠAl arm
ĠAl kal
ĠEx t
int o
Ġh alf
ĠáģĨáģĨ áģī
yst eine
Ġn ation
Ġn ext
ĠQuarantine áĢķ
ĠáģģáģĤáģĢ áģī
ĠGr ad
Ġ4 000
eng eráĢĢ
ĠInd o
ER V
áģħáģĨ áģĤáģĥ
Ġe Commerce
Ġst age
ĠCl ash
ĠCl uster
Ġ5 1
ĠComp et
ĠX ian
áģīáģĩ áģĤ
áģīáģĩ áģĪ
áģĩáģĪ áģĤ
ĠáģĨáģĪ áģĤ
IS E
IS O
áģģáģīáģĨáģĢ áģĨáģģ
ĠAd miral
Ġre comm
ĠSch wab
ĠGlobal WorldInsurance
HR W
à¸ Ĺ
az on
uk a
uter te
ĠBr it
Ġx ray
MI L
co áĢĢ
ebs ites
ĠIm ag
áĢĤáĢŁ áĢĲáĢĽ
ĠWh en
ĠCol umbia
ĠQ RCode
áģģáģģáģĦ áģĢ
ati áĢĢ
Group Co
ĠWork s
ĠDPN áĢĢ
áĢŃáĢºáĢ¯ áĢº
AN I
ĠMin ority
ĠáģģáģģáģĤ áģĥ
ĠUEC áĢĽ
ĠInt egrity
ĠKNPP áĢĢ
UN DPáĢķ
son ian
ix els
ĠCB áĢĺáĢı
ĠMed ic
áĢ®áĢ½ áĢ¸
ĠMon nect
ĠKh ine
ris ti
ĠPage áĢĢ
ĠMIC áĢģ
ĠMess e
ĠOff line
Ġk it
ĠAnd rea
ĠSing háĢĢ
ĠáģģáģģáģĪ áģĪ
uth entic
ĠNetwork áĢĢ
App áĢĢ
la us
Ġy outube
ĠWebsite áĢĻ
ĠGAP áĢľáĢĢ
áģģáģĩáģĢ áģĦ
ĠStayatHome áĢ¡áĢĸ
ĠEd itorial
áĢºáĢ·áĢº áĢ·
ĠDo i
enn a
enn y
oth ariáĢĢ
World áĢĢ
ĠDel hi
off icial
ĠWY áĢħ
Pr adesh
EL L
AS F
ĠFMI áĢĢ
ĠSpe aking
ĠChin as
lam yine
ĠMor ph
ĠLight ing
Me kong
ĠLED áĢĻ
Air ways
ĠLib r
ĠBal akrish
YA MA
ĠPal aza
Wh ats
ĠGl ory
ĠSP DC
ĠWave Money
Land and
ĠHall oween
ĠBM TA
Ġop inion
reg ion
organ ic
ĠâĢĶ âĢĵ
ĠOrch estra
ĠSol ving
wh ich
áģµ áĢļ
ĠCT FMR
ih ad
ĠAB IS
Ġinter view
pir in
áĢ¼áĢŃáĢ· áĢ¯
ĠPen insula
ici ans
áģĦáģĩáģħ áģĩáģĨ
Ġass ignment
Ġaccount ability
ĠNar endra
ĠRen o
Ġaut onomy
Up date
Dis aster
ARSA áĢ¡áĢĢ
áģĢáģģáģģáģ ī
ĠWheel Chair
ĠDMG áĢĢ
Ġblack list
ĠKal aw
osc ope
Sar anáĢĢ
ĠSel enium
ĠHO ME
vo ic
ĠDaw n
unn el
Ġâĸ ª
ĠSwiss Challenge
ĠTherm al
ĠîĨ ·
Ġlab el
iph one
ĠLif estyle
Ġconf lict
ĠND SC
Ġteach ing
uzz y
ĠBos ch
ĠSI Y
Consult ant
ĠPers p
ĠPMI áĢ¡áĢĬ
ĠDI Y
ĠRab ies
TestKit áĢĸ
ĠBeh avior
Ġhy per
ĠTay lor
cap ital
âĶĢâĶĢ âĶĢâĶĢ
ĠTool s
ĠOh io
ĠáĢĴáĢŀ áĢĻáĢĲáĢĶ
ĠBra ve
ĠExam ination
Vaccine Alliance
FOB áĢĲáĢħ
Ġeg overnment
ĠProgress ive
áģĪáģīáģģ áģĢáģģáģģáģģáģĤ
ĠSed ona
Âµ g
Ġstart up
clud ing
ĠFIR ST
egen eration
ĠBirth day
Aer odrome
ĠLint ner
ĠViol ence
ĠAdvertis ing
ĠDul wich
ĠIFA D
endaz im
Ġfalsefalsefalse EN
ĠIBA HRI
ĠBrandFail ures
ĠSathirath ai
ĠTheChin landPost
ĠMainten ance
ĠArdu ino
A maz
A wareness
B Y
B ot
B each
B ush
B ureau
C in
D N
D áĢĶ
E s
E agle
F our
F red
F ox
G irder
H ai
H IN
J ac
K Y
K áĢĶ
K ha
L ev
L ite
L enovo
M ai
O k
P ilot
P earl
R M
[...]
