{
  "!": 5,
  "!!": 7818,
  "!!!": 25252,
  "!!!!": 29430,
  "\"": 6,
  "\"\"": 11507,
  "\".": 27706,
  "#": 7,
  "##": 16013,
  "#\\": 29601,
  "#âĢİ": 12536,
  "#âĻ«": 24052,
  "$": 8,
  "%": 9,
  "%áģĬ": 24053,
  "&": 10,
  "'": 11,
  "''": 4369,
  "'s": 5630,
  "(": 12,
  ")": 13,
  "),": 18350,
  "*": 14,
  "**": 3415,
  "***": 26634,
  "****": 5975,
  "********": 10258,
  "****************": 18043,
  "*âĸ¬": 21839,
  "+": 15,
  "++": 4512,
  "+++": 21736,
  "++++": 9771,
  "+++++": 16928,
  ",": 16,
  ",\"": 18351,
  "-": 17,
  "--": 1521,
  "----": 2058,
  "------": 30244,
  "--------": 2895,
  "----------------": 4272,
  "--------------------------------": 7015,
  "----------------------------------------------------------------": 13477,
  "--------------------------------------------------------------------------------------------------------------------------------": 26810,
  ".": 18,
  ".\"": 14340,
  ".(": 27707,
  ".,": 9841,
  "..": 740,
  "..\"": 29914,
  "...": 10297,
  "....": 6715,
  "........": 13756,
  ".]": 5673,
  "/": 19,
  "/%": 21341,
  "/-": 15383,
  "//": 1891,
  "/?": 14647,
  "/ÃĹÃĹÃĹÃĹ": 24690,
  "0": 20,
  "00": 1511,
  "000": 3715,
  "0000": 13858,
  "001": 10870,
  "01": 5998,
  "02": 8304,
  "03": 5661,
  "04": 8748,
  "05": 8963,
  "06": 10402,
  "07": 9458,
  "08": 9154,
  "09": 5478,
  "1": 21,
  "10": 2453,
  "100": 6061,
  "1000": 18968,
  "101": 27398,
  "103": 26583,
  "104": 25820,
  "105": 18274,
  "106": 25108,
  "107": 29193,
  "108": 30290,
  "1087": 11488,
  "109": 26584,
  "11": 2803,
  "110": 14494,
  "112": 21840,
  "113": 26605,
  "115": 24480,
  "117": 16872,
  "119": 24691,
  "12": 2599,
  "120": 16460,
  "123": 17969,
  "125": 14793,
  "128": 23247,
  "13": 3764,
  "130": 17777,
  "135": 27455,
  "139": 27456,
  "14": 3690,
  "140": 26649,
  "144": 21713,
  "145": 29280,
  "15": 3670,
  "150": 11037,
  "1500": 26644,
  "16": 3814,
  "1600": 23889,
  "17": 3513,
  "170": 18052,
  "18": 4023,
  "180": 22338,
  "185": 29304,
  "19": 874,
  "190": 26375,
  "1988": 28038,
  "199": 9429,
  "1996": 23982,
  "1998": 29464,
  "2": 22,
  "20": 1150,
  "200": 4450,
  "2000": 13990,
  "2001": 30452,
  "2003": 27482,
  "2007": 21252,
  "2008": 17151,
  "2009": 18009,
  "201": 1884,
  "2010": 14773,
  "2011": 10734,
  "2012": 6528,
  "2013": 3896,
  "2014": 4134,
  "2015": 5620,
  "2016": 3819,
  "2017": 13054,
  "2018": 9337,
  "2019": 5289,
  "202": 14577,
  "2020": 6009,
  "202012": 20679,
  "2021": 18228,
  "2022": 4518,
  "2025": 20678,
  "203": 20677,
  "2030": 22068,
  "21": 4897,
  "210": 21841,
  "22": 3089,
  "23": 5002,
  "235": 26875,
  "239": 29602,
  "24": 4898,
  "25": 3950,
  "250": 22339,
  "26": 4732,
  "27": 6038,
  "28": 5606,
  "29": 5548,
  "3": 23,
  "30": 3243,
  "300": 10466,
  "3000": 22340,
  "301": 23861,
  "305": 29258,
  "31": 7706,
  "32": 8305,
  "320": 15178,
  "33": 6154,
  "34": 6974,
  "340": 15588,
  "35": 4417,
  "350": 17199,
  "36": 7475,
  "360": 20478,
  "365": 29603,
  "37": 5356,
  "370": 5444,
  "38": 6767,
  "380": 20889,
  "39": 4346,
  "39639": 11496,
  "4": 24,
  "40": 4053,
  "400": 8796,
  "41": 10549,
  "410": 29604,
  "411": 26077,
  "412": 29605,
  "42": 9200,
  "43": 11591,
  "44": 6616,
  "45": 5202,
  "450": 25369,
  "46": 10262,
  "47": 4809,
  "48": 9288,
  "480": 27708,
  "49": 7967,
  "5": 25,
  "50": 3094,
  "500": 7264,
  "501": 12613,
  "51": 16216,
  "52": 12102,
  "53": 11038,
  "54": 13916,
  "55": 6867,
  "56": 10137,
  "57": 9907,
  "570": 29606,
  "58": 11407,
  "59": 10021,
  "6": 26,
  "60": 4236,
  "600": 12201,
  "6000": 25370,
  "61": 12854,
  "614": 7640,
  "62": 11039,
  "63": 12631,
  "639": 10749,
  "64": 5924,
  "646": 29373,
  "65": 5511,
  "650": 29607,
  "66": 7778,
  "67": 6595,
  "672": 25229,
  "68": 6909,
  "6800": 22276,
  "69": 8590,
  "7": 27,
  "70": 3157,
  "71": 15384,
  "72": 8668,
  "720": 29608,
  "73": 14341,
  "733": 26078,
  "737": 19287,
  "74": 11124,
  "75": 8591,
  "76": 10022,
  "77": 5018,
  "777": 27505,
  "78": 10694,
  "79": 8501,
  "8": 28,
  "80": 3162,
  "800": 8918,
  "81": 6396,
  "82": 9842,
  "83": 11893,
  "84": 7779,
  "85": 6378,
  "8501": 18053,
  "86": 9908,
  "87": 5893,
  "88": 4357,
  "888": 17150,
  "89": 7322,
  "9": 29,
  "90": 6169,
  "900": 21342,
  "9001": 16677,
  "91": 15589,
  "92": 12855,
  "93": 14342,
  "94": 12103,
  "95": 3803,
  "959": 25176,
  "96": 14036,
  "97": 15590,
  "98": 13483,
  "989": 29609,
  "99": 5775,
  "999": 26719,
  ":": 30,
  "://": 1908,
  "::": 20890,
  ";": 31,
  "<": 32,
  "</s>": 2,
  "<mask>": 4,
  "<pad>": 1,
  "<s>": 0,
  "<unk>": 3,
  "<áĢ½": 4702,
  "=": 33,
  "==": 2085,
  "===": 30246,
  "====": 2991,
  "=====": 24490,
  "========": 4631,
  "================": 8222,
  ">": 34,
  ">>": 16461,
  ">áĢ½": 12632,
  "?": 35,
  "??": 5867,
  "???": 18626,
  "@": 36,
  "@@": 17778,
  "A": 37,
  "AA": 2306,
  "AAAA": 12723,
  "AAAAAAAA": 26018,
  "AAD": 18876,
  "AAPP": 13182,
  "AAáĢ¡áĢĢ": 20764,
  "AAáĢ¡áĢĸ": 8954,
  "AAáĢĢ": 11485,
  "AAáĢĲ": 20332,
  "AAáĢĶ": 19545,
  "AAáĢľáĢĢ": 23807,
  "AB": 5589,
  "ABA": 23422,
  "ABC": 10138,
  "ABS": 22342,
  "ABSDF": 5154,
  "AC": 2740,
  "ACE": 4706,
  "ACT": 16165,
  "AD": 5078,
  "ADB": 9670,
  "ADS": 19612,
  "AE": 5579,
  "AEC": 18352,
  "AF": 10340,
  "AFC": 27709,
  "AFCCup": 26781,
  "AFP": 6277,
  "AG": 5284,
  "AGD": 13205,
  "AH": 26079,
  "AI": 12310,
  "AID": 22341,
  "AIDS": 5115,
  "AIDSáĢĢ": 27509,
  "AIDSáĢĽ": 20409,
  "AK": 25371,
  "AL": 9254,
  "ALA": 12537,
  "ALD": 19676,
  "ALP": 13769,
  "AM": 5880,
  "AN": 2926,
  "ANC": 15968,
  "ANCE": 28316,
  "AND": 12520,
  "ANGO": 28315,
  "ANI": 22711,
  "ANK": 28313,
  "ANMAR": 7609,
  "ANP": 10550,
  "ANPáĢķ": 24627,
  "ANT": 28314,
  "ANTI": 25835,
  "ANY": 29226,
  "AO": 2004,
  "AP": 2540,
  "AQ": 24054,
  "AQSIQ": 29580,
  "AR": 2283,
  "ARA": 29169,
  "ARD": 14146,
  "ARE": 14783,
  "ARK": 9941,
  "ARR": 27380,
  "ARSA": 8066,
  "ARSAáĢ¡áĢĢ": 22800,
  "ART": 13729,
  "AS": 4347,
  "ASEAN": 8100,
  "ASF": 22755,
  "ASH": 30443,
  "AT": 2578,
  "ATH": 5301,
  "ATION": 24472,
  "ATM": 17411,
  "AV": 11125,
  "AW": 5792,
  "AWD": 30512,
  "AWEI": 22258,
  "AX": 7095,
  "AY": 21842,
  "Ab": 6802,
  "Abb": 25951,
  "Abd": 20848,
  "Ac": 3154,
  "Academ": 11878,
  "Academic": 26012,
  "Academy": 15583,
  "Acc": 20371,
  "Access": 17130,
  "Accord": 16882,
  "Account": 7962,
  "Acid": 10803,
  "Act": 7675,
  "Action": 8919,
  "Activ": 30358,
  "Active": 20789,
  "Activities": 17991,
  "Activity": 11390,
  "Ad": 3738,
  "Adams": 25883,
  "Add": 11988,
  "Added": 20457,
  "Admin": 10332,
  "Administration": 13482,
  "Ads": 19953,
  "Adv": 13194,
  "Advertis": 27453,
  "Advisor": 20390,
  "Aer": 17485,
  "Aerodrome": 22854,
  "Af": 11894,
  "Affairs": 20034,
  "After": 27608,
  "Ag": 2884,
  "Age": 15385,
  "Agency": 8363,
  "Agreement": 6780,
  "Agri": 14962,
  "Agricultural": 11489,
  "Agriculture": 6946,
  "Agro": 13872,
  "Ah": 7203,
  "Aid": 8880,
  "Air": 4620,
  "Airlines": 15350,
  "Airport": 20822,
  "Airways": 22764,
  "Ak": 19288,
  "Al": 3389,
  "Album": 22206,
  "Alert": 20379,
  "Alex": 17200,
  "Alexander": 25340,
  "Ali": 19289,
  "All": 8027,
  "Alliance": 11203,
  "Am": 6170,
  "Amar": 20891,
  "Amaz": 22868,
  "Amb": 18914,
  "Americ": 7707,
  "America": 16004,
  "American": 11120,
  "Amnesty": 14990,
  "An": 2961,
  "Anal": 12633,
  "Analysis": 17193,
  "And": 6929,
  "Andrew": 18922,
  "Android": 18634,
  "Ang": 12085,
  "Animal": 16397,
  "Ann": 14007,
  "Ant": 23259,
  "Anti": 7993,
  "Antibody": 20435,
  "Antigen": 17179,
  "Anton": 26613,
  "Ap": 15179,
  "App": 3384,
  "Apple": 8497,
  "Application": 8914,
  "AppáĢĢ": 22736,
  "April": 14345,
  "Aqu": 14188,
  "Aquaculture": 23390,
  "Ar": 3103,
  "Arab": 27710,
  "Arakan": 15809,
  "Arch": 14304,
  "Are": 24055,
  "Area": 10695,
  "Arm": 29238,
  "Army": 6218,
  "Armyworm": 15566,
  "Arrival": 24497,
  "Art": 8495,
  "Article": 23850,
  "Artist": 14456,
  "Arts": 16169,
  "As": 7555,
  "Ash": 14344,
  "Asia": 4747,
  "AsiaPacific": 30472,
  "Asian": 11796,
  "Ass": 3870,
  "Assembly": 26661,
  "Assessment": 10743,
  "Assistance": 25181,
  "Assistant": 23890,
  "Associ": 21717,
  "Association": 6530,
  "Associationof": 29387,
  "Ast": 15591,
  "AstraZenec": 24657,
  "At": 6631,
  "AtHome": 19629,
  "Ath": 14495,
  "Att": 16647,
  "Attitude": 23951,
  "Au": 18054,
  "Aud": 15006,
  "Aug": 13768,
  "August": 17772,
  "Aung": 7780,
  "AungHtet": 28467,
  "AungSan": 18037,
  "Aur": 26080,
  "Aust": 8964,
  "Austral": 16663,
  "Australia": 23405,
  "Aut": 7530,
  "Author": 12202,
  "Authority": 10263,
  "Auto": 18638,
  "Autom": 23344,
  "Autonomy": 20852,
  "Av": 12005,
  "Aviation": 21811,
  "Aw": 14343,
  "Award": 7781,
  "AwardáĢĨ": 25250,
  "Awareness": 22869,
  "Ay": 16943,
  "Aye": 21843,
  "Az": 16678,
  "AáĢĢ": 11040,
  "AáĢĲ": 26876,
  "AáĢĶ": 23421,
  "B": 38,
  "BA": 1992,
  "BB": 14346,
  "BBC": 7613,
  "BC": 1940,
  "BCáĢĢ": 13867,
  "BDA": 26082,
  "BE": 8410,
  "BF": 6975,
  "BG": 19290,
  "BGB": 17201,
  "BGF": 10467,
  "BI": 11041,
  "BIA": 20035,
  "BIMSTEC": 29482,
  "BIT": 20892,
  "BK": 27711,
  "BL": 12975,
  "BM": 7912,
  "BMU": 17752,
  "BMW": 25969,
  "BNI": 20481,
  "BO": 8138,
  "BOT": 18970,
  "BPC": 8336,
  "BR": 11673,
  "BRI": 16944,
  "BRT": 24693,
  "BS": 1417,
  "BSDF": 2614,
  "BSITE": 4337,
  "BSc": 18530,
  "BT": 9909,
  "BY": 22870,
  "BZ": 3481,
  "Ba": 15007,
  "Bachelor": 24058,
  "Back": 15592,
  "Bad": 11895,
  "Badge": 15803,
  "Bag": 17779,
  "Bagan": 16462,
  "Bak": 18969,
  "Bakery": 26056,
  "Bal": 12976,
  "Balance": 23423,
  "Ball": 13090,
  "Ban": 18056,
  "Band": 11311,
  "Bang": 9910,
  "Bangkok": 16205,
  "Bangladesh": 29472,
  "Bank": 4094,
  "Banking": 14975,
  "BankáĢĻ": 29307,
  "Bar": 7738,
  "Bas": 24057,
  "Base": 14650,
  "Based": 9566,
  "Basic": 23424,
  "Batch": 21343,
  "Bay": 11896,
  "Be": 11674,
  "Beach": 22872,
  "Bean": 24694,
  "Beauty": 16217,
  "Bed": 29611,
  "Bel": 24056,
  "Belt": 11126,
  "Ben": 14189,
  "Benef": 29513,
  "Benz": 27713,
  "Ber": 13770,
  "Bern": 21844,
  "Best": 11897,
  "Bet": 26081,
  "Beta": 28619,
  "Better": 29613,
  "Bh": 18055,
  "Bi": 6450,
  "Big": 16014,
  "Bike": 28617,
  "Bilateral": 17202,
  "Bill": 14649,
  "Bio": 9778,
  "BioNTech": 16442,
  "Biological": 29385,
  "Biotech": 21283,
  "Bird": 20480,
  "Birthday": 28621,
  "Bl": 4501,
  "Black": 8262,
  "Blind": 30455,
  "Block": 20401,
  "Blog": 12856,
  "Blogger": 23381,
  "Blood": 21254,
  "Blue": 16182,
  "Bo": 14037,
  "Board": 10341,
  "Boat": 22343,
  "Body": 12424,
  "Bol": 29612,
  "Bomb": 24695,
  "Book": 5737,
  "Books": 18912,
  "Bor": 18680,
  "Bord": 26083,
  "Border": 26084,
  "Borer": 28620,
  "Bos": 17486,
  "Boston": 27716,
  "Bot": 22871,
  "Box": 6464,
  "Boy": 20479,
  "Br": 12104,
  "Brain": 17487,
  "Brand": 8965,
  "Bre": 14832,
  "Break": 13214,
  "Bridge": 19291,
  "Brief": 21845,
  "Brit": 29614,
  "British": 14651,
  "Bro": 11215,
  "Broad": 15810,
  "Broadcasting": 26047,
  "Brown": 20893,
  "Browse": 14496,
  "Bu": 27712,
  "Bubble": 18971,
  "Bud": 24692,
  "Buddha": 27715,
  "Buddhist": 14652,
  "Budget": 11408,
  "BudgetTour": 25302,
  "Building": 7507,
  "Bul": 16015,
  "Bull": 27714,
  "Bur": 12203,
  "Bureau": 22874,
  "Burm": 25373,
  "Burma": 4095,
  "Burmes": 18353,
  "Burmese": 9346,
  "Burn": 28618,
  "Bus": 7913,
  "Bush": 22873,
  "Business": 4810,
  "But": 14648,
  "By": 8227,
  "BáĢĢ": 9289,
  "BáĢĶ": 28616,
  "BáĢĻ": 25372,
  "BáĢľ": 29610,
  "C": 39,
  "CA": 969,
  "CAP": 16329,
  "CAS": 27203,
  "CAT": 20659,
  "CB": 4484,
  "CBN": 30453,
  "CBT": 21734,
  "CC": 1389,
  "CCC": 21604,
  "CCD": 26481,
  "CCI": 2638,
  "CCII": 21211,
  "CCP": 19496,
  "CCS": 15724,
  "CCT": 3818,
  "CCTV": 10522,
  "CCTVnews": 25997,
  "CCh": 22095,
  "CChallenge": 27688,
  "CCup": 12494,
  "CCáĢĢ": 18526,
  "CD": 4782,
  "CDC": 5821,
  "CDMA": 8742,
  "CE": 6129,
  "CEC": 14348,
  "CEO": 11212,
  "CERP": 14654,
  "CFC": 27718,
  "CH": 9954,
  "CI": 18972,
  "CIA": 20482,
  "CID": 24698,
  "CIF": 26086,
  "CK": 16218,
  "CMEC": 28622,
  "CMP": 13627,
  "CN": 4237,
  "CNA": 16945,
  "CNF": 5406,
  "CNN": 17147,
  "CO": 4761,
  "COV": 26877,
  "COVAX": 18973,
  "COVID": 1781,
  "COVIDáĢĢ": 13586,
  "CP": 3574,
  "CPB": 6127,
  "CPI": 11577,
  "CPU": 19945,
  "CR": 2586,
  "CRPD": 28299,
  "CS": 3610,
  "CSA": 23425,
  "CSE": 10804,
  "CSO": 10894,
  "CSR": 20384,
  "CSS": 26879,
  "CT": 13484,
  "Ca": 15180,
  "Cab": 22345,
  "Cable": 25375,
  "Cad": 26878,
  "Cal": 18057,
  "Calcium": 27719,
  "Calif": 20895,
  "California": 22334,
  "Call": 9399,
  "Camb": 16679,
  "Cambridge": 24664,
  "Camera": 26088,
  "Camp": 6648,
  "Campaign": 11035,
  "Can": 12311,
  "Cancer": 18683,
  "Cap": 6130,
  "Capacity": 18630,
  "Capital": 10623,
  "Car": 5749,
  "Carb": 21846,
  "Card": 6666,
  "Care": 9255,
  "Cargo": 26880,
  "Carl": 27533,
  "Carol": 28437,
  "Carson": 30511,
  "Cartoon": 11675,
  "CartoonAw": 18668,
  "CartoonSaw": 29492,
  "Cas": 24059,
  "Case": 9955,
  "Cash": 21344,
  "Cast": 22346,
  "Cat": 15386,
  "Catal": 29526,
  "Cave": 24699,
  "Ceasefire": 9065,
  "CeasefireAgreement": 10135,
  "Cel": 24697,
  "Cell": 24060,
  "Censorship": 24700,
  "Cent": 2583,
  "Center": 3424,
  "Centered": 28359,
  "Centerfor": 19940,
  "CenteráĢĢ": 14792,
  "CenteráĢĲ": 12181,
  "CenteráĢĻ": 9248,
  "Central": 11384,
  "Centre": 5016,
  "CentreáĢĲ": 19232,
  "CentreáĢĻ": 18306,
  "Century": 28298,
  "Cer": 9347,
  "Certificate": 14182,
  "Ch": 1702,
  "Cha": 28205,
  "Chain": 8443,
  "Chair": 13310,
  "Challenge": 12165,
  "Cham": 15732,
  "Chamber": 29531,
  "Championship": 18859,
  "Chan": 13443,
  "Chang": 15946,
  "Change": 10326,
  "Channel": 8701,
  "Chap": 19170,
  "Char": 5488,
  "Charity": 30503,
  "Charles": 15359,
  "Charlie": 24567,
  "Charter": 12531,
  "CharteráĢĢ": 27524,
  "Chat": 5443,
  "Che": 14347,
  "Check": 11218,
  "Chem": 17203,
  "Chemical": 23427,
  "Chemistry": 24062,
  "Chen": 19518,
  "Cheng": 27327,
  "Chiang": 29110,
  "Chief": 14767,
  "Child": 9441,
  "Children": 14336,
  "Chin": 7666,
  "China": 6036,
  "ChinaMorningPost": 30518,
  "Chinese": 17459,
  "Chit": 11100,
  "ChitThar": 14035,
  "Chlor": 20734,
  "Choice": 28206,
  "Chris": 29109,
  "Christ": 13866,
  "Christian": 27328,
  "Church": 15733,
  "Cin": 22875,
  "Circ": 16946,
  "Cities": 24061,
  "Citizen": 15182,
  "City": 5340,
  "CityáĢĢ": 29354,
  "Civil": 11312,
  "Cl": 3141,
  "Class": 7734,
  "Cle": 27717,
  "Clean": 20483,
  "Clear": 16947,
  "Click": 28623,
  "Climate": 16171,
  "ClimateChange": 25333,
  "Clinic": 8067,
  "Cloud": 12830,
  "Club": 8446,
  "Co": 2461,
  "CoLtd": 8626,
  "CoLtdáĢĻ": 25267,
  "CoV": 4489,
  "Coal": 23823,
  "Code": 12205,
  "Coffee": 12857,
  "CoffeeBreak": 29501,
  "Col": 4211,
  "Cola": 22225,
  "Coll": 14497,
  "Collection": 22226,
  "College": 6547,
  "Collegeof": 25946,
  "Color": 21725,
  "Colour": 29311,
  "Columbia": 30431,
  "Com": 2226,
  "Comm": 20763,
  "Command": 26564,
  "Comment": 13063,
  "Commerce": 6799,
  "CommerceáĢħáĢĶáĢħ": 27553,
  "Commercial": 19192,
  "Commission": 10682,
  "Committee": 7553,
  "Commod": 24459,
  "Common": 26563,
  "Commun": 23232,
  "Communication": 14607,
  "Communications": 30267,
  "Community": 8789,
  "Comp": 4086,
  "Compact": 25184,
  "Companies": 22220,
  "Company": 5977,
  "CompanyLimited": 16191,
  "CompanyáĢĢ": 23945,
  "CompanyáĢĻ": 29376,
  "Competition": 28270,
  "Complex": 11483,
  "Computer": 14464,
  "Computing": 29306,
  "Con": 2827,
  "Concept": 23839,
  "Condition": 26881,
  "Conf": 13068,
  "Conference": 9148,
  "Conferencing": 6664,
  "Cong": 15387,
  "Congress": 27648,
  "Conn": 12179,
  "Cons": 6340,
  "Conservation": 17736,
  "Constitution": 22180,
  "Construction": 15550,
  "Consult": 11033,
  "Consultant": 22826,
  "Cont": 4224,
  "Contact": 12526,
  "Content": 16635,
  "Contract": 14318,
  "Control": 6575,
  "Convention": 7197,
  "Conventionon": 25958,
  "Cook": 18354,
  "Cool": 25374,
  "Cooper": 23428,
  "Cooperation": 9517,
  "Coord": 12081,
  "Coordin": 17191,
  "Coordination": 21315,
  "Coordinator": 26842,
  "Copy": 20038,
  "Cor": 3850,
  "Core": 12204,
  "Corn": 17488,
  "Corona": 28384,
  "Coronavirus": 9830,
  "CoronavirusDisease": 28503,
  "Corp": 16633,
  "Corporation": 8298,
  "Corps": 20394,
  "Corridor": 23292,
  "Corruption": 13336,
  "Cost": 15181,
  "Cotton": 26089,
  "Coun": 7323,
  "Council": 9199,
  "Count": 18681,
  "Counter": 20850,
  "Countries": 29558,
  "Country": 11509,
  "Course": 20894,
  "Court": 8455,
  "Courtof": 21291,
  "Cov": 11508,
  "Cover": 15594,
  "Covid": 6451,
  "Cr": 9717,
  "Cre": 15593,
  "Cream": 26087,
  "Creative": 26043,
  "Credit": 2835,
  "Crime": 20446,
  "Criminal": 25376,
  "Crisis": 21848,
  "Critical": 21847,
  "Cro": 18058,
  "Crop": 11217,
  "Cross": 13771,
  "Crown": 18355,
  "Cru": 18682,
  "Cruise": 27677,
  "Cu": 29615,
  "Cul": 23426,
  "Cultural": 14653,
  "Culture": 11216,
  "Culvert": 17204,
  "Cung": 26085,
  "Cup": 22344,
  "Cur": 11127,
  "Custom": 20036,
  "Customer": 20037,
  "Cy": 12977,
  "Cyber": 27619,
  "Cycl": 26020,
  "CáĢĢ": 4713,
  "CáĢĲ": 19292,
  "CáĢĶ": 24696,
  "D": 40,
  "DA": 1319,
  "DAA": 1788,
  "DAC": 20274,
  "DAW": 10110,
  "DAY": 8440,
  "DB": 2877,
  "DBurma": 24486,
  "DC": 2362,
  "DCF": 9059,
  "DDR": 16017,
  "DE": 6888,
  "DEM": 26092,
  "DF": 2090,
  "DG": 19293,
  "DI": 3152,
  "DICA": 23429,
  "DJ": 20896,
  "DJC": 1762,
  "DK": 26090,
  "DKBA": 6131,
  "DM": 26882,
  "DMA": 16219,
  "DN": 22876,
  "DNA": 12006,
  "DO": 5468,
  "DOC": 29617,
  "DP": 1372,
  "DPC": 21603,
  "DPCáĢĢ": 28155,
  "DPN": 17368,
  "DPáĢķ": 7308,
  "DR": 4054,
  "DRA": 26883,
  "DRR": 18005,
  "DS": 7349,
  "DSA": 18356,
  "DSG": 25963,
  "DT": 8101,
  "DV": 16948,
  "DVB": 9348,
  "DVD": 24668,
  "DY": 24701,
  "Da": 20039,
  "Dai": 24063,
  "Daily": 2700,
  "Dam": 21345,
  "Dan": 12753,
  "Dance": 15183,
  "Daniel": 25312,
  "Dar": 19294,
  "Dat": 16016,
  "Data": 11128,
  "Database": 27652,
  "Date": 20484,
  "Dav": 9567,
  "David": 11405,
  "Daw": 11798,
  "Day": 2535,
  "DayDaily": 10952,
  "DayDailyáĢŀáĢĲáĢĦ": 26792,
  "DayNews": 18580,
  "Days": 18275,
  "De": 6171,
  "Dead": 23331,
  "Death": 18319,
  "Debate": 22350,
  "Dec": 7265,
  "December": 23957,
  "Decision": 23340,
  "Declaration": 18035,
  "Deep": 25935,
  "Def": 10074,
  "Defence": 21304,
  "Defense": 25286,
  "Degree": 27722,
  "Del": 8592,
  "Delivery": 15370,
  "Dem": 5776,
  "Demand": 22257,
  "Democracy": 9344,
  "Democratic": 19240,
  "Demuro": 27534,
  "Den": 27720,
  "Dep": 7708,
  "Department": 10689,
  "Departmentof": 25293,
  "Depression": 27572,
  "Des": 18059,
  "Design": 8749,
  "Dessallien": 29619,
  "Det": 20040,
  "Dev": 11313,
  "Develop": 12206,
  "Developer": 21814,
  "Development": 3297,
  "DevelopmentGo": 21701,
  "DevelopmentPlan": 19581,
  "Developmentand": 30369,
  "DevelopmentáĢĢ": 18593,
  "Device": 25298,
  "Di": 10264,
  "Dia": 28625,
  "Diagnostic": 23363,
  "Dialogue": 18976,
  "Diamond": 20041,
  "Dictionary": 18060,
  "Die": 19677,
  "Diet": 26093,
  "Dig": 17780,
  "Digital": 7531,
  "DigitalNews": 15795,
  "Dim": 22347,
  "Dipl": 12754,
  "Diplomain": 24644,
  "Direct": 16220,
  "Direction": 24703,
  "Director": 8033,
  "Dis": 7998,
  "Disaster": 22799,
  "Disc": 14349,
  "Disease": 7324,
  "Diseases": 23430,
  "Dist": 22348,
  "Distancing": 6278,
  "Distribution": 20485,
  "Diversity": 28626,
  "Division": 27723,
  "Do": 8139,
  "DoS": 23966,
  "Doc": 10073,
  "Doctor": 15580,
  "Doing": 13210,
  "DoingBusiness": 14489,
  "Dom": 18974,
  "Domain": 26885,
  "Don": 11676,
  "Donald": 15008,
  "Dong": 21849,
  "Door": 26094,
  "Dossier": 29618,
  "Dot": 17489,
  "Double": 22349,
  "Dow": 18975,
  "Down": 9155,
  "Download": 29457,
  "Dr": 4956,
  "Dragon": 23919,
  "Drain": 27721,
  "Dream": 11042,
  "Drink": 30480,
  "Drive": 26884,
  "Drug": 21262,
  "Drum": 30479,
  "Dry": 14655,
  "Du": 26091,
  "Duty": 25378,
  "Dy": 29616,
  "Dyn": 25377,
  "DáĢĢ": 4674,
  "DáĢĶ": 22877,
  "DáĢķ": 18684,
  "DáĢĺ": 28624,
  "DáĢľ": 24702,
  "E": 41,
  "EA": 1746,
  "EACE": 27334,
  "EAE": 23767,
  "EAF": 17086,
  "EAM": 17087,
  "EAN": 30204,
  "EAO": 14442,
  "EAP": 21627,
  "EAR": 16369,
  "EAT": 29113,
  "EAccount": 28209,
  "EAgency": 30205,
  "EAáĢĢ": 27333,
  "EBA": 24064,
  "EC": 1551,
  "ECD": 6740,
  "ECDáĢĢ": 23182,
  "ECT": 25053,
  "ECh": 23181,
  "EChampionship": 25361,
  "ECáĢĢ": 17651,
  "ED": 2213,
  "EDB": 27369,
  "EDC": 15543,
  "EDD": 15321,
  "EDTA": 27370,
  "EDr": 28269,
  "EE": 8228,
  "EF": 3408,
  "EFL": 12729,
  "EG": 28627,
  "EI": 10551,
  "EIA": 12859,
  "EIB": 25379,
  "EITI": 21348,
  "EK": 28628,
  "EL": 4342,
  "ELD": 28630,
  "ELL": 22754,
  "ELTS": 7261,
  "EM": 3757,
  "EMG": 20806,
  "EN": 3467,
  "ENNARN": 30385,
  "ENT": 16628,
  "EO": 12312,
  "EP": 4098,
  "EPA": 23431,
  "EQ": 21850,
  "ER": 2041,
  "ERAT": 16379,
  "ERD": 21182,
  "ERN": 19534,
  "ERO": 22149,
  "ERP": 5001,
  "ERR": 25083,
  "ERS": 7278,
  "ERT": 15538,
  "ERV": 22670,
  "ERY": 27363,
  "ES": 3523,
  "ESC": 3743,
  "ESCO": 4296,
  "ESS": 16018,
  "EST": 17999,
  "ET": 3711,
  "ETRO": 9766,
  "EU": 5793,
  "EUT": 19973,
  "EUTERS": 20886,
  "EUáĢĢ": 30513,
  "EUáĢĶ": 25927,
  "EV": 9109,
  "EVER": 18651,
  "EW": 22351,
  "EX": 7373,
  "Eagle": 22879,
  "Ear": 28629,
  "Earth": 10468,
  "Ease": 26886,
  "East": 9290,
  "Ec": 16949,
  "Eco": 15009,
  "Econ": 27724,
  "Econom": 10750,
  "Economic": 5277,
  "EconomicForum": 26702,
  "EconomicReliefPlan": 14811,
  "Economics": 15561,
  "Economist": 26003,
  "Economy": 18045,
  "Ecosystem": 29541,
  "Ed": 6910,
  "Edge": 29401,
  "Educ": 21346,
  "Education": 5645,
  "Educational": 28591,
  "Edward": 23956,
  "Eff": 10895,
  "Effect": 13912,
  "El": 9617,
  "Elect": 7556,
  "Election": 16680,
  "Electric": 16195,
  "Electrical": 27566,
  "Electricity": 27655,
  "Electronic": 19996,
  "Element": 24065,
  "Eleven": 2754,
  "ElevenMediaGroup": 17976,
  "ElevenMediaGroupáĢĶ": 27671,
  "ElevenáĢŀáĢĲáĢĦ": 3160,
  "Elite": 26774,
  "Em": 7999,
  "Email": 21347,
  "Emb": 25256,
  "Emerg": 20486,
  "Emergency": 25351,
  "En": 2845,
  "End": 12519,
  "Energy": 9568,
  "Eng": 4206,
  "Engine": 14317,
  "Engineer": 21825,
  "Engineering": 6846,
  "England": 24534,
  "English": 8334,
  "Enter": 10739,
  "Enterprise": 29478,
  "Enterprises": 26789,
  "Entertainment": 18660,
  "Environment": 8219,
  "Environmental": 16922,
  "Ep": 18977,
  "Equ": 12105,
  "Equality": 29495,
  "Equipment": 23378,
  "Er": 12858,
  "Eric": 24704,
  "Error": 22311,
  "Es": 22878,
  "Ess": 18686,
  "Est": 18685,
  "Eth": 10265,
  "Ethics": 28510,
  "Ethnic": 20014,
  "Euro": 12007,
  "Europe": 25306,
  "European": 18945,
  "Ev": 14833,
  "Event": 16681,
  "Ever": 18061,
  "Ex": 2934,
  "Exam": 21685,
  "Exchange": 12289,
  "Executive": 26612,
  "Exhibition": 18885,
  "Exp": 30332,
  "Expert": 28318,
  "Explorer": 14963,
  "Expo": 16396,
  "Export": 7258,
  "ExportáĢŀáĢĢ": 25959,
  "Express": 11656,
  "Expression": 28317,
  "Extension": 27420,
  "External": 30333,
  "Eye": 26095,
  "EáĢĢ": 15811,
  "F": 42,
  "FA": 1861,
  "FAO": 7607,
  "FAOáĢŀáĢĬ": 25249,
  "FAáĢĢ": 27346,
  "FB": 15595,
  "FBI": 23432,
  "FC": 1577,
  "FCO": 17652,
  "FD": 12860,
  "FDA": 6548,
  "FDI": 11898,
  "FE": 18687,
  "FEC": 20042,
  "FED": 22353,
  "FF": 13772,
  "FFM": 29623,
  "FI": 7325,
  "FID": 24705,
  "FL": 15812,
  "FM": 4154,
  "FMI": 19678,
  "FMR": 16179,
  "FO": 9201,
  "FOB": 13774,
  "FOBáĢĲáĢħ": 22843,
  "FOR": 19679,
  "FP": 2309,
  "FPA": 8955,
  "FPNCC": 25380,
  "FR": 7532,
  "FREL": 16656,
  "FS": 16019,
  "FT": 14038,
  "FTA": 18357,
  "FX": 28631,
  "Fac": 5978,
  "Face": 9779,
  "FaceShield": 15578,
  "Facebook": 2815,
  "FacebookPage": 14616,
  "FacebookáĢĢ": 14959,
  "FacebookáĢħ": 17980,
  "FacebookáĢĲ": 25123,
  "FacebookáĢķ": 17123,
  "FacebookáĢĻ": 15134,
  "FacebookáĢľ": 29218,
  "FacebookáĢŀáĢĬ": 30320,
  "Facility": 7474,
  "FacilityQuarantine": 12097,
  "Fact": 16222,
  "Factor": 28634,
  "Fail": 12861,
  "Fair": 10964,
  "Fall": 18979,
  "Family": 18688,
  "Fan": 26887,
  "Far": 27725,
  "Farm": 6430,
  "Farmer": 7873,
  "Farming": 10336,
  "Fashion": 25381,
  "Fast": 24067,
  "Father": 24068,
  "Favor": 26889,
  "Favorite": 27704,
  "Fe": 11677,
  "Feature": 28526,
  "Feb": 27727,
  "Federal": 20043,
  "Federalism": 27729,
  "Federation": 20488,
  "Fee": 29621,
  "Feed": 21349,
  "Fellowship": 24069,
  "Fer": 11219,
  "Fertilizer": 22305,
  "Festival": 13215,
  "Fever": 13353,
  "FeverClinic": 23382,
  "Fi": 8374,
  "Fiber": 29622,
  "Field": 15184,
  "Fight": 16682,
  "Fil": 18978,
  "File": 22352,
  "Film": 14499,
  "Fin": 9843,
  "Final": 22354,
  "Finance": 11220,
  "Financial": 15373,
  "Finding": 21851,
  "Fire": 13773,
  "First": 9256,
  "Fish": 18062,
  "Fisher": 25382,
  "Fl": 4621,
  "Flag": 20404,
  "Flex": 28632,
  "Flight": 11789,
  "Flor": 16223,
  "Florida": 28560,
  "Flow": 21737,
  "Flower": 18299,
  "Flu": 16906,
  "Fly": 16221,
  "Focus": 20487,
  "Follow": 26096,
  "Food": 5541,
  "FoodSecurity": 23931,
  "Foods": 29364,
  "Foot": 28633,
  "For": 3826,
  "Force": 8586,
  "Ford": 24066,
  "Foreign": 15010,
  "Forest": 16406,
  "Form": 8456,
  "Fort": 11043,
  "Fortune": 17187,
  "Forum": 9010,
  "Forward": 27458,
  "Foundation": 5332,
  "FoundationáĢĢ": 18018,
  "Four": 22880,
  "Fox": 22882,
  "Fr": 5907,
  "Frame": 27730,
  "Framework": 16020,
  "Franc": 14988,
  "France": 15565,
  "Francisco": 23396,
  "Frank": 23327,
  "Fre": 14498,
  "Fred": 22881,
  "Free": 8502,
  "Freedom": 11044,
  "Frid": 19680,
  "Friday": 23415,
  "Fried": 29624,
  "Friend": 12862,
  "From": 14656,
  "Fron": 21350,
  "Front": 15993,
  "Frontier": 29577,
  "Fruit": 23433,
  "Fry": 26888,
  "Full": 27728,
  "Fun": 29620,
  "Fund": 5256,
  "FundáĢģ": 30488,
  "FundáĢĻ": 23924,
  "Fur": 27726,
  "Future": 13485,
  "FáĢĢ": 9911,
  "G": 43,
  "GA": 5385,
  "GAP": 6829,
  "GB": 2548,
  "GBRAM": 19921,
  "GBT": 4276,
  "GC": 8229,
  "GDP": 9202,
  "GE": 4978,
  "GEN": 29628,
  "GF": 3402,
  "GGS": 14350,
  "GGSáĢĢ": 18347,
  "GH": 11129,
  "GHz": 15800,
  "GI": 5378,
  "GIZ": 22253,
  "GM": 8543,
  "GMO": 23435,
  "GN": 8230,
  "GO": 1855,
  "GP": 8966,
  "GPS": 16224,
  "GR": 17781,
  "GS": 3617,
  "GSM": 14312,
  "GSP": 18981,
  "GT": 10266,
  "GTI": 26890,
  "GV": 21852,
  "GW": 22355,
  "GY": 18063,
  "Ga": 28635,
  "Galaxy": 14039,
  "Gall": 25384,
  "Gallery": 17205,
  "Gam": 16683,
  "Gamb": 28636,
  "Gamble": 24665,
  "Game": 9021,
  "Games": 18982,
  "Gar": 17490,
  "Garden": 13486,
  "Gas": 13355,
  "Gate": 18980,
  "Gates": 21352,
  "Ge": 7166,
  "Gel": 13354,
  "Gen": 4662,
  "Gender": 26891,
  "Gene": 18358,
  "General": 7453,
  "Generation": 14014,
  "Genocide": 17725,
  "George": 13758,
  "German": 15596,
  "Germany": 29529,
  "Get": 17782,
  "Getty": 23411,
  "Gh": 15813,
  "Giang": 20899,
  "Gil": 24706,
  "Girder": 22883,
  "Girl": 15011,
  "Girls": 27645,
  "Gl": 8838,
  "Glass": 25270,
  "Glob": 14834,
  "Global": 5333,
  "Globalization": 29353,
  "Globe": 18959,
  "Gly": 29627,
  "Go": 5542,
  "God": 20897,
  "Gold": 6489,
  "Golden": 9514,
  "Good": 10403,
  "Google": 4867,
  "Gor": 26097,
  "Gov": 21853,
  "Govern": 26098,
  "Governance": 11592,
  "Government": 2914,
  "GovernmentáĢħáĢĶáĢħ": 22186,
  "GovernmentáĢĨ": 25834,
  "GovernmentáĢĸ": 30330,
  "GovernmentáĢľ": 25129,
  "Gr": 6828,
  "Grab": 26099,
  "Grade": 10071,
  "Grain": 25385,
  "Gram": 23434,
  "Grammar": 27733,
  "Grand": 8881,
  "Grant": 23436,
  "Gre": 20044,
  "Great": 13628,
  "Green": 6100,
  "GreenTea": 20420,
  "Greg": 27732,
  "Grid": 27731,
  "Gro": 29625,
  "Ground": 20489,
  "Group": 2878,
  "GroupCo": 22707,
  "Groupof": 27416,
  "GroupáĢĢ": 11574,
  "GroupáĢĲ": 21681,
  "GroupáĢĶ": 20358,
  "GroupáĢĻ": 13191,
  "Growth": 20900,
  "Gs": 10207,
  "Gu": 4282,
  "Guang": 24536,
  "Guarantee": 23301,
  "Guard": 14465,
  "Guardian": 21826,
  "Guide": 12294,
  "Guideline": 21247,
  "Guidelines": 17148,
  "Gun": 25383,
  "GuptaáĢĢ": 24071,
  "Gur": 29626,
  "Guru": 24070,
  "Gust": 20898,
  "Gyi": 26892,
  "Gym": 16463,
  "GáĢĢ": 5565,
  "GáĢĻ": 21351,
  "H": 44,
  "HA": 3259,
  "HABIT": 25146,
  "HABITAT": 25368,
  "HAI": 21697,
  "HAM": 16398,
  "HASEN": 23270,
  "HC": 5079,
  "HCR": 3241,
  "HD": 8669,
  "HE": 4733,
  "HEMP": 20405,
  "HI": 6260,
  "HIN": 22885,
  "HIV": 5646,
  "HIVáĢķ": 20833,
  "HL": 9349,
  "HM": 25386,
  "HO": 1769,
  "HOME": 26523,
  "HOTO": 28212,
  "HP": 12313,
  "HR": 2390,
  "HRC": 17783,
  "HRD": 2818,
  "HRDP": 20766,
  "HRI": 18271,
  "HRW": 22690,
  "HS": 5303,
  "HT": 6155,
  "HTC": 22356,
  "HU": 25387,
  "HW": 29629,
  "Ha": 9618,
  "Habitat": 10404,
  "Hai": 22884,
  "Haig": 28500,
  "Hair": 26100,
  "Hal": 20902,
  "Hall": 9291,
  "Ham": 27735,
  "Han": 15814,
  "Hand": 8457,
  "HandGel": 25976,
  "Hang": 29631,
  "Hans": 23438,
  "Happy": 21355,
  "Har": 6379,
  "Hard": 13775,
  "Harp": 13474,
  "Harvest": 22265,
  "Has": 20490,
  "Hass": 21353,
  "Haw": 16684,
  "He": 3885,
  "Head": 17426,
  "Health": 5348,
  "Heart": 18896,
  "Hebdo": 25391,
  "Hein": 29293,
  "Hel": 18359,
  "Hello": 28640,
  "Hemp": 29632,
  "Hen": 15388,
  "Henry": 25332,
  "Hep": 24709,
  "Hepatitis": 28605,
  "Her": 8102,
  "Heritage": 12304,
  "Hero": 25389,
  "Hg": 23437,
  "Hi": 24707,
  "High": 7874,
  "HighSchool": 25967,
  "Higher": 24073,
  "Highway": 22286,
  "Hil": 15389,
  "Hill": 10139,
  "Hilton": 29527,
  "History": 16021,
  "Hit": 28637,
  "Hlaing": 24072,
  "Ho": 20901,
  "Hol": 12978,
  "Hold": 10816,
  "Holding": 24629,
  "Holdings": 22301,
  "Holiday": 25313,
  "Holland": 16464,
  "Hom": 24708,
  "Home": 2728,
  "Hon": 14190,
  "Honda": 28641,
  "Hong": 12634,
  "Honor": 29514,
  "Hop": 12207,
  "Hope": 21354,
  "Hopkins": 20459,
  "Hor": 15597,
  "Horn": 28639,
  "Hospital": 10023,
  "Hot": 12425,
  "Hotel": 5203,
  "HoteláĢĲ": 14175,
  "HoteláĢĻ": 29344,
  "House": 5512,
  "Housecom": 24710,
  "HouseáĢĢ": 30506,
  "Housing": 18690,
  "HousingCorporation": 29559,
  "How": 13629,
  "Hs": 27734,
  "Ht": 6744,
  "Htet": 10259,
  "Hu": 10342,
  "Hua": 28642,
  "Huawei": 13625,
  "Hub": 18689,
  "Hum": 25388,
  "Human": 6868,
  "HumanRights": 18921,
  "Hun": 21854,
  "Hung": 28638,
  "Hunger": 25390,
  "Hus": 19681,
  "Hy": 10469,
  "Hyd": 26893,
  "Hydro": 17491,
  "HáĢĢ": 29630,
  "I": 45,
  "IA": 1225,
  "IAL": 27265,
  "IAR": 29044,
  "IB": 6075,
  "IC": 1441,
  "ICA": 2274,
  "ICC": 9518,
  "ICE": 12936,
  "ICEF": 4538,
  "ICJ": 6164,
  "ICJáĢĢ": 23330,
  "ICJáĢĻ": 21760,
  "ICJáĢĽ": 25221,
  "ICM": 2629,
  "ICOE": 20711,
  "ICRC": 15937,
  "ICS": 11859,
  "ICT": 12391,
  "ICU": 15296,
  "ICáĢĢ": 24386,
  "ID": 900,
  "IDA": 12919,
  "IDE": 18820,
  "IDEA": 30023,
  "IDO": 24318,
  "IDP": 15503,
  "IDS": 3206,
  "IE": 7557,
  "IELTS": 29635,
  "IEW": 27567,
  "IF": 3385,
  "IFC": 17493,
  "IFE": 23279,
  "IFT": 5137,
  "IG": 6783,
  "IGHT": 16917,
  "II": 3918,
  "III": 11661,
  "IJ": 18064,
  "IL": 5430,
  "ILL": 28433,
  "ILO": 13776,
  "ILY": 29360,
  "IM": 3629,
  "IMF": 12979,
  "IMITED": 25165,
  "IMO": 30400,
  "IN": 3559,
  "INA": 26101,
  "INE": 9844,
  "ING": 8631,
  "INGO": 8750,
  "INGOáĢĻ": 25269,
  "INK": 25871,
  "INT": 21236,
  "INTER": 28366,
  "IO": 1735,
  "ION": 5889,
  "IP": 3244,
  "IPO": 20790,
  "IPP": 14191,
  "IPU": 23862,
  "IQ": 24074,
  "IR": 4984,
  "IRRI": 22250,
  "IS": 2264,
  "ISA": 6101,
  "ISE": 22683,
  "ISH": 14005,
  "ISIS": 9244,
  "ISM": 25090,
  "ISO": 22684,
  "ISS": 20045,
  "IST": 14610,
  "IT": 1865,
  "ITBMU": 18553,
  "ITC": 17666,
  "ITE": 4133,
  "ITED": 23205,
  "ITH": 28226,
  "ITI": 3862,
  "ITY": 14443,
  "IU": 12208,
  "IV": 2104,
  "IVE": 19188,
  "IW": 15598,
  "Ice": 27736,
  "Ichiro": 20491,
  "Id": 8920,
  "Idea": 28491,
  "Iden": 29636,
  "Identity": 23976,
  "If": 17492,
  "Il": 29633,
  "Ill": 12980,
  "Illustration": 24009,
  "Im": 3857,
  "Image": 5838,
  "Images": 14167,
  "Imm": 8967,
  "Immun": 26765,
  "Immunity": 11505,
  "Impact": 17717,
  "Imperial": 29289,
  "Import": 18609,
  "In": 1486,
  "Inc": 11285,
  "Inclusive": 24390,
  "Income": 21617,
  "Ind": 3144,
  "Independent": 20788,
  "Index": 7908,
  "India": 7701,
  "Indian": 19575,
  "Indicator": 19206,
  "Indonesia": 25141,
  "Indust": 5946,
  "Industrial": 12000,
  "Industries": 18317,
  "Industry": 8960,
  "Inf": 12271,
  "Inflation": 12068,
  "Influ": 26497,
  "Influenza": 11372,
  "InfluenzaA": 17763,
  "Information": 7363,
  "Infrastructure": 20288,
  "Initiative": 13579,
  "Inn": 10731,
  "Innovation": 14034,
  "Ins": 6883,
  "Insp": 17374,
  "Inspection": 27665,
  "Inst": 16355,
  "Instagram": 21333,
  "Institut": 15298,
  "Institute": 4467,
  "Institutefor": 23399,
  "Instituteof": 11114,
  "InstituteáĢĢ": 23308,
  "InstituteáĢĻ": 17434,
  "Institution": 16356,
  "Insurance": 10205,
  "Int": 6480,
  "Integrated": 26733,
  "Intel": 20287,
  "Intelligence": 12532,
  "Inter": 6542,
  "Interest": 15995,
  "Intern": 17373,
  "Internal": 27302,
  "International": 3291,
  "InternationalCooperation": 28350,
  "InternationalDevelopment": 27432,
  "InternationaláĢĢ": 19580,
  "Internet": 8655,
  "InternetExplorer": 16199,
  "Interview": 25945,
  "Invest": 30154,
  "Investig": 23179,
  "Investment": 8061,
  "Ir": 13917,
  "Iron": 28643,
  "Irrawaddy": 9718,
  "Irrigation": 20877,
  "Is": 5590,
  "Isidor": 25209,
  "Islam": 12189,
  "Islamic": 24004,
  "Island": 14637,
  "Issue": 29634,
  "It": 10696,
  "IáĢĢ": 6549,
  "J": 46,
  "JA": 17784,
  "JAC": 16225,
  "JC": 1740,
  "JI": 23439,
  "JICA": 9956,
  "JICM": 14835,
  "JICMáĢ¡áĢħáĢĬ": 24655,
  "JMC": 8187,
  "JP": 6976,
  "JS": 13630,
  "Ja": 19682,
  "Jac": 22886,
  "Jack": 14192,
  "James": 16465,
  "Jan": 13356,
  "Japan": 8670,
  "Jet": 21356,
  "Jew": 26894,
  "Jiang": 24713,
  "Jim": 22357,
  "Jin": 20492,
  "Jo": 24075,
  "Job": 16950,
  "Jobs": 23442,
  "Joe": 20047,
  "Joh": 24712,
  "John": 6706,
  "Johnson": 16916,
  "Joint": 12981,
  "Joker": 28646,
  "Jon": 23440,
  "Jones": 23441,
  "Jong": 27737,
  "Jos": 20046,
  "Joseph": 26854,
  "Journal": 5908,
  "Journalism": 15784,
  "Journalof": 25930,
  "Jud": 22358,
  "Jul": 29637,
  "July": 9203,
  "Jun": 9066,
  "Junction": 28645,
  "June": 11678,
  "Junior": 21296,
  "Jur": 28644,
  "Just": 24711,
  "Justice": 11593,
  "JáĢĢ": 26102,
  "K": 47,
  "KA": 11409,
  "KAW": 19684,
  "KBA": 2641,
  "KBC": 26896,
  "KBZ": 7266,
  "KD": 12538,
  "KE": 12539,
  "KFC": 18983,
  "KG": 8265,
  "KH": 20903,
  "KI": 23443,
  "KIA": 2742,
  "KIAáĢĲ": 19195,
  "KIAáĢĲáĢķ": 23834,
  "KIAáĢĶ": 27408,
  "KIC": 26106,
  "KIO": 5379,
  "KK": 12982,
  "KKO": 15815,
  "KL": 25392,
  "KMIC": 24714,
  "KN": 3085,
  "KNDO": 20368,
  "KNLA": 3982,
  "KNLAPC": 10805,
  "KNLAáĢĲáĢķ": 25183,
  "KNP": 26898,
  "KNPP": 12180,
  "KNU": 3483,
  "KNUáĢĢ": 30386,
  "KNUáĢĶ": 25863,
  "KO": 6172,
  "KOICA": 30520,
  "KPC": 18066,
  "KRC": 22359,
  "KS": 17206,
  "KSPP": 13918,
  "KSPPáĢķ": 27630,
  "KT": 24076,
  "KTV": 9067,
  "KTVáĢĢ": 28493,
  "KTVáĢĨ": 28494,
  "KTVáĢķ": 23977,
  "KV": 13216,
  "KVA": 24080,
  "KW": 26103,
  "KY": 22887,
  "Ka": 11314,
  "Kachin": 20494,
  "Kal": 26105,
  "Kam": 20493,
  "Kamar": 17494,
  "Kamarpale": 27666,
  "Kan": 26104,
  "Kar": 12209,
  "Karen": 24643,
  "Kay": 28647,
  "Ke": 16951,
  "Keep": 27738,
  "Ken": 26895,
  "Kenn": 26107,
  "Key": 11221,
  "Kg": 19295,
  "Kh": 6550,
  "Kha": 22889,
  "Kham": 29639,
  "Khan": 18691,
  "Khin": 16424,
  "Ki": 29638,
  "Kim": 12314,
  "Kin": 16466,
  "Kind": 22360,
  "King": 10141,
  "Kingdom": 27590,
  "Kir": 25393,
  "Kit": 6649,
  "Kn": 24077,
  "Knowledge": 19296,
  "Ko": 11045,
  "Koh": 26897,
  "Kong": 20048,
  "Korea": 12426,
  "KothariáĢĢ": 28648,
  "KuMojo": 12008,
  "Kumar": 16952,
  "Kun": 24079,
  "Kw": 18065,
  "Ky": 4404,
  "KySDP": 24539,
  "Kyat": 27479,
  "Kyaw": 7736,
  "KyawThu": 12302,
  "Kye": 17207,
  "Kyi": 10620,
  "Kyis": 20820,
  "KyisHouse": 24682,
  "KáĢ¡áĢĸ": 19683,
  "KáĢĢ": 10140,
  "KáĢĲ": 24078,
  "KáĢĶ": 22888,
  "L": 48,
  "LA": 1279,
  "LAND": 21594,
  "LAXY": 29056,
  "LB": 6279,
  "LC": 4957,
  "LCM": 30481,
  "LD": 812,
  "LDC": 18808,
  "LE": 5948,
  "LED": 9400,
  "LF": 3307,
  "LG": 15816,
  "LGBT": 13217,
  "LI": 12106,
  "LIFT": 19687,
  "LINE": 26902,
  "LISH": 29642,
  "LL": 10470,
  "LM": 3700,
  "LMV": 9150,
  "LO": 2144,
  "LOS": 15318,
  "LP": 2870,
  "LS": 8921,
  "LT": 13631,
  "LTD": 12635,
  "LTE": 21358,
  "LV": 19685,
  "LY": 16685,
  "La": 8034,
  "Lab": 8000,
  "Labour": 16429,
  "Lady": 20049,
  "Lai": 17785,
  "LaiLone": 27668,
  "Lake": 12983,
  "LakáĢĢ": 21855,
  "Lam": 28650,
  "Lamb": 26901,
  "Lancang": 24085,
  "Land": 5068,
  "Landand": 22773,
  "Lang": 24081,
  "Language": 13358,
  "Laoth": 25258,
  "Laptop": 21360,
  "Lar": 16468,
  "Last": 25394,
  "Laur": 21359,
  "Law": 4315,
  "Laws": 29319,
  "LawáĢĢ": 24537,
  "LawáĢĻ": 29320,
  "Layer": 29641,
  "Le": 4833,
  "Leader": 20406,
  "Leadership": 20407,
  "Leaf": 20906,
  "League": 21261,
  "Learn": 27740,
  "Learning": 8411,
  "Lee": 11315,
  "Leg": 12107,
  "Legal": 27611,
  "Lenovo": 22892,
  "Les": 20904,
  "Letter": 9569,
  "LettertoM": 19648,
  "LettertoMoemaka": 19675,
  "Lev": 22890,
  "Level": 6413,
  "Li": 8632,
  "Lian": 17208,
  "Liang": 19686,
  "Lib": 7968,
  "Liberation": 29432,
  "Library": 10260,
  "Life": 6341,
  "Light": 8140,
  "Like": 13919,
  "Lim": 13357,
  "Limited": 8266,
  "LimitedáĢĻ": 29442,
  "Lin": 16467,
  "Line": 6768,
  "LineSelection": 29396,
  "Link": 9845,
  "LinkáĢĢ": 24620,
  "Linn": 20050,
  "Lion": 26899,
  "List": 7819,
  "Lite": 22891,
  "Literacy": 18692,
  "Literature": 26108,
  "Liu": 19644,
  "Liv": 18360,
  "Live": 11046,
  "Lives": 20905,
  "Living": 25395,
  "Lo": 14193,
  "Load": 23444,
  "Loan": 9351,
  "Local": 19298,
  "Lock": 15599,
  "Lockdown": 7508,
  "LockdownáĢĢ": 29422,
  "LockdownáĢģ": 18326,
  "Locust": 24715,
  "Log": 11799,
  "London": 14351,
  "Lone": 19297,
  "Long": 9780,
  "Lor": 28649,
  "Lord": 26900,
  "Los": 24082,
  "Lot": 27739,
  "Lou": 14500,
  "Louis": 17481,
  "Lov": 28651,
  "Love": 9350,
  "Low": 21357,
  "Ltd": 2404,
  "LtdáĢĢ": 13183,
  "LtdáĢĲ": 15962,
  "LtdáĢĶ": 25817,
  "LtdáĢĻ": 12406,
  "Lu": 14836,
  "Lucky": 29640,
  "Lwin": 24084,
  "Lyn": 24083,
  "LáĢĢ": 7167,
  "M": 49,
  "MA": 2119,
  "MAI": 15316,
  "MAN": 19908,
  "MAR": 6863,
  "MART": 14447,
  "MAS": 15120,
  "MAT": 12509,
  "MAX": 29151,
  "MAáĢĢ": 19190,
  "MB": 5699,
  "MC": 1775,
  "MCC": 16469,
  "MCCW": 27658,
  "MCard": 22131,
  "MD": 4364,
  "MDA": 26903,
  "MDB": 12427,
  "MDG": 12413,
  "MDáĢľ": 30446,
  "ME": 1828,
  "MEC": 4721,
  "MECS": 9562,
  "MEN": 18549,
  "MENT": 19176,
  "MER": 20306,
  "MERS": 25772,
  "MES": 28223,
  "MF": 2353,
  "MFCCI": 3063,
  "MFF": 26575,
  "MG": 4453,
  "MH": 5334,
  "MHz": 18308,
  "MI": 2608,
  "MIC": 6869,
  "MICC": 9446,
  "MIL": 22697,
  "MIT": 26110,
  "MJ": 9519,
  "MJME": 23357,
  "MK": 17786,
  "ML": 12108,
  "MLM": 21361,
  "MM": 7845,
  "MMA": 23446,
  "MN": 15817,
  "MNA": 16227,
  "MNDAA": 4640,
  "MO": 4120,
  "MOI": 14976,
  "MOLED": 28392,
  "MON": 30423,
  "MOU": 23897,
  "MP": 2504,
  "MPA": 26591,
  "MPC": 8544,
  "MPO": 29199,
  "MPT": 8882,
  "MPU": 17119,
  "MR": 5304,
  "MRTV": 10131,
  "MS": 2488,
  "MSDP": 13320,
  "MSF": 23824,
  "MSME": 15546,
  "MSR": 29196,
  "MST": 7037,
  "MSTEC": 7777,
  "MSUNG": 21206,
  "MT": 6296,
  "MTA": 17787,
  "MTSH": 24718,
  "MTV": 24087,
  "MVA": 20908,
  "MW": 20495,
  "MY": 7676,
  "MYANMAR": 26745,
  "MYSAP": 25966,
  "Ma": 9719,
  "MaKa": 21794,
  "Mac": 10405,
  "Mach": 27743,
  "Machine": 26115,
  "Mack": 27742,
  "Mad": 15185,
  "Made": 18693,
  "Mag": 9459,
  "Magazine": 17184,
  "Magic": 29465,
  "Mah": 12984,
  "Mai": 22893,
  "Mail": 13360,
  "MailáĢŀáĢĲáĢĦ": 26024,
  "Main": 15820,
  "Maj": 26905,
  "Major": 18696,
  "Make": 29643,
  "Maker": 24717,
  "Making": 26114,
  "Mal": 13632,
  "Malaysia": 15187,
  "Mall": 16022,
  "Man": 3460,
  "Management": 5267,
  "ManagementSystem": 25205,
  "Manager": 10391,
  "Mand": 9571,
  "Mandalay": 11672,
  "Mang": 25396,
  "Map": 12315,
  "Mapp": 26112,
  "Mar": 4316,
  "Marc": 14467,
  "March": 15390,
  "Marcus": 29518,
  "Marg": 26906,
  "Maria": 25193,
  "Marine": 27474,
  "Mario": 19960,
  "Maritime": 28400,
  "Mark": 4183,
  "Market": 7260,
  "Marketing": 8136,
  "Marsh": 21248,
  "Mart": 8968,
  "Martial": 21730,
  "Martin": 21786,
  "Mary": 22362,
  "Mas": 26109,
  "Mask": 4519,
  "MaskáĢĢ": 14981,
  "MaskáĢĲ": 22239,
  "MaskáĢĲáĢķ": 13745,
  "MaskáĢĻ": 19604,
  "Mass": 15186,
  "Master": 10142,
  "Mat": 13359,
  "Match": 16686,
  "Material": 24088,
  "Math": 24716,
  "Mathematics": 28542,
  "Matt": 17788,
  "Matter": 15391,
  "Maung": 11222,
  "Maur": 18694,
  "Maw": 24086,
  "Max": 10631,
  "May": 7782,
  "Maz": 26111,
  "Mbps": 20052,
  "Mc": 13920,
  "Me": 4597,
  "Measures": 6360,
  "Mechan": 16688,
  "Mechanism": 26836,
  "Med": 4714,
  "Media": 3247,
  "MediaGroup": 8095,
  "MediaáĢĢ": 6245,
  "Medical": 8877,
  "Medicine": 12295,
  "Medium": 25910,
  "MediáĢĲ": 19228,
  "Meeting": 8409,
  "Mekong": 22762,
  "Mel": 15818,
  "Mem": 16953,
  "Member": 25397,
  "Memorial": 29542,
  "Memory": 24719,
  "Men": 17209,
  "Mer": 16226,
  "Merc": 18361,
  "Mess": 9292,
  "Message": 17757,
  "Messenger": 14334,
  "Met": 8188,
  "Meter": 23447,
  "Method": 8969,
  "Metropolitan": 29439,
  "Mg": 11594,
  "Mi": 17495,
  "Mich": 10343,
  "Michael": 20450,
  "Michel": 26782,
  "Micro": 7285,
  "Microbiology": 27560,
  "Microsoft": 12300,
  "MicrosoftInternetExplorer": 21319,
  "Middle": 29644,
  "Mil": 22361,
  "Military": 16687,
  "Mill": 20051,
  "Million": 27745,
  "Min": 5365,
  "Mind": 16470,
  "Minh": 30493,
  "Mini": 23928,
  "Mining": 30494,
  "Minister": 21751,
  "Ministry": 20415,
  "Mir": 13091,
  "Mirror": 18673,
  "Miss": 5225,
  "MissGrand": 28424,
  "Mission": 11411,
  "Mister": 27744,
  "Mits": 16954,
  "Mitsubishi": 23407,
  "Mizzima": 13487,
  "Mo": 7585,
  "MoU": 13762,
  "Mobile": 8717,
  "MobileTeam": 29448,
  "Mod": 6311,
  "Model": 11306,
  "Modern": 12964,
  "Moe": 13218,
  "MoeMaKa": 26023,
  "Mog": 28652,
  "Moh": 12009,
  "Mon": 5999,
  "Mond": 23445,
  "Monday": 26068,
  "Money": 7454,
  "Mong": 27741,
  "Monitor": 19976,
  "Monitoring": 17733,
  "Mont": 18985,
  "Month": 25932,
  "Moon": 26113,
  "Mor": 9912,
  "Moral": 18068,
  "MoralAuthority": 24672,
  "More": 18984,
  "Morning": 24622,
  "MorningPost": 28604,
  "Mother": 20907,
  "Moto": 26904,
  "Motor": 18695,
  "Mountain": 25398,
  "Movement": 14657,
  "Movie": 26907,
  "Mr": 3443,
  "Mranma": 30379,
  "Mrs": 16401,
  "Ms": 10552,
  "Mu": 18067,
  "Mul": 11410,
  "Multi": 20455,
  "Mur": 17497,
  "Mus": 15819,
  "Museum": 17210,
  "Music": 8883,
  "Muslim": 26832,
  "My": 5436,
  "MyCO": 30501,
  "Myan": 17496,
  "Myanmar": 1723,
  "MyanmarCo": 26518,
  "MyanmarFoundation": 27330,
  "MyanmarHarp": 24416,
  "MyanmarNOW": 23766,
  "MyanmarNow": 5290,
  "MyanmaráĢ¡áĢĸ": 24415,
  "MyanmaráĢĢ": 12602,
  "MyanmaráĢħ": 30197,
  "MyanmaráĢĨ": 29111,
  "MyanmaráĢĲ": 23197,
  "MyanmaráĢĶ": 25062,
  "MyanmaráĢĻ": 11195,
  "Myint": 19238,
  "Myo": 15600,
  "MáĢĢ": 9570,
  "N": 50,
  "NA": 1869,
  "NAC": 14600,
  "NAL": 13053,
  "NARN": 30230,
  "NASA": 25076,
  "NATIONAL": 23774,
  "NBC": 24090,
  "NC": 3348,
  "NCA": 2469,
  "NCAáĢ¡áĢĢ": 22170,
  "NCAáĢĢ": 17118,
  "NCAáĢħ": 7345,
  "NCAáĢĲ": 26585,
  "NCAáĢĳ": 30291,
  "NCAáĢĻ": 19554,
  "NCAáĢĽ": 29194,
  "NCAáĢľáĢĢ": 7581,
  "NCAáĢľáĢĻ": 26586,
  "NCAáĢŀáĢĬ": 27399,
  "NCB": 25153,
  "NCCT": 10818,
  "NCE": 24503,
  "NCO": 18890,
  "NCáĢĢ": 16173,
  "ND": 6688,
  "NDA": 16023,
  "NDAA": 2010,
  "NDF": 11679,
  "NDP": 4230,
  "NE": 2536,
  "NED": 28655,
  "NER": 4384,
  "NET": 15129,
  "NEW": 4200,
  "NEWS": 30429,
  "NF": 12755,
  "NFA": 11047,
  "NFAáĢĢ": 25295,
  "NFAáĢŀáĢĬ": 23996,
  "NFREL": 24091,
  "NG": 2427,
  "NGC": 27396,
  "NGE": 25106,
  "NGO": 3009,
  "NGOáĢ¡áĢĸ": 19201,
  "NGOáĢĲ": 30340,
  "NGOáĢĻ": 24491,
  "NH": 9957,
  "NI": 4641,
  "NIA": 18987,
  "NIB": 23911,
  "NING": 30468,
  "NLA": 1410,
  "NLD": 1444,
  "NLDáĢ¡": 22105,
  "NLDáĢ¡áĢħ": 5696,
  "NLDáĢ¡áĢĶ": 18248,
  "NLDáĢĢ": 7396,
  "NLDáĢĶ": 14587,
  "NLDáĢķ": 3359,
  "NLDáĢĹáĢŁ": 30143,
  "NLDáĢĻ": 18532,
  "NLDáĢĽ": 15726,
  "NLDáĢľ": 22104,
  "NLDáĢŀáĢĬ": 29080,
  "NLDáĢŁ": 25045,
  "NM": 14501,
  "NMSP": 19664,
  "NNER": 20496,
  "NO": 4111,
  "NONE": 11391,
  "NONEMicrosoftInternetExplorer": 26798,
  "NOW": 21722,
  "NP": 2044,
  "NPADS": 29142,
  "NPK": 20751,
  "NPáĢķ": 19184,
  "NR": 7820,
  "NRPC": 10399,
  "NS": 8103,
  "NSCN": 14504,
  "NT": 4322,
  "NTER": 13886,
  "NTech": 9512,
  "NU": 23448,
  "NVC": 22364,
  "NVCáĢĢáĢĲ": 27689,
  "NY": 14502,
  "NZ": 29645,
  "Na": 11316,
  "Naing": 19688,
  "Nak": 28653,
  "Nam": 20053,
  "Name": 20909,
  "Nan": 26908,
  "Nar": 14837,
  "Nat": 21362,
  "Nation": 10965,
  "National": 4469,
  "Nationalism": 28407,
  "Nations": 12210,
  "Natural": 14658,
  "Nature": 18362,
  "Nav": 28654,
  "Naw": 27746,
  "Nay": 16471,
  "Ne": 14503,
  "Negative": 15392,
  "Nep": 29646,
  "Net": 7403,
  "Network": 5766,
  "Never": 26911,
  "New": 4479,
  "NewLight": 15769,
  "NewLightofMyanmar": 18677,
  "NewLightofMyanmaráĢŀáĢĲáĢĦ": 26849,
  "NewNormal": 24540,
  "NewYear": 28408,
  "NewYork": 17722,
  "News": 3139,
  "NewsJournal": 20370,
  "Newsand": 27425,
  "NewsandMedia": 28614,
  "NewsáĢĢ": 29243,
  "NewsáĢĲ": 23267,
  "NewsáĢĶ": 28338,
  "NewsáĢŀáĢĲáĢĦ": 23853,
  "Ng": 10344,
  "Ngo": 22363,
  "Nguyen": 23364,
  "Ni": 24089,
  "Nic": 18986,
  "Night": 11595,
  "Nik": 26910,
  "Nissan": 25399,
  "No": 5175,
  "NoVote": 19969,
  "Nokia": 28656,
  "Non": 13633,
  "Nor": 17789,
  "Normal": 7168,
  "North": 13634,
  "Not": 18697,
  "Note": 16955,
  "Nov": 10817,
  "Novel": 19654,
  "NovelCoronavirus": 28583,
  "November": 28516,
  "Now": 3323,
  "Number": 23449,
  "Nur": 26909,
  "Nutrition": 18069,
  "Nyein": 21363,
  "NáĢĢ": 15012,
  "O": 51,
  "OA": 3223,
  "OAD": 30363,
  "OB": 2782,
  "OC": 3820,
  "OCHA": 11302,
  "OCK": 26657,
  "OD": 13219,
  "ODA": 19299,
  "ODC": 5380,
  "OE": 5155,
  "OECD": 26912,
  "OG": 26116,
  "OIC": 8504,
  "OK": 13488,
  "OL": 12316,
  "OM": 3386,
  "ON": 5418,
  "ONNA": 30500,
  "OP": 4259,
  "OPIA": 17432,
  "OPPO": 25402,
  "OPS": 18698,
  "OR": 3037,
  "ORE": 25841,
  "ORK": 25842,
  "ORLD": 17987,
  "ORY": 21223,
  "OS": 4240,
  "OT": 3593,
  "OV": 933,
  "OVAX": 9048,
  "OVE": 24954,
  "OVID": 939,
  "OX": 15393,
  "Ob": 12010,
  "Obama": 29494,
  "Ocean": 14505,
  "Oct": 25401,
  "October": 16691,
  "Of": 10143,
  "Off": 5683,
  "Office": 10959,
  "Officer": 12190,
  "Official": 26716,
  "Oh": 16689,
  "Oil": 12317,
  "Oise": 24092,
  "Ok": 22894,
  "Ol": 25400,
  "Old": 20497,
  "Om": 21364,
  "On": 4791,
  "One": 5822,
  "OneRoad": 16643,
  "Online": 6686,
  "Oo": 16690,
  "Ooredoo": 11510,
  "Op": 8503,
  "Open": 15369,
  "Oper": 10819,
  "Operating": 19266,
  "Operation": 13093,
  "Opinion": 20000,
  "Opp": 17498,
  "Opport": 28567,
  "Or": 3575,
  "Orch": 19946,
  "Orchid": 26853,
  "Order": 17420,
  "Organ": 4808,
  "Organic": 12622,
  "Organization": 6339,
  "Ori": 15394,
  "Ory": 29648,
  "Os": 9460,
  "Our": 22365,
  "Out": 8718,
  "Over": 13092,
  "Ow": 13361,
  "Own": 23383,
  "Ox": 8141,
  "Oxford": 12967,
  "OáĢĢ": 15188,
  "OáĢħ": 12756,
  "OáĢĻ": 29647,
  "P": 52,
  "PA": 3775,
  "PACE": 18363,
  "PBZ": 21365,
  "PC": 1557,
  "PCO": 6884,
  "PCR": 11759,
  "PCRáĢĶáĢĬ": 26802,
  "PCW": 16359,
  "PCáĢĢ": 25054,
  "PD": 6551,
  "PE": 3140,
  "PF": 7914,
  "PG": 6932,
  "PH": 14659,
  "PI": 4663,
  "PL": 16956,
  "PLA": 20054,
  "PM": 12863,
  "PN": 2159,
  "PNCC": 3434,
  "PNLO": 14782,
  "PNO": 20758,
  "PO": 13220,
  "PP": 1383,
  "PPE": 13167,
  "PPEáĢĿáĢĲ": 28540,
  "PPO": 9602,
  "PPP": 12159,
  "PPPáĢķ": 23379,
  "PPS": 15097,
  "PPST": 17645,
  "PR": 5591,
  "PRO": 28657,
  "PS": 2092,
  "PSC": 23222,
  "PSLA": 14778,
  "PSLF": 7728,
  "PST": 3351,
  "PT": 2363,
  "Pa": 18699,
  "Pacific": 8839,
  "Pack": 18070,
  "Package": 15013,
  "Pad": 7096,
  "Page": 5881,
  "PageMarketing": 30514,
  "Pak": 25403,
  "Pal": 10751,
  "Palace": 26004,
  "Pale": 26118,
  "Pan": 11596,
  "Pandemic": 24722,
  "Panel": 28525,
  "Pap": 24720,
  "Paper": 20055,
  "Par": 5631,
  "Parad": 23935,
  "Paris": 23934,
  "Park": 6632,
  "Parliament": 14323,
  "Part": 4879,
  "Partners": 30477,
  "Partnership": 12188,
  "Party": 7320,
  "Pass": 9068,
  "Pat": 11511,
  "Path": 20500,
  "Paul": 10697,
  "Pay": 5013,
  "Payment": 10543,
  "PaymentáĢħáĢĶáĢħ": 18659,
  "Pe": 4418,
  "Peace": 6823,
  "Pearl": 22896,
  "Peas": 24721,
  "Pen": 16957,
  "Penn": 29649,
  "People": 8916,
  "Peoples": 19602,
  "Per": 6769,
  "Performance": 18029,
  "Period": 21767,
  "Permit": 17742,
  "Person": 16024,
  "Personal": 17500,
  "Pest": 20499,
  "Pet": 11680,
  "Peter": 13490,
  "Petrol": 26801,
  "Petter": 29650,
  "Pf": 12109,
  "Pfizer": 15584,
  "PfizeráĢĢ": 29496,
  "PfizeráĢĶ": 28558,
  "Ph": 1997,
  "PhD": 19533,
  "Phase": 13723,
  "Phil": 10679,
  "Philosophy": 29477,
  "Phone": 3334,
  "Phosphate": 28240,
  "Phot": 10119,
  "Photo": 3746,
  "PhotoCredit": 14972,
  "PhotoGoogle": 16405,
  "Photoby": 23991,
  "Photocredit": 17468,
  "Photos": 18566,
  "Phys": 12401,
  "Physical": 21321,
  "Physics": 25310,
  "Phyu": 28239,
  "Pi": 17499,
  "Pic": 8593,
  "Picture": 25978,
  "Pile": 21856,
  "Pilot": 22895,
  "Pin": 14838,
  "Pink": 24093,
  "Pites": 12636,
  "Pitesan": 12752,
  "PiÃ±oláĢĢ": 26053,
  "Pl": 3612,
  "Place": 23881,
  "Plan": 3374,
  "Planet": 12728,
  "Planning": 17137,
  "Plant": 8333,
  "PlanáĢĢ": 25859,
  "PlanáĢĲ": 26633,
  "PlanáĢĻ": 27437,
  "PlanáĢĽ": 23278,
  "Plastic": 30399,
  "Plate": 21710,
  "Platform": 12834,
  "Play": 10742,
  "Plaza": 24515,
  "Plus": 11494,
  "Po": 19689,
  "Pod": 12540,
  "Point": 6977,
  "Pol": 3993,
  "Police": 18610,
  "Policy": 6310,
  "PolicyáĢĢ": 25223,
  "Political": 12618,
  "Politics": 17428,
  "Pollution": 18364,
  "Poly": 23895,
  "Pop": 8070,
  "Popular": 12848,
  "Porn": 27747,
  "Port": 8545,
  "Portal": 18647,
  "Position": 28658,
  "Positive": 6722,
  "PositiveáĢĸ": 19246,
  "PositiveáĢľ": 15997,
  "Post": 6000,
  "Posted": 18023,
  "Pot": 14040,
  "Power": 4858,
  "PoweráĢĢ": 29332,
  "Pr": 4273,
  "Practice": 16901,
  "Practices": 20818,
  "Pradesh": 22753,
  "Pre": 6208,
  "Pres": 8306,
  "Presentation": 26753,
  "President": 12969,
  "Press": 8719,
  "Pressure": 22288,
  "Prevention": 17168,
  "Pri": 14194,
  "Price": 21728,
  "Primary": 26032,
  "Prince": 22229,
  "Princess": 24535,
  "Principle": 29317,
  "Print": 16412,
  "Prison": 29651,
  "Private": 9720,
  "Pro": 2036,
  "Problem": 27361,
  "Procedure": 15315,
  "Process": 8490,
  "Processing": 27581,
  "Produc": 28246,
  "Product": 13057,
  "Production": 11291,
  "Products": 20320,
  "Prof": 23218,
  "Professional": 12721,
  "Professor": 23219,
  "Profile": 21181,
  "Program": 5384,
  "Programme": 15779,
  "ProgramáĢĻ": 27519,
  "Project": 4617,
  "ProjectáĢĢ": 30465,
  "ProjectáĢĻ": 30466,
  "Prom": 25404,
  "Promotion": 14352,
  "Property": 12823,
  "Prot": 7502,
  "Protection": 12001,
  "Protein": 27362,
  "Protocol": 19255,
  "Prov": 14943,
  "Provisional": 16158,
  "ProvisionalMeasures": 17198,
  "Prudential": 29316,
  "Psych": 18988,
  "Pub": 15395,
  "Public": 5839,
  "PublicCo": 17164,
  "PublicHealth": 29371,
  "Published": 24026,
  "Pur": 26117,
  "Purch": 26913,
  "Py": 13489,
  "Pyi": 11512,
  "PyiChitThar": 14645,
  "PáĢĢ": 7476,
  "PáĢķ": 20498,
  "Q": 53,
  "QC": 6431,
  "QR": 10820,
  "QU": 29652,
  "Qu": 1451,
  "Quad": 28175,
  "Quality": 10606,
  "Quarantine": 3528,
  "QuarantineáĢľ": 29272,
  "QuarantineáĢĿáĢĦ": 17418,
  "Queen": 16828,
  "Question": 22625,
  "R": 54,
  "RA": 3268,
  "RADE": 14009,
  "RAM": 10685,
  "RB": 28659,
  "RC": 1849,
  "RCEP": 17092,
  "RCH": 27345,
  "RCSS": 5039,
  "RCSSáĢĶ": 27506,
  "RCode": 20307,
  "RCáĢĢ": 11565,
  "RCáĢĲáĢħ": 4295,
  "RCáĢĴ": 19524,
  "RD": 18071,
  "RDA": 29653,
  "RE": 6039,
  "REDD": 26125,
  "REE": 17451,
  "RES": 29655,
  "RF": 14353,
  "RFA": 6062,
  "RG": 26914,
  "RI": 2430,
  "RIC": 20912,
  "RIM": 27397,
  "RIT": 18073,
  "RL": 11800,
  "RM": 22897,
  "RN": 8751,
  "RNA": 18701,
  "RO": 3977,
  "ROK": 13196,
  "ROUP": 19220,
  "RP": 13777,
  "RPG": 29656,
  "RR": 16228,
  "RS": 6092,
  "RSO": 20503,
  "RT": 4495,
  "RTA": 2806,
  "RU": 26119,
  "RY": 18365,
  "Ra": 20910,
  "Rab": 23450,
  "Rad": 12318,
  "Radio": 20460,
  "Rah": 23452,
  "Rail": 20502,
  "Railway": 26857,
  "Rain": 23451,
  "Raj": 25407,
  "Rakhine": 22366,
  "Ram": 16692,
  "Rangoon": 15821,
  "Rank": 24723,
  "Ranking": 24725,
  "Rap": 18700,
  "Rapid": 25346,
  "Rate": 10267,
  "Rateof": 28511,
  "Rating": 20913,
  "Ratio": 24094,
  "RaviSh": 24726,
  "Ray": 11223,
  "Re": 3698,
  "Read": 12615,
  "Reading": 21715,
  "Real": 20387,
  "Reality": 28375,
  "Rec": 6745,
  "Reconciliation": 25949,
  "Record": 17455,
  "Recycle": 29395,
  "Red": 7097,
  "Ref": 2802,
  "Refer": 20357,
  "Reference": 26856,
  "Reform": 10005,
  "Reg": 5925,
  "Region": 28439,
  "Regional": 20841,
  "Register": 27536,
  "Registration": 15152,
  "Regulation": 29374,
  "Rel": 6040,
  "Relation": 19977,
  "Relations": 27537,
  "Relief": 10622,
  "ReliefPlan": 13626,
  "Rem": 16025,
  "Remdesivir": 29535,
  "Ren": 21857,
  "Rep": 5285,
  "Report": 7372,
  "Repres": 23322,
  "Republic": 15990,
  "Res": 3148,
  "Research": 5276,
  "ResearchInstitute": 21268,
  "Reserve": 30357,
  "Resistance": 25142,
  "Resort": 14967,
  "Resource": 13737,
  "Resources": 12614,
  "Respiratory": 26627,
  "Respons": 26626,
  "Response": 23855,
  "Rest": 15396,
  "Restaurant": 26041,
  "Result": 23854,
  "Ret": 11317,
  "Retail": 29485,
  "Return": 23373,
  "Reuters": 7638,
  "Rev": 6911,
  "Reven": 26122,
  "Revenue": 28610,
  "Review": 9952,
  "Revolution": 15789,
  "Rh": 12011,
  "RiA": 25408,
  "Rice": 6513,
  "Rich": 11899,
  "Richard": 13350,
  "Ride": 25405,
  "Right": 8970,
  "Rights": 7739,
  "Ring": 20911,
  "Rio": 25406,
  "Risk": 12757,
  "River": 10632,
  "Road": 6246,
  "Rob": 12211,
  "Robert": 18669,
  "Rock": 11048,
  "Rod": 18072,
  "Rohingya": 20056,
  "Role": 28661,
  "Roll": 23453,
  "Roman": 26123,
  "Ron": 14041,
  "RonáĢĲáĢħ": 20027,
  "Room": 11801,
  "Ros": 26121,
  "Rose": 27748,
  "Ross": 24724,
  "Rot": 20501,
  "Round": 29654,
  "Rover": 16026,
  "Row": 26120,
  "Royal": 9156,
  "Royce": 15014,
  "Ru": 28660,
  "Rub": 14354,
  "Rubber": 23391,
  "Ruby": 27637,
  "Rule": 14839,
  "Rules": 26915,
  "Run": 21366,
  "Runner": 16958,
  "Rural": 18074,
  "Russia": 26124,
  "RáĢĢ": 19690,
  "S": 55,
  "SA": 1145,
  "SAC": 27247,
  "SAKAW": 22585,
  "SAL": 21123,
  "SAN": 16111,
  "SAP": 12926,
  "SARS": 14750,
  "SASAKAW": 29024,
  "SAT": 14419,
  "SAY": 26442,
  "SAáĢĢ": 22067,
  "SB": 12637,
  "SC": 2153,
  "SCG": 27365,
  "SCN": 4581,
  "SCO": 11767,
  "SCoV": 24455,
  "SD": 5366,
  "SDG": 30495,
  "SDP": 5967,
  "SE": 5592,
  "SEA": 2246,
  "SEAN": 2677,
  "SEAO": 5240,
  "SEAOáĢ¡áĢħ": 29349,
  "SEAOáĢĢ": 26698,
  "SEAOáĢģ": 28425,
  "SEAOáĢĲ": 26699,
  "SEAOáĢĻ": 21267,
  "SEAS": 30269,
  "SEN": 21859,
  "SEZ": 21271,
  "SF": 6870,
  "SG": 13635,
  "SH": 9846,
  "SI": 4792,
  "SIA": 8797,
  "SIC": 13779,
  "SIM": 21860,
  "SIQ": 9250,
  "SK": 10966,
  "SL": 9847,
  "SM": 4533,
  "SME": 7477,
  "SMEs": 21773,
  "SMEáĢľ": 24591,
  "SMS": 22367,
  "SNDP": 19693,
  "SNLD": 9402,
  "SNLDáĢķ": 14661,
  "SO": 2612,
  "SOP": 23248,
  "SP": 1998,
  "SPP": 1937,
  "SPS": 28241,
  "SQ": 4470,
  "SR": 3769,
  "SRI": 21858,
  "SS": 1402,
  "SSA": 1875,
  "SSAáĢ¡áĢĸ": 17094,
  "SSAáĢĢ": 8908,
  "SSAáĢĲ": 23775,
  "SSAáĢĲáĢķ": 16602,
  "SSAáĢĶ": 19178,
  "SSAáĢĻ": 28231,
  "SSAáĢĽ": 30233,
  "SSAáĢŀáĢĬ": 28232,
  "SSC": 29072,
  "SSK": 25040,
  "SSPP": 5210,
  "SSPPáĢĶ": 29345,
  "SSR": 12389,
  "SSystem": 18529,
  "ST": 5367,
  "STA": 15823,
  "STE": 29658,
  "STIT": 30496,
  "STR": 29355,
  "SU": 12012,
  "SW": 15015,
  "SX": 12985,
  "SY": 11130,
  "SYC": 26795,
  "Sa": 18702,
  "Sab": 21367,
  "Saf": 26918,
  "Safe": 16473,
  "Safety": 11131,
  "Saint": 27752,
  "Sak": 26917,
  "Sal": 8505,
  "Salai": 25266,
  "Sale": 17501,
  "Sam": 13922,
  "Samsung": 11049,
  "San": 7139,
  "Sand": 15822,
  "Sang": 28663,
  "Sar": 8840,
  "Sarah": 23975,
  "SaranáĢĢ": 22807,
  "Sat": 15016,
  "Saung": 26127,
  "Sav": 21368,
  "Save": 24097,
  "Saw": 11681,
  "Say": 27749,
  "Sc": 2670,
  "Scan": 23250,
  "Sch": 8506,
  "Scholarship": 28482,
  "School": 5278,
  "Schoolof": 19234,
  "Science": 5957,
  "Sciences": 9008,
  "Scot": 21212,
  "Scott": 24475,
  "Scout": 20353,
  "Screen": 21213,
  "Se": 8752,
  "Sea": 10967,
  "Search": 13362,
  "Season": 22368,
  "Sec": 4936,
  "Second": 18621,
  "Secret": 13609,
  "Secretariat": 28546,
  "Secretary": 20465,
  "Section": 27750,
  "Sector": 8594,
  "Securities": 21748,
  "Security": 7402,
  "Sed": 28662,
  "See": 29657,
  "Seed": 7169,
  "Sein": 22898,
  "Sel": 10896,
  "Selection": 14826,
  "Self": 10553,
  "Selfie": 16669,
  "Sem": 14042,
  "Seminar": 27632,
  "Sen": 13921,
  "Senior": 23386,
  "Sense": 29660,
  "September": 29662,
  "Ser": 7326,
  "Serge": 23958,
  "Series": 13619,
  "Service": 4775,
  "Services": 7740,
  "Set": 20914,
  "Setting": 21861,
  "Seven": 26920,
  "Sex": 11513,
  "Sexy": 17765,
  "Sh": 2370,
  "Sha": 28286,
  "Shan": 12280,
  "ShanState": 22309,
  "Shang": 17112,
  "Shangri": 26841,
  "Share": 10124,
  "Sharing": 15125,
  "She": 12986,
  "Sheet": 29503,
  "Shelter": 26576,
  "Sher": 28664,
  "Shield": 8293,
  "Shimbun": 28288,
  "Shin": 21200,
  "Ship": 25098,
  "Shock": 30283,
  "Shop": 15752,
  "Shopping": 18270,
  "Short": 30282,
  "Show": 8023,
  "Shw": 28287,
  "Shwe": 12281,
  "Si": 14506,
  "Siam": 26126,
  "Side": 19692,
  "Sign": 16472,
  "Sil": 11224,
  "Sim": 13094,
  "Sin": 14195,
  "Sing": 6025,
  "Singapore": 9345,
  "Singh": 21758,
  "SingháĢĢ": 19624,
  "Single": 20419,
  "Sir": 14043,
  "Site": 18366,
  "Sk": 13778,
  "Skepticism": 20466,
  "Skill": 7044,
  "Skills": 12745,
  "SkillsáĢĲ": 25238,
  "Sky": 9520,
  "Skyler": 22296,
  "Sl": 12013,
  "Sm": 13221,
  "Small": 26128,
  "Smart": 9958,
  "Smith": 14662,
  "Sn": 14507,
  "Snap": 26039,
  "Snow": 15601,
  "So": 24095,
  "Social": 5368,
  "SocialDistancing": 18019,
  "SocialMedia": 19236,
  "Society": 7586,
  "Soe": 17792,
  "Soft": 18990,
  "Software": 12864,
  "Soil": 14196,
  "Sol": 16229,
  "Solar": 16694,
  "Solution": 16693,
  "Som": 26916,
  "Son": 20504,
  "Song": 17791,
  "Soph": 26919,
  "Sor": 19300,
  "Sou": 24727,
  "Source": 5457,
  "South": 7286,
  "Southern": 15791,
  "Sp": 4079,
  "Space": 11582,
  "Spe": 9069,
  "Speaker": 23978,
  "Spec": 25895,
  "Special": 9767,
  "Specialist": 23984,
  "Species": 29305,
  "Speech": 19646,
  "Speed": 24613,
  "Sport": 24096,
  "Sports": 16230,
  "Spot": 22219,
  "Spr": 13222,
  "Spring": 22315,
  "Square": 12638,
  "Sri": 14660,
  "SriRaviSh": 25325,
  "St": 1637,
  "Stability": 30182,
  "Staff": 19513,
  "Stage": 28196,
  "Stakehold": 30184,
  "Stand": 20293,
  "Standard": 6720,
  "Star": 6843,
  "Stars": 19514,
  "Start": 19511,
  "Stat": 18256,
  "State": 5453,
  "Statement": 19881,
  "States": 14287,
  "Station": 9607,
  "Status": 23191,
  "Statute": 29555,
  "Stay": 5943,
  "StayHome": 18022,
  "StayatHome": 8335,
  "StayatHomeáĢ¡áĢħ": 29443,
  "StayatHomeáĢĢ": 26754,
  "StayatHomeáĢŀáĢĲ": 28477,
  "Ste": 19510,
  "Steel": 19880,
  "Step": 10875,
  "StepLoan": 26791,
  "Stephen": 24407,
  "Steven": 30183,
  "Stim": 28665,
  "Stock": 16595,
  "Stone": 20727,
  "Stop": 9335,
  "Storage": 21622,
  "Store": 14286,
  "Storm": 20728,
  "Story": 19512,
  "Stra": 14593,
  "Straits": 20878,
  "Strate": 8402,
  "Strategic": 16923,
  "Strategy": 12534,
  "Stream": 24405,
  "Street": 11643,
  "Stress": 13713,
  "Strike": 20294,
  "Strong": 24406,
  "Structure": 16365,
  "Stud": 5200,
  "Student": 20411,
  "Students": 28423,
  "Studies": 10621,
  "Studio": 23320,
  "Study": 9667,
  "Style": 12600,
  "Su": 7915,
  "Sub": 9461,
  "Subject": 25277,
  "Success": 21862,
  "Sugar": 27753,
  "Sulphate": 24728,
  "Sulphur": 24098,
  "Sum": 9401,
  "Sumit": 29463,
  "Summit": 12306,
  "Sun": 8035,
  "Sunday": 29661,
  "Sup": 5226,
  "Super": 11997,
  "Supply": 17160,
  "SupplyChain": 25339,
  "Support": 12416,
  "Supranational": 26697,
  "Sur": 7350,
  "Surgical": 27754,
  "Surveillance": 25242,
  "Survey": 13901,
  "Sustainable": 11318,
  "Suu": 15366,
  "SuuKyi": 21829,
  "Suz": 29659,
  "Sw": 9257,
  "Swab": 25987,
  "Swiss": 24614,
  "Sy": 19691,
  "Sym": 27751,
  "Syn": 18703,
  "Syndrome": 19301,
  "System": 3549,
  "Systems": 24513,
  "SystemáĢĢ": 17139,
  "SystemáĢĲ": 23880,
  "SystemáĢĻ": 30389,
  "SáĢĢ": 9110,
  "SáĢĲ": 17790,
  "SáĢĻ": 18989,
  "T": 56,
  "TA": 1922,
  "TAL": 15535,
  "TB": 14508,
  "TC": 3237,
  "TD": 6707,
  "TE": 2962,
  "TEL": 15334,
  "TEO": 29229,
  "TEP": 13873,
  "TER": 10346,
  "TF": 17211,
  "TH": 6667,
  "THIC": 28450,
  "TI": 3050,
  "TIME": 30344,
  "TING": 27423,
  "TIO": 15602,
  "TION": 10407,
  "TIONAL": 20471,
  "TIQ": 29234,
  "TL": 11225,
  "TM": 9111,
  "TML": 23354,
  "TNLA": 2940,
  "TNLAáĢĢ": 16877,
  "TNLAáĢĲ": 23843,
  "TNLAáĢĶ": 23257,
  "TO": 3471,
  "TOI": 20382,
  "TOO": 20800,
  "TOP": 23283,
  "TP": 8546,
  "TR": 10406,
  "TRO": 26132,
  "TS": 3375,
  "TSH": 8135,
  "TT": 9112,
  "TTC": 25410,
  "TTI": 22899,
  "TU": 3754,
  "TUD": 19218,
  "TUM": 6685,
  "TUNE": 29282,
  "TV": 1803,
  "TVáĢĢ": 18864,
  "TVáĢĽ": 25767,
  "TWC": 26131,
  "TY": 24099,
  "Ta": 14197,
  "Tab": 24730,
  "Table": 21369,
  "Tablet": 22370,
  "Tachileik": 14840,
  "Tai": 18078,
  "Tak": 14663,
  "Tal": 27755,
  "Talent": 23456,
  "Talk": 10471,
  "Tan": 18076,
  "Tank": 16231,
  "Tao": 28666,
  "Target": 27757,
  "Task": 18991,
  "TaskForce": 21836,
  "Taung": 24100,
  "Tax": 6414,
  "Taxi": 10624,
  "TaxiáĢĻ": 27595,
  "Tay": 24729,
  "Te": 18075,
  "Tea": 8798,
  "Teach": 13223,
  "Teacher": 24012,
  "Teaching": 27623,
  "Team": 4770,
  "TeamáĢĢ": 24545,
  "TeamáĢĻ": 19964,
  "Tech": 7125,
  "Techn": 4776,
  "Technical": 13607,
  "Technologies": 27495,
  "Technology": 6323,
  "TechnologyáĢĢ": 27542,
  "Teep": 27758,
  "Tel": 5566,
  "Telecom": 16416,
  "Telenor": 11395,
  "Tem": 12014,
  "Temple": 20870,
  "Ten": 20505,
  "Ter": 10821,
  "Term": 15190,
  "Terminal": 29479,
  "Test": 4748,
  "TestKit": 11393,
  "TestKitáĢĶ": 29486,
  "TestKitáĢĸ": 22831,
  "Testing": 22243,
  "TestáĢľ": 26680,
  "Tex": 16027,
  "Texas": 21833,
  "Text": 26922,
  "Th": 2400,
  "Thai": 10884,
  "Thailand": 11487,
  "Than": 8132,
  "ThanShwe": 28473,
  "ThanWin": 23965,
  "Thank": 27392,
  "Thar": 11769,
  "The": 2073,
  "TheIrrawaddy": 23785,
  "TheL": 12079,
  "TheLadies": 19272,
  "TheVaccineAlliance": 25790,
  "TheVoice": 16381,
  "Thein": 17673,
  "Theory": 19536,
  "Ther": 14509,
  "Thet": 28250,
  "Thi": 23239,
  "Thilawa": 20767,
  "Thinking": 14787,
  "Third": 20340,
  "This": 14148,
  "Thomas": 19552,
  "Three": 21203,
  "Through": 30286,
  "Throw": 28290,
  "Thu": 9661,
  "Ti": 26921,
  "Tick": 27756,
  "Tiger": 28669,
  "Tim": 5513,
  "Time": 7821,
  "Times": 6687,
  "TimesáĢŀáĢĲáĢĦ": 16649,
  "Tin": 19694,
  "Tit": 19302,
  "Title": 29564,
  "To": 10345,
  "Tobacco": 26134,
  "Today": 17212,
  "Together": 28667,
  "Tok": 8884,
  "Tokyo": 28490,
  "Tom": 6041,
  "Tomorrow": 7506,
  "TomorrowáĢĤ": 29421,
  "Tong": 24731,
  "Top": 9258,
  "Touch": 21864,
  "Tour": 4419,
  "Tourism": 6765,
  "Tourist": 25904,
  "Tours": 27481,
  "Tower": 16232,
  "Town": 11900,
  "Township": 28529,
  "Toy": 16233,
  "Toyota": 18962,
  "Tr": 2764,
  "Tra": 15017,
  "Trad": 14615,
  "Trade": 6864,
  "Trading": 17415,
  "Train": 15189,
  "Training": 7916,
  "Trans": 4890,
  "Transfer": 16909,
  "Transformation": 24548,
  "Transmission": 21746,
  "Transparency": 18620,
  "Transport": 16638,
  "Travel": 12541,
  "Tre": 23454,
  "Treatment": 28668,
  "Tree": 21863,
  "Tri": 18077,
  "Trial": 24732,
  "Trip": 23455,
  "Tro": 22369,
  "Tropical": 24733,
  "Truck": 18367,
  "True": 30315,
  "Trump": 19564,
  "Trust": 10954,
  "Truth": 25118,
  "Ts": 15397,
  "Tu": 20915,
  "Tub": 26130,
  "Tube": 4680,
  "Tun": 14355,
  "Tunes": 26036,
  "Tung": 29664,
  "Turb": 26133,
  "Tw": 25409,
  "Twitter": 9157,
  "Two": 12639,
  "Ty": 29663,
  "Type": 11050,
  "TáĢĢ": 10752,
  "TáĢĨ": 26129,
  "U": 57,
  "UA": 7822,
  "UAE": 22373,
  "UAN": 28670,
  "UAR": 24734,
  "UB": 5926,
  "UC": 9572,
  "UCA": 26923,
  "UCHI": 26772,
  "UD": 9070,
  "UE": 7374,
  "UEC": 8267,
  "UECáĢĢ": 19259,
  "UEHRD": 11118,
  "UEHRDáĢĢ": 27598,
  "UF": 22371,
  "UG": 9071,
  "UI": 8547,
  "UK": 7533,
  "UL": 9671,
  "ULA": 15603,
  "UM": 9913,
  "UMFCCI": 14044,
  "UN": 3029,
  "UNA": 13095,
  "UNC": 24492,
  "UNDA": 30342,
  "UNDP": 11389,
  "UNDPáĢķ": 22717,
  "UNE": 13923,
  "UNESCO": 23387,
  "UNFC": 7868,
  "UNG": 7587,
  "UNHCR": 11107,
  "UNICEF": 19202,
  "UNODC": 17986,
  "UO": 20916,
  "UP": 4123,
  "UPDJC": 6822,
  "UPDJCáĢ¡áĢĸ": 23954,
  "UPWC": 13884,
  "UR": 7140,
  "URMA": 18324,
  "US": 3072,
  "USA": 8307,
  "USAID": 16433,
  "USB": 28333,
  "USD": 25843,
  "USDA": 17702,
  "USDP": 8875,
  "USDPáĢĢ": 24609,
  "USDPáĢķ": 27424,
  "USS": 19695,
  "UST": 22191,
  "USX": 22192,
  "UT": 9721,
  "UTE": 26924,
  "UV": 14664,
  "UW": 16028,
  "UWSA": 4254,
  "UWSAáĢĶ": 30438,
  "UWSAáĢĿ": 27469,
  "UWSP": 18050,
  "UX": 12640,
  "UXEN": 25311,
  "UYAMA": 28671,
  "UZ": 29665,
  "Ul": 13491,
  "Ultra": 26811,
  "Un": 2429,
  "Under": 14149,
  "Unicode": 21204,
  "Union": 7399,
  "Unit": 10737,
  "United": 10004,
  "Unity": 16161,
  "Univers": 15127,
  "Universal": 23398,
  "Universe": 14614,
  "University": 3614,
  "Universityof": 9106,
  "UniversityáĢĲ": 21711,
  "UniversityáĢĻ": 18001,
  "Up": 7917,
  "Update": 22798,
  "Ur": 17793,
  "Urban": 26844,
  "Us": 18079,
  "Use": 15824,
  "User": 21371,
  "Ut": 21370,
  "UáĢĢ": 10408,
  "UáĢĲ": 22372,
  "V": 58,
  "VA": 6452,
  "VAC": 28673,
  "VB": 2975,
  "VBG": 20361,
  "VC": 8548,
  "VE": 17213,
  "VEE": 29666,
  "VEN": 17215,
  "VI": 11682,
  "VID": 20506,
  "VIP": 10698,
  "VJ": 24735,
  "VMS": 26136,
  "VO": 26925,
  "VOA": 7327,
  "VOM": 24737,
  "VP": 8841,
  "VPU": 28487,
  "VR": 15604,
  "VT": 18080,
  "VTI": 22375,
  "Vac": 10633,
  "Vaccine": 13492,
  "VaccineAlliance": 22842,
  "Val": 11132,
  "Valley": 22304,
  "Value": 11133,
  "Van": 9403,
  "VanhanáĢĢ": 23980,
  "Varieties": 23457,
  "Variety": 20917,
  "Veg": 15018,
  "Vegas": 26821,
  "Veget": 25327,
  "Ven": 24736,
  "Venture": 18705,
  "Ver": 12987,
  "Version": 16959,
  "Vest": 22374,
  "Vi": 18704,
  "Viber": 14510,
  "Vic": 19696,
  "Victim": 26137,
  "Victor": 25348,
  "Video": 8842,
  "VideoConferencing": 23353,
  "Viet": 21372,
  "View": 9521,
  "Vik": 26135,
  "Village": 15605,
  "Vir": 11226,
  "Virgin": 27599,
  "Virtual": 19657,
  "Virus": 10897,
  "Vis": 17214,
  "Visa": 14198,
  "Vision": 10898,
  "Vitamin": 24738,
  "Viv": 26927,
  "Vo": 26926,
  "Voc": 28672,
  "Voice": 5794,
  "Vol": 8633,
  "Volume": 26762,
  "Volunteer": 18649,
  "Vote": 6397,
  "Vs": 17502,
  "VáĢĢ": 9293,
  "W": 59,
  "WA": 9404,
  "WB": 26138,
  "WC": 3504,
  "WCDMA": 23877,
  "WCT": 23876,
  "WD": 11901,
  "WE": 12988,
  "WER": 26139,
  "WF": 5738,
  "WFP": 16029,
  "WG": 8720,
  "WH": 17503,
  "WHO": 6552,
  "WHOáĢĢ": 18026,
  "WHOáĢĽ": 27548,
  "WIN": 19303,
  "WLB": 27761,
  "WN": 15019,
  "WNO": 29668,
  "WO": 9848,
  "WP": 9259,
  "WS": 16695,
  "WSA": 1714,
  "WT": 12015,
  "WTO": 12016,
  "WU": 16234,
  "WY": 18992,
  "Wa": 19697,
  "Wai": 25411,
  "Wal": 15606,
  "Wales": 24102,
  "Walk": 14841,
  "Walker": 27643,
  "Wall": 16236,
  "Wan": 24101,
  "Wang": 15825,
  "War": 8721,
  "Ward": 16235,
  "Washington": 12542,
  "Waste": 26929,
  "Wat": 29667,
  "Watch": 10076,
  "Water": 6576,
  "WaterBus": 25228,
  "Wave": 8458,
  "Wawhkyung": 25412,
  "Way": 9294,
  "Wayne": 25275,
  "We": 6912,
  "WeLove": 29403,
  "Weather": 29402,
  "Web": 10024,
  "Website": 10075,
  "Week": 15398,
  "Weekly": 13924,
  "Well": 19698,
  "Wer": 26928,
  "West": 11683,
  "Western": 18993,
  "Wh": 4811,
  "What": 19965,
  "Whats": 22769,
  "Wheel": 20058,
  "When": 26681,
  "White": 9198,
  "Wi": 20057,
  "Wide": 16960,
  "Wikipedia": 23458,
  "Wil": 21865,
  "Wild": 20508,
  "Will": 11227,
  "William": 21802,
  "Williams": 29484,
  "Win": 5580,
  "Wind": 11412,
  "Window": 21311,
  "Windows": 24635,
  "Winner": 21270,
  "Winrock": 30509,
  "Wis": 20507,
  "With": 15192,
  "Witness": 12989,
  "Wolf": 21373,
  "Women": 13493,
  "Womens": 27762,
  "Wood": 15191,
  "Word": 27760,
  "Work": 5069,
  "Worker": 29338,
  "Working": 16912,
  "WorkingGroup": 24667,
  "Workshop": 25916,
  "WorkáĢħ": 16186,
  "World": 3866,
  "WorldBank": 25180,
  "WorldInsurance": 18895,
  "WorldáĢĢ": 22749,
  "Writer": 18706,
  "Written": 29669,
  "Wun": 22376,
  "WáĢĢ": 27759,
  "X": 60,
  "XCO": 26140,
  "XL": 28674,
  "XT": 12319,
  "XX": 20059,
  "XY": 20918,
  "Xi": 28675,
  "Xia": 14045,
  "Xiaomi": 27633,
  "Xin": 19304,
  "Xinhua": 24042,
  "Xu": 25413,
  "Xuan": 17794,
  "XuanPh": 27669,
  "XáĢĢ": 22900,
  "Y": 61,
  "YA": 4756,
  "YAL": 18013,
  "YAMA": 22767,
  "YAW": 25913,
  "YBS": 7783,
  "YBSáĢļ": 17750,
  "YCDC": 27763,
  "YE": 26141,
  "YGN": 27764,
  "YM": 12990,
  "YMBA": 24010,
  "YO": 6803,
  "YOTA": 13618,
  "YP": 18368,
  "YRTA": 21867,
  "YTU": 25414,
  "YU": 15607,
  "YV": 20060,
  "Yahoo": 24741,
  "Yan": 21866,
  "Yang": 17216,
  "Yangon": 4358,
  "Ye": 12212,
  "Year": 6804,
  "Yellow": 13494,
  "Yes": 24740,
  "Yield": 18369,
  "Yin": 24739,
  "Ying": 26142,
  "Yohei": 25415,
  "Yong": 20061,
  "York": 9914,
  "You": 7404,
  "YouTube": 11669,
  "Young": 20062,
  "Youth": 10208,
  "Youtube": 18708,
  "Yu": 19699,
  "Yun": 18707,
  "YáĢĢ": 22377,
  "Z": 62,
  "ZA": 24103,
  "ZAáĢĢ": 26931,
  "ZI": 14842,
  "ZO": 21868,
  "ZT": 29670,
  "ZZI": 29671,
  "Zam": 28676,
  "Zaw": 14199,
  "Zero": 15826,
  "Zh": 11051,
  "Zhang": 23367,
  "Zhou": 24742,
  "Zin": 25416,
  "Zone": 6312,
  "Zoo": 26930,
  "Zoom": 20919,
  "Zuckerberg": 23459,
  "[": 63,
  "\\": 64,
  "\\\\": 26143,
  "]": 65,
  "]]": 14511,
  "^": 66,
  "^^": 12110,
  "^^^^": 20020,
  "_": 67,
  "__": 1554,
  "____": 2142,
  "________": 3014,
  "________________": 4572,
  "____________________": 20403,
  "________________________________": 7705,
  "____________________________________________________": 20853,
  "________________________________________________________________": 19639,
  "_áĢ¬": 22901,
  "`": 68,
  "``": 10409,
  "a": 69,
  "aG": 29672,
  "aK": 22902,
  "aS": 13495,
  "aa": 18370,
  "ab": 1304,
  "aba": 7191,
  "abad": 16582,
  "abama": 26473,
  "abao": 23162,
  "abar": 16819,
  "abase": 7957,
  "abaáĢĢ": 28149,
  "abe": 26472,
  "abeth": 11753,
  "abh": 12591,
  "abi": 27276,
  "abil": 15522,
  "abilities": 21597,
  "ability": 4746,
  "abis": 21596,
  "abit": 7032,
  "abitat": 8303,
  "abl": 20272,
  "able": 2281,
  "ables": 19860,
  "ablet": 11200,
  "ablish": 23163,
  "ablishment": 27692,
  "abol": 22613,
  "abor": 22612,
  "aboration": 12930,
  "about": 16583,
  "abul": 19493,
  "abulary": 21339,
  "aburi": 19861,
  "aby": 7723,
  "ac": 810,
  "aca": 19102,
  "acar": 20633,
  "acard": 26348,
  "acarotene": 25353,
  "acc": 5036,
  "acchar": 24288,
  "accine": 6766,
  "accord": 30485,
  "account": 12791,
  "ace": 1694,
  "aceae": 8488,
  "aceaeáĢĻ": 21292,
  "acebook": 1155,
  "aceful": 28907,
  "acement": 20634,
  "aces": 19804,
  "acet": 23081,
  "aceu": 16597,
  "aceutical": 17484,
  "ach": 1809,
  "achai": 17953,
  "achar": 28220,
  "achate": 30220,
  "ache": 15678,
  "achel": 6629,
  "achelor": 8226,
  "aches": 30218,
  "achi": 9336,
  "achid": 30219,
  "achiko": 30221,
  "achileik": 7844,
  "achim": 19892,
  "achin": 5850,
  "achine": 7843,
  "achinery": 17449,
  "aching": 19175,
  "achment": 18547,
  "achs": 17952,
  "acht": 17024,
  "achus": 17090,
  "achusetts": 18967,
  "acháĢĢ": 28219,
  "acia": 24287,
  "aciaáĢĻáĢĶ": 28600,
  "acid": 6236,
  "acific": 4606,
  "acing": 11626,
  "acity": 4718,
  "ack": 1611,
  "ackage": 5382,
  "acker": 13583,
  "acking": 12500,
  "acle": 10498,
  "aco": 19103,
  "acom": 9224,
  "acon": 24286,
  "act": 2055,
  "acter": 4804,
  "acteria": 16183,
  "acterial": 17154,
  "actic": 8645,
  "actical": 15267,
  "actice": 8084,
  "actices": 14030,
  "actics": 24913,
  "actiium": 26350,
  "action": 5219,
  "activ": 19104,
  "active": 8162,
  "activity": 26349,
  "actor": 10120,
  "aculture": 13275,
  "acy": 2592,
  "ad": 1000,
  "ada": 5495,
  "adam": 28977,
  "adan": 11091,
  "add": 2239,
  "added": 18574,
  "adder": 19193,
  "addock": 26566,
  "addy": 2459,
  "ade": 1757,
  "adelph": 28081,
  "adem": 3646,
  "ademie": 26643,
  "aden": 28976,
  "ader": 6409,
  "aders": 16796,
  "adership": 12056,
  "ades": 25672,
  "adesh": 13158,
  "adh": 20242,
  "adi": 8576,
  "adian": 20664,
  "adies": 8122,
  "adine": 30043,
  "ading": 3915,
  "adip": 30044,
  "admin": 28080,
  "ado": 10670,
  "adol": 17047,
  "ador": 8056,
  "adow": 13984,
  "ads": 22559,
  "adu": 8653,
  "aduate": 10401,
  "aduzz": 21104,
  "aduzzaman": 21837,
  "adv": 17619,
  "ady": 4088,
  "adz": 26405,
  "adáĢĢ": 15507,
  "ae": 3075,
  "aeda": 22378,
  "ael": 5386,
  "aer": 20920,
  "aeus": 30350,
  "af": 2338,
  "afa": 30278,
  "afe": 7367,
  "afed": 17683,
  "afety": 7121,
  "aff": 5030,
  "afoundation": 30279,
  "aft": 29175,
  "after": 19547,
  "ag": 1092,
  "aga": 12375,
  "against": 23138,
  "agan": 5363,
  "agar": 17915,
  "age": 1472,
  "aged": 24996,
  "agement": 2709,
  "agen": 7255,
  "agent": 15705,
  "ager": 4187,
  "agers": 21118,
  "ageráĢĢ": 28114,
  "ages": 4596,
  "ageáĢĢ": 14928,
  "agi": 27243,
  "agic": 20250,
  "aging": 5876,
  "agle": 12376,
  "agn": 10104,
  "agne": 15706,
  "agnos": 14033,
  "agnostic": 15586,
  "ago": 7008,
  "agon": 4578,
  "agons": 27244,
  "agram": 5831,
  "agreement": 22581,
  "agroup": 30077,
  "ags": 26441,
  "agu": 12152,
  "ague": 4830,
  "agus": 18226,
  "agáĢľ": 29013,
  "ah": 1890,
  "aha": 27349,
  "ahan": 19897,
  "ahi": 16852,
  "ahn": 18557,
  "ahoo": 7667,
  "ahu": 27350,
  "aháĢĢ": 21177,
  "ai": 1737,
  "aid": 4471,
  "aidu": 14632,
  "aign": 4124,
  "ail": 1313,
  "ailable": 27277,
  "ailand": 5955,
  "ailey": 20273,
  "ailing": 30114,
  "ails": 23729,
  "aily": 1558,
  "aim": 14512,
  "ain": 1581,
  "ainable": 26506,
  "aing": 7018,
  "aining": 29099,
  "ainment": 9143,
  "ains": 11970,
  "ainst": 8256,
  "aint": 5507,
  "aintenance": 26710,
  "aináĢĢ": 17378,
  "air": 2322,
  "aire": 10185,
  "airy": 23809,
  "ais": 7784,
  "aiáĢĢ": 8217,
  "aj": 2812,
  "aja": 16873,
  "aji": 15965,
  "ajor": 13323,
  "ak": 1343,
  "aka": 3490,
  "ake": 2498,
  "akehold": 4950,
  "aken": 25729,
  "aker": 4331,
  "akers": 24371,
  "akeráĢĢ": 20707,
  "akes": 9097,
  "akh": 4837,
  "akhine": 8630,
  "akhon": 16415,
  "aki": 8864,
  "akiart": 16435,
  "akin": 28154,
  "aking": 5466,
  "ako": 30116,
  "akrish": 15930,
  "aks": 14759,
  "akti": 30117,
  "akul": 22616,
  "akáĢĢ": 8578,
  "al": 678,
  "ala": 5829,
  "alan": 14549,
  "alance": 8015,
  "aland": 18158,
  "alar": 16079,
  "alate": 24863,
  "alaxy": 11255,
  "alay": 2981,
  "alaysia": 7670,
  "alc": 7682,
  "alcium": 13904,
  "ald": 11441,
  "ale": 3120,
  "aled": 19762,
  "alent": 6537,
  "aler": 16078,
  "ales": 10093,
  "aleáĢĢ": 22196,
  "alf": 9739,
  "ali": 7716,
  "alia": 27105,
  "alif": 8517,
  "alin": 17573,
  "aline": 18441,
  "aling": 13817,
  "alinn": 19400,
  "alion": 27106,
  "alism": 18777,
  "ality": 2763,
  "alization": 14709,
  "alk": 3158,
  "all": 1470,
  "allas": 23178,
  "allel": 23177,
  "allenge": 4644,
  "allenges": 30152,
  "allery": 5920,
  "allet": 21484,
  "allic": 30151,
  "ally": 4987,
  "alm": 12676,
  "alo": 12039,
  "alon": 28852,
  "along": 27945,
  "alp": 20169,
  "als": 4060,
  "alse": 9127,
  "alsef": 10806,
  "alsefalse": 16209,
  "alsefalsefalse": 17472,
  "also": 30419,
  "alt": 9172,
  "alth": 2737,
  "alu": 24862,
  "aluation": 14550,
  "alue": 6789,
  "aly": 6052,
  "alysis": 8606,
  "aláĢĢ": 7076,
  "aláĢĻ": 12567,
  "am": 940,
  "ama": 3731,
  "amai": 11845,
  "aman": 8354,
  "amar": 7840,
  "amat": 22551,
  "amate": 30032,
  "amax": 27195,
  "amaáĢĢ": 17612,
  "amb": 3480,
  "amba": 27441,
  "ambang": 29270,
  "amboo": 16629,
  "ame": 2698,
  "amel": 19129,
  "ament": 7440,
  "amental": 27196,
  "amer": 13555,
  "amera": 11631,
  "amerlan": 29509,
  "ames": 4101,
  "ami": 7983,
  "amic": 11547,
  "amics": 24326,
  "amide": 28968,
  "amil": 4218,
  "amily": 5067,
  "amin": 4848,
  "amine": 5584,
  "amines": 25659,
  "aming": 18490,
  "aminophen": 27498,
  "amiáĢĢ": 26389,
  "amm": 5771,
  "amma": 24955,
  "ammad": 15362,
  "ammar": 25657,
  "ammasat": 22256,
  "amon": 18214,
  "amonn": 27197,
  "amoto": 25658,
  "amous": 12801,
  "amp": 1980,
  "amph": 24956,
  "amphetamine": 20314,
  "ampion": 4989,
  "ampionship": 5489,
  "ample": 11979,
  "ampoo": 30239,
  "amps": 16378,
  "ampton": 23212,
  "amr": 23673,
  "ams": 3167,
  "amsung": 3957,
  "amy": 17043,
  "amáĢĢ": 10595,
  "an": 585,
  "ana": 3823,
  "anal": 17835,
  "anc": 1845,
  "ancang": 18258,
  "ance": 1624,
  "anced": 6885,
  "ancel": 12503,
  "ancer": 7086,
  "ances": 11564,
  "ancet": 15311,
  "anch": 9859,
  "anche": 28224,
  "ancial": 5234,
  "ancing": 3257,
  "ancoz": 21635,
  "ancozeb": 22336,
  "anction": 8703,
  "ancy": 7552,
  "and": 970,
  "andB": 10240,
  "andBalance": 19652,
  "andDevelopment": 15696,
  "andEnvironment": 17901,
  "andFlag": 27205,
  "andPeace": 30039,
  "andRoad": 17341,
  "andWhite": 30040,
  "anda": 6610,
  "andar": 18496,
  "andard": 3210,
  "andd": 28071,
  "andee": 20660,
  "andeeyar": 20888,
  "andemic": 7061,
  "ander": 6088,
  "andex": 19457,
  "andf": 22044,
  "andid": 25667,
  "anding": 6927,
  "andong": 27204,
  "andra": 13699,
  "ands": 19456,
  "andthe": 10782,
  "andum": 18216,
  "andy": 28072,
  "andáĢĢ": 28073,
  "ane": 4429,
  "anese": 14875,
  "anet": 27908,
  "ang": 1199,
  "anga": 22081,
  "anganese": 19149,
  "ange": 2842,
  "anger": 6589,
  "angerous": 22270,
  "angi": 21134,
  "angible": 21135,
  "angle": 11467,
  "angon": 2053,
  "angoon": 7009,
  "angu": 4320,
  "anguage": 4707,
  "anguages": 18900,
  "angáĢĢ": 10318,
  "ani": 6137,
  "anies": 9171,
  "aning": 27907,
  "anish": 18421,
  "anj": 15642,
  "ank": 1801,
  "anka": 27340,
  "ankar": 19173,
  "ankaráĢĢ": 30215,
  "anking": 6721,
  "anks": 23773,
  "anma": 28816,
  "ann": 2197,
  "anna": 12279,
  "annel": 3458,
  "anner": 13062,
  "anning": 19543,
  "annon": 26560,
  "anny": 20328,
  "ano": 10227,
  "anol": 19051,
  "ans": 1677,
  "ansas": 19888,
  "ansen": 14934,
  "ansing": 15109,
  "ansion": 28204,
  "ant": 1275,
  "anta": 11752,
  "antage": 29055,
  "antan": 30109,
  "ante": 19157,
  "anth": 6231,
  "antha": 19981,
  "anti": 13958,
  "antin": 30110,
  "anto": 14583,
  "antom": 19158,
  "anton": 26467,
  "antota": 18842,
  "antra": 10729,
  "ants": 4781,
  "antum": 23726,
  "antáĢĢ": 25026,
  "any": 2455,
  "anya": 16162,
  "anyon": 28291,
  "anáĢĢ": 3634,
  "ao": 3060,
  "aos": 24743,
  "aoáĢĢ": 11108,
  "ap": 1226,
  "apa": 17063,
  "apali": 23153,
  "apan": 3763,
  "ape": 6778,
  "aper": 4638,
  "apeutic": 25232,
  "aph": 8528,
  "aphan": 27266,
  "aphol": 26760,
  "aphyl": 28483,
  "apixel": 19488,
  "apl": 12064,
  "aplang": 20458,
  "aplog": 26463,
  "aplogroup": 27700,
  "apol": 23719,
  "apon": 13430,
  "aponica": 27626,
  "apons": 23720,
  "apore": 4522,
  "aporn": 29045,
  "app": 2486,
  "apping": 12611,
  "application": 21670,
  "approach": 29195,
  "appy": 5877,
  "aps": 21139,
  "apse": 22087,
  "apt": 17360,
  "aptation": 26843,
  "aptist": 16349,
  "aptive": 22086,
  "aptop": 5084,
  "apy": 7031,
  "aq": 22903,
  "aqu": 20509,
  "ar": 641,
  "ara": 4057,
  "araj": 25545,
  "arak": 20588,
  "aram": 28831,
  "aran": 21949,
  "arant": 1635,
  "arantee": 12717,
  "arantine": 1654,
  "arat": 10915,
  "aratine": 18664,
  "araáĢĢ": 23573,
  "arb": 5118,
  "arbage": 28421,
  "arbon": 11303,
  "arbonate": 21309,
  "arch": 3846,
  "archives": 5097,
  "archy": 16632,
  "ard": 1312,
  "arden": 6113,
  "ardo": 16125,
  "ardon": 18242,
  "ards": 10793,
  "ardáĢĢ": 18845,
  "are": 1563,
  "area": 20292,
  "ared": 12898,
  "areness": 15470,
  "ares": 21470,
  "aret": 28832,
  "arez": 29094,
  "arg": 3871,
  "arge": 29853,
  "arged": 25888,
  "argent": 29291,
  "arget": 6546,
  "argo": 13463,
  "ari": 3702,
  "aria": 7214,
  "arian": 6835,
  "arians": 23885,
  "ariat": 17140,
  "aries": 15469,
  "arieties": 18426,
  "ariety": 12616,
  "arin": 27082,
  "aring": 4162,
  "ario": 18149,
  "arious": 28376,
  "aris": 24231,
  "arium": 18150,
  "ariáĢĢ": 17284,
  "ariáĢĢáĢĦ": 25172,
  "ark": 1670,
  "arl": 24230,
  "arlay": 19059,
  "arm": 2865,
  "arma": 23572,
  "armaceutical": 21680,
  "armer": 5726,
  "arming": 13870,
  "army": 23024,
  "arn": 7111,
  "arna": 23574,
  "arnaev": 26069,
  "arning": 8282,
  "aro": 23023,
  "aron": 27932,
  "around": 26281,
  "arov": 24232,
  "arp": 12674,
  "arpon": 26017,
  "ars": 5691,
  "art": 1498,
  "arta": 25747,
  "arten": 15938,
  "arter": 9688,
  "arth": 4788,
  "arthritis": 21744,
  "article": 10433,
  "articles": 25546,
  "artment": 3761,
  "arto": 22628,
  "arton": 29086,
  "artoon": 5467,
  "arts": 11642,
  "arture": 28179,
  "artz": 30156,
  "artáĢĢ": 22629,
  "arw": 9036,
  "arwaddy": 17181,
  "arwon": 18936,
  "ary": 1800,
  "arya": 29121,
  "aryl": 27339,
  "aryn": 17386,
  "arynge": 21334,
  "aryáĢĢ": 25766,
  "aráĢĢ": 7489,
  "as": 860,
  "asa": 8649,
  "asak": 10860,
  "asakawa": 22302,
  "asal": 19120,
  "asan": 9323,
  "asat": 17603,
  "asc": 6926,
  "ase": 1726,
  "ased": 5185,
  "asek": 28208,
  "aser": 15898,
  "ases": 8816,
  "ash": 2110,
  "asha": 24453,
  "ashable": 22156,
  "ashi": 11380,
  "ashington": 4645,
  "ashion": 7524,
  "asht": 10593,
  "ashtag": 17760,
  "ashtra": 25999,
  "asi": 15897,
  "asia": 6586,
  "asian": 23651,
  "asic": 13033,
  "asing": 15686,
  "asis": 11738,
  "ask": 1621,
  "asket": 27319,
  "asm": 7030,
  "asma": 17604,
  "asmine": 18034,
  "ason": 7600,
  "asone": 16318,
  "asonic": 14104,
  "asp": 12797,
  "aspp": 21532,
  "ass": 1602,
  "assador": 11098,
  "asse": 23102,
  "asser": 27313,
  "assin": 8736,
  "assination": 29102,
  "assium": 10873,
  "assment": 19875,
  "asso": 18856,
  "assurance": 26508,
  "assy": 12073,
  "ast": 1786,
  "aste": 6591,
  "aster": 2647,
  "astern": 11739,
  "asteur": 21766,
  "astian": 26370,
  "astic": 8165,
  "astoid": 28214,
  "astro": 15308,
  "asts": 30209,
  "asty": 14597,
  "asu": 27179,
  "asure": 12798,
  "asw": 12690,
  "aswanáĢĢ": 19274,
  "asy": 6609,
  "asáĢĢ": 9134,
  "at": 806,
  "atHome": 3261,
  "ata": 2714,
  "atai": 14559,
  "atan": 10300,
  "atar": 11941,
  "atch": 2849,
  "atchment": 24485,
  "ate": 1269,
  "ateb": 28906,
  "ated": 3067,
  "ateg": 12490,
  "ategory": 15003,
  "atel": 21524,
  "atement": 12253,
  "ater": 2285,
  "ateral": 3339,
  "aterial": 8445,
  "aters": 24912,
  "ates": 3212,
  "ateshi": 18887,
  "atest": 11451,
  "ateáĢľ": 12590,
  "atform": 5082,
  "ath": 2313,
  "atha": 15961,
  "athan": 9763,
  "ather": 4643,
  "atherine": 25197,
  "athering": 26678,
  "athers": 30277,
  "athion": 15324,
  "athlon": 23808,
  "athome": 18877,
  "athon": 12724,
  "athy": 11984,
  "ati": 2867,
  "atia": 27414,
  "atic": 8412,
  "atigue": 25128,
  "atin": 9493,
  "ating": 3507,
  "atinum": 20443,
  "atio": 9009,
  "ation": 867,
  "ational": 1305,
  "ationof": 23652,
  "ations": 2719,
  "ationship": 9090,
  "ationáĢĢ": 12471,
  "ationáĢķ": 30008,
  "ationáĢĻ": 28943,
  "ationáĢľ": 21084,
  "atios": 30328,
  "atire": 19927,
  "atis": 7311,
  "atist": 30327,
  "atistical": 25962,
  "atistics": 10746,
  "atitis": 16874,
  "ativ": 23461,
  "ative": 2163,
  "atives": 16237,
  "atization": 27415,
  "atiáĢĢ": 22706,
  "ato": 8520,
  "atom": 29955,
  "aton": 21523,
  "atonin": 17596,
  "ator": 2708,
  "ators": 16871,
  "atory": 5273,
  "atra": 13830,
  "atre": 16546,
  "ats": 3705,
  "atsu": 18605,
  "att": 3057,
  "atta": 25134,
  "attack": 23847,
  "attalion": 28330,
  "attan": 15136,
  "atter": 5294,
  "attery": 14471,
  "atthe": 14100,
  "atting": 17128,
  "attle": 10534,
  "attoo": 15761,
  "atty": 5440,
  "atu": 23080,
  "atum": 16778,
  "atur": 10497,
  "atural": 4963,
  "aturated": 14643,
  "ature": 3798,
  "atures": 15889,
  "aturing": 24285,
  "atus": 7803,
  "aty": 25613,
  "atáĢĢ": 10663,
  "au": 2969,
  "auc": 21374,
  "aud": 12213,
  "aude": 24105,
  "audh": 26803,
  "auer": 30336,
  "aug": 18081,
  "aul": 4370,
  "ault": 11319,
  "aung": 3545,
  "aungsu": 25868,
  "aur": 4024,
  "aurabh": 24527,
  "aurant": 8299,
  "aus": 9158,
  "ause": 10554,
  "aut": 17217,
  "auth": 28324,
  "author": 19571,
  "aux": 20783,
  "auáĢĢ": 26615,
  "av": 1543,
  "ava": 12161,
  "avan": 12713,
  "ave": 2567,
  "avel": 15303,
  "aves": 12499,
  "avi": 7472,
  "aviSh": 23343,
  "avier": 25052,
  "aving": 13433,
  "avior": 13862,
  "avir": 17076,
  "avirus": 2738,
  "avon": 11473,
  "avonoid": 29487,
  "avonoids": 14828,
  "avor": 19873,
  "avy": 6862,
  "aw": 1401,
  "awa": 5904,
  "awaddy": 23740,
  "awady": 23741,
  "awan": 18528,
  "awatra": 24381,
  "away": 15934,
  "awaáĢĢ": 30131,
  "awei": 3653,
  "awh": 22622,
  "awhkyung": 24686,
  "awi": 14429,
  "awn": 18848,
  "awng": 13168,
  "aws": 13577,
  "awsint": 20026,
  "ax": 1871,
  "axanth": 22139,
  "axanthin": 28595,
  "axis": 29128,
  "axy": 4160,
  "ay": 1053,
  "ayMaung": 21115,
  "aya": 6541,
  "ayama": 30067,
  "ayarwon": 24989,
  "ayaáĢĢ": 26434,
  "aye": 7765,
  "ayer": 7930,
  "ays": 6423,
  "ayuki": 21564,
  "ayut": 26433,
  "ayáĢĢ": 18509,
  "az": 2432,
  "aza": 6320,
  "azar": 13593,
  "aze": 14788,
  "azeera": 18348,
  "azette": 25107,
  "azi": 21669,
  "azine": 7238,
  "azole": 21205,
  "azon": 22692,
  "azz": 14954,
  "aáĢĢ": 2424,
  "aáĢĨ": 15020,
  "aáĢĲ": 14046,
  "aáĢĶ": 12865,
  "aáĢķ": 28677,
  "aáĢĸ": 23460,
  "aáĢĻ": 8375,
  "aáĢĽ": 19305,
  "aáĢľ": 18994,
  "aáĢŀáĢĬ": 29673,
  "aáĢŁ": 24104,
  "b": 70,
  "ba": 13363,
  "bability": 20512,
  "bach": 27768,
  "back": 5840,
  "bacterial": 24746,
  "bal": 14200,
  "balance": 27770,
  "ball": 7588,
  "ban": 7240,
  "bana": 21376,
  "band": 9619,
  "bang": 13780,
  "bank": 12214,
  "bar": 13364,
  "base": 25418,
  "based": 9522,
  "bat": 27765,
  "bbc": 18997,
  "bc": 14356,
  "be": 5003,
  "bean": 20827,
  "bed": 22379,
  "bee": 27767,
  "been": 27769,
  "beg": 26932,
  "being": 23920,
  "bel": 25417,
  "bell": 17504,
  "ber": 1915,
  "berg": 3869,
  "bergáĢĢ": 26660,
  "berry": 13719,
  "bert": 6592,
  "bes": 7405,
  "best": 18082,
  "bet": 11052,
  "betes": 18942,
  "bi": 8922,
  "bia": 27766,
  "bial": 24744,
  "bian": 19306,
  "bic": 16238,
  "bicides": 29537,
  "bid": 29674,
  "bike": 25419,
  "bill": 19700,
  "billion": 21377,
  "bin": 21375,
  "bio": 6633,
  "biology": 18650,
  "biotic": 13343,
  "biotics": 8541,
  "bird": 15827,
  "bit": 11597,
  "bl": 9405,
  "black": 23981,
  "ble": 3230,
  "blem": 7163,
  "blog": 2746,
  "blogspot": 6074,
  "bo": 11134,
  "board": 7589,
  "bod": 10899,
  "bodies": 12004,
  "body": 7590,
  "bok": 24745,
  "bol": 18709,
  "bon": 7939,
  "book": 6432,
  "boom": 28680,
  "bor": 10968,
  "border": 22904,
  "born": 18996,
  "bot": 15399,
  "bound": 12866,
  "bour": 11514,
  "bourg": 29489,
  "bow": 12758,
  "box": 6889,
  "boy": 17218,
  "bp": 20063,
  "bps": 8923,
  "br": 20510,
  "brand": 13637,
  "bre": 20511,
  "break": 11053,
  "brid": 8799,
  "bro": 20921,
  "bs": 18995,
  "bu": 28678,
  "bub": 28679,
  "buck": 12543,
  "building": 21869,
  "bull": 28681,
  "bum": 8337,
  "bur": 12111,
  "burg": 8142,
  "burgh": 23348,
  "burma": 4899,
  "burmese": 10634,
  "burn": 28682,
  "bury": 17505,
  "bus": 9781,
  "business": 16474,
  "but": 13636,
  "by": 3536,
  "bythe": 25867,
  "byáĢĢ": 22210,
  "c": 71,
  "ca": 12017,
  "cal": 21378,
  "call": 21379,
  "camp": 10144,
  "campaign": 27591,
  "can": 14843,
  "cap": 12018,
  "capital": 22835,
  "car": 8338,
  "carb": 23462,
  "card": 9782,
  "care": 12759,
  "carotene": 19642,
  "case": 20064,
  "cast": 7478,
  "casting": 11670,
  "cat": 26933,
  "cation": 24106,
  "cc": 6280,
  "ccount": 24108,
  "ccup": 12626,
  "ce": 1127,
  "cean": 5317,
  "ced": 5407,
  "cedure": 7043,
  "cedures": 16188,
  "ceed": 13293,
  "cel": 8549,
  "celerator": 23969,
  "cell": 11684,
  "cellence": 21808,
  "cemic": 25421,
  "cent": 7375,
  "center": 14513,
  "centration": 22281,
  "cep": 17355,
  "cept": 5402,
  "ception": 10932,
  "ceptor": 28431,
  "cepts": 28566,
  "cer": 7019,
  "cern": 18998,
  "cert": 17220,
  "ces": 4234,
  "cess": 2473,
  "cession": 19555,
  "cessto": 21246,
  "ch": 1114,
  "cha": 22583,
  "chai": 14576,
  "chain": 20252,
  "chair": 13850,
  "cham": 19840,
  "chan": 7860,
  "chang": 16338,
  "change": 4769,
  "chant": 18227,
  "char": 10054,
  "charge": 23990,
  "chart": 29017,
  "chat": 17354,
  "che": 11802,
  "check": 18371,
  "cher": 17055,
  "ches": 29016,
  "chester": 16811,
  "chi": 16573,
  "child": 15915,
  "children": 27651,
  "chin": 20251,
  "china": 17916,
  "ching": 16810,
  "chiro": 10449,
  "chlor": 12805,
  "chloride": 29500,
  "cho": 30080,
  "chool": 3960,
  "chor": 28115,
  "cháĢĢ": 30081,
  "ci": 18710,
  "cial": 13365,
  "cient": 23463,
  "cil": 3587,
  "ciliation": 10066,
  "cin": 11320,
  "ciss": 20923,
  "city": 24107,
  "ck": 2907,
  "cl": 2711,
  "class": 12517,
  "cle": 10209,
  "cler": 21215,
  "clerosis": 24046,
  "clip": 27405,
  "clos": 20355,
  "closure": 24043,
  "cloud": 27406,
  "club": 29210,
  "clud": 15756,
  "cluding": 22850,
  "clus": 5124,
  "clusion": 13610,
  "clusive": 6224,
  "clusiveness": 29339,
  "cm": 14357,
  "cn": 15828,
  "co": 2616,
  "coal": 30302,
  "coat": 26597,
  "cod": 22905,
  "code": 11686,
  "cohol": 14201,
  "col": 6634,
  "coli": 17170,
  "color": 23335,
  "com": 1559,
  "come": 5708,
  "comm": 9184,
  "commerce": 14000,
  "commm": 14590,
  "commun": 30166,
  "community": 9887,
  "comp": 13435,
  "company": 29507,
  "complex": 28185,
  "comáĢĢ": 20720,
  "comáĢĻ": 25752,
  "comáĢĿáĢĢ": 26504,
  "comáĢŀ": 14432,
  "con": 1965,
  "condition": 17393,
  "conf": 17099,
  "conn": 16377,
  "conom": 2431,
  "conomic": 2800,
  "cons": 15954,
  "conscious": 24440,
  "consin": 18868,
  "cont": 6819,
  "contact": 21286,
  "content": 25233,
  "contin": 16651,
  "continental": 27659,
  "control": 13081,
  "copy": 26145,
  "cor": 9352,
  "cord": 6042,
  "core": 17219,
  "corn": 29675,
  "corp": 17758,
  "cott": 18083,
  "count": 2804,
  "country": 17979,
  "court": 26144,
  "coáĢĢ": 22698,
  "cr": 13781,
  "craft": 20925,
  "credit": 11685,
  "crop": 15400,
  "ct": 1907,
  "ction": 2850,
  "ctober": 12170,
  "cue": 13224,
  "cultural": 29676,
  "culture": 20924,
  "cur": 19701,
  "curs": 29677,
  "cus": 20922,
  "cut": 25420,
  "cy": 6173,
  "cyber": 11213,
  "cybermedia": 11506,
  "cycl": 12625,
  "cyclop": 14187,
  "cyclopedia": 14831,
  "d": 72,
  "da": 7741,
  "daily": 10822,
  "dailymail": 18661,
  "dam": 14514,
  "dar": 19307,
  "dash": 27772,
  "dat": 27771,
  "data": 20514,
  "date": 4958,
  "dated": 19310,
  "dates": 27773,
  "day": 3623,
  "daydaily": 28370,
  "days": 28369,
  "db": 12019,
  "dc": 20926,
  "de": 5718,
  "dec": 21380,
  "def": 20927,
  "dehyde": 29680,
  "del": 16696,
  "dem": 19702,
  "den": 7742,
  "dep": 14515,
  "der": 3356,
  "dern": 26147,
  "des": 6805,
  "design": 29679,
  "desivir": 7911,
  "det": 25422,
  "determination": 21381,
  "dev": 22907,
  "development": 14665,
  "df": 15021,
  "dh": 11803,
  "dhury": 15174,
  "di": 9573,
  "din": 22906,
  "diplomacy": 28683,
  "dis": 14047,
  "disc": 22380,
  "disease": 19703,
  "distancing": 15401,
  "dit": 20065,
  "dition": 10410,
  "dl": 26146,
  "dm": 6746,
  "dn": 15608,
  "do": 6325,
  "doc": 19309,
  "dog": 13225,
  "dom": 3783,
  "domain": 25884,
  "don": 12991,
  "dong": 16475,
  "door": 16030,
  "dor": 19308,
  "dose": 29678,
  "down": 2220,
  "dp": 9260,
  "dpuf": 9840,
  "dr": 4762,
  "dragon": 16637,
  "draw": 23464,
  "drome": 6512,
  "ds": 24109,
  "du": 12428,
  "duc": 1678,
  "ducation": 2315,
  "duce": 18711,
  "duct": 5299,
  "duction": 6166,
  "ductive": 12601,
  "ductor": 20297,
  "ducts": 11973,
  "dy": 20513,
  "e": 73,
  "ea": 2148,
  "each": 3370,
  "eaf": 8869,
  "eal": 8071,
  "ealand": 16430,
  "eam": 2395,
  "ean": 5593,
  "ear": 1619,
  "earch": 2519,
  "earing": 14002,
  "earl": 11971,
  "earn": 11762,
  "earner": 22642,
  "earning": 3936,
  "ears": 8216,
  "earth": 30180,
  "eas": 2391,
  "ease": 16239,
  "easefire": 5040,
  "easibility": 11296,
  "eason": 15753,
  "easure": 14300,
  "easures": 4551,
  "eau": 9338,
  "eautiful": 22294,
  "eauty": 12826,
  "eaux": 15749,
  "eauxm": 26830,
  "eauxmixture": 29592,
  "eauáĢĢ": 24454,
  "eave": 16382,
  "eaven": 18874,
  "eb": 1047,
  "ebate": 15086,
  "ebdo": 11461,
  "ebe": 26427,
  "ebec": 30061,
  "ebel": 26428,
  "eber": 29004,
  "eberg": 25694,
  "ebo": 25691,
  "ebook": 1152,
  "ebr": 11549,
  "ebra": 25693,
  "ebriti": 23694,
  "ebrities": 25362,
  "ebrity": 13766,
  "ebs": 2620,
  "ebsite": 2675,
  "ebsites": 22699,
  "ebu": 25692,
  "eby": 18505,
  "ec": 1004,
  "ecause": 22045,
  "ece": 11275,
  "ecess": 24333,
  "ech": 1727,
  "echan": 6680,
  "echat": 16843,
  "eche": 28979,
  "echn": 2290,
  "echnology": 8739,
  "ecial": 3567,
  "ecies": 10505,
  "ecific": 11846,
  "eck": 9593,
  "ecl": 28082,
  "ecom": 4177,
  "econ": 15079,
  "econom": 7660,
  "economic": 10547,
  "economics": 15158,
  "ect": 1502,
  "ected": 5716,
  "ecti": 15909,
  "ectic": 21106,
  "ectin": 25049,
  "ection": 3088,
  "ectious": 20883,
  "ective": 5641,
  "ectivity": 12372,
  "ector": 3785,
  "ectrum": 15939,
  "ects": 25048,
  "ecture": 7958,
  "ecu": 5657,
  "ecurity": 23123,
  "ecutive": 5906,
  "ed": 951,
  "edRice": 25665,
  "eda": 13288,
  "edar": 9549,
  "edby": 17899,
  "edd": 7841,
  "edding": 11502,
  "ede": 15275,
  "eden": 30037,
  "eder": 27199,
  "ederal": 8355,
  "ederalism": 14479,
  "ederate": 23677,
  "ederation": 12475,
  "edes": 7896,
  "edge": 23675,
  "edia": 1785,
  "edial": 26394,
  "edic": 24961,
  "edin": 24329,
  "edo": 26393,
  "eds": 15276,
  "edt": 16327,
  "edthe": 22554,
  "edto": 23676,
  "edu": 19130,
  "education": 17615,
  "edy": 11179,
  "edáĢĢ": 30036,
  "ee": 1610,
  "eed": 2824,
  "eedback": 7907,
  "eeds": 11387,
  "eek": 2749,
  "eekly": 3296,
  "eel": 4715,
  "eeling": 23313,
  "eem": 26148,
  "een": 4297,
  "eens": 15194,
  "eep": 11804,
  "eer": 10635,
  "ees": 20515,
  "eex": 19876,
  "eeáĢĢ": 18255,
  "ef": 1455,
  "efan": 29082,
  "efeller": 26495,
  "eff": 5015,
  "effect": 19967,
  "efied": 27297,
  "efire": 4845,
  "efor": 8825,
  "efore": 16829,
  "efrom": 30145,
  "eft": 14431,
  "eful": 12496,
  "eg": 1465,
  "ega": 4451,
  "egal": 30148,
  "egapixel": 22626,
  "egation": 10868,
  "egative": 3664,
  "egel": 23747,
  "egen": 16588,
  "egeneration": 22852,
  "eger": 25742,
  "egi": 22108,
  "egie": 25744,
  "egin": 25743,
  "ego": 18852,
  "egold": 27300,
  "egoti": 25046,
  "egr": 6443,
  "egram": 23748,
  "egraph": 9438,
  "egrated": 8372,
  "egration": 12812,
  "egree": 8060,
  "egrity": 17453,
  "eguard": 18853,
  "egyp": 29085,
  "egypti": 29599,
  "eh": 4302,
  "ehavior": 20819,
  "ehicle": 11884,
  "ehind": 19224,
  "ehyd": 21729,
  "ehyde": 26063,
  "ei": 2521,
  "eij": 8871,
  "eiji": 25271,
  "eijing": 11402,
  "ein": 6398,
  "eine": 17506,
  "eing": 18999,
  "eiáĢĢ": 30295,
  "ek": 15193,
  "el": 835,
  "ela": 7390,
  "elaide": 29415,
  "elain": 22522,
  "elan": 12914,
  "elance": 27168,
  "eland": 12688,
  "elanin": 16937,
  "elay": 29986,
  "elcome": 20210,
  "eld": 11841,
  "ele": 7719,
  "elect": 22521,
  "election": 22523,
  "eles": 11732,
  "eless": 8086,
  "elf": 2759,
  "elfare": 15758,
  "elia": 28930,
  "elih": 16553,
  "elihood": 16676,
  "elim": 28024,
  "eline": 5521,
  "elines": 17027,
  "eling": 14562,
  "elius": 24301,
  "ell": 1534,
  "ella": 6149,
  "ellar": 14281,
  "elle": 6457,
  "ellent": 26501,
  "eller": 7987,
  "ellery": 19503,
  "elli": 15301,
  "ellig": 3961,
  "elligence": 4525,
  "elligent": 10461,
  "elling": 7063,
  "ellite": 13861,
  "elliáĢĢ": 26502,
  "ello": 6318,
  "ellor": 8486,
  "ellow": 4883,
  "ellowship": 11993,
  "ells": 7810,
  "elly": 10796,
  "elláĢĢ": 10183,
  "elo": 25629,
  "elong": 14901,
  "elor": 21075,
  "elp": 13836,
  "elph": 22015,
  "els": 4100,
  "elson": 15683,
  "elt": 3674,
  "elta": 14801,
  "elter": 7114,
  "elting": 20802,
  "ely": 5990,
  "eláĢĢ": 7981,
  "em": 1054,
  "ema": 9650,
  "email": 9753,
  "emailprotected": 19264,
  "emale": 19140,
  "eman": 13703,
  "emat": 26436,
  "emb": 5237,
  "ember": 4354,
  "embers": 19970,
  "embership": 29348,
  "emble": 30068,
  "embly": 11031,
  "embourg": 17731,
  "embry": 24563,
  "eme": 12583,
  "ement": 1819,
  "ements": 24431,
  "emerg": 18224,
  "emergence": 21337,
  "emet": 18831,
  "emi": 27237,
  "emia": 14119,
  "emic": 5745,
  "emin": 13420,
  "emon": 9433,
  "emony": 18510,
  "emor": 20672,
  "emory": 8693,
  "emp": 5288,
  "employment": 27238,
  "emporary": 26437,
  "emption": 28427,
  "ems": 14913,
  "emy": 26435,
  "emyanmar": 15914,
  "en": 662,
  "ena": 6403,
  "enance": 25562,
  "enary": 24854,
  "enb": 24853,
  "enberg": 10231,
  "enc": 1806,
  "ence": 1671,
  "encent": 13715,
  "encer": 13312,
  "ences": 5454,
  "ench": 11339,
  "encies": 19174,
  "encing": 21633,
  "ency": 2403,
  "end": 1742,
  "enda": 9100,
  "endar": 24417,
  "endaz": 18543,
  "endazim": 22860,
  "ended": 10385,
  "ender": 4592,
  "enders": 21625,
  "ending": 10525,
  "enditure": 21626,
  "endment": 16599,
  "endo": 20299,
  "endra": 12819,
  "endum": 26519,
  "ene": 2909,
  "enec": 8388,
  "ened": 15652,
  "enee": 29872,
  "eneer": 20781,
  "enef": 25561,
  "ener": 27098,
  "eness": 7233,
  "enet": 17842,
  "eneur": 6510,
  "enez": 28312,
  "eng": 1994,
  "engal": 16606,
  "enge": 4473,
  "engen": 28238,
  "enger": 3431,
  "engeráĢĢ": 22668,
  "enges": 14777,
  "ength": 9384,
  "engáĢĢ": 20316,
  "enh": 13672,
  "enhyd": 24650,
  "enhydrinate": 25367,
  "eni": 15053,
  "enic": 14085,
  "enight": 29871,
  "ening": 6729,
  "eningen": 29393,
  "enior": 25563,
  "enium": 12781,
  "enk": 8472,
  "enko": 18330,
  "enn": 3735,
  "enna": 22746,
  "enne": 28846,
  "ennial": 25882,
  "ennis": 18607,
  "enny": 22747,
  "eno": 14392,
  "enol": 9538,
  "enon": 19394,
  "enor": 4939,
  "enot": 29870,
  "enov": 9981,
  "enovo": 13086,
  "ens": 2024,
  "ense": 5962,
  "enses": 23782,
  "ensic": 28245,
  "ension": 5834,
  "ensis": 20319,
  "ensitive": 9940,
  "ensity": 13449,
  "ensive": 6779,
  "enson": 22147,
  "ensor": 6996,
  "ensorship": 16001,
  "enstein": 29874,
  "ensus": 15956,
  "ent": 884,
  "ental": 5152,
  "entation": 5640,
  "entative": 9698,
  "ented": 18481,
  "enter": 5463,
  "enth": 18480,
  "enthe": 26379,
  "enti": 3372,
  "entia": 22205,
  "ential": 4532,
  "entic": 17294,
  "entilator": 13459,
  "entin": 28041,
  "enting": 23111,
  "ention": 7889,
  "entity": 5636,
  "entle": 13840,
  "entleman": 18954,
  "enton": 30013,
  "entral": 12371,
  "entralization": 15379,
  "entry": 23112,
  "ents": 4163,
  "enture": 7466,
  "entures": 18482,
  "enty": 23655,
  "enue": 29873,
  "enz": 3605,
  "enzie": 30397,
  "enzo": 14799,
  "enzyme": 30398,
  "enáĢĢ": 5575,
  "eo": 20066,
  "eor": 21870,
  "ep": 1412,
  "epay": 22623,
  "epend": 4639,
  "ependence": 17724,
  "ependent": 14172,
  "eph": 4760,
  "ephen": 10541,
  "ephone": 27493,
  "epl": 28162,
  "eport": 29074,
  "eppe": 28163,
  "epper": 26487,
  "epro": 12066,
  "eprosy": 20872,
  "ept": 7083,
  "eptember": 12095,
  "epticism": 19869,
  "equ": 28684,
  "er": 599,
  "era": 5074,
  "erabad": 28818,
  "erad": 13806,
  "eradical": 14492,
  "eral": 1887,
  "erald": 10735,
  "erate": 11707,
  "erating": 19374,
  "eration": 3164,
  "erator": 7887,
  "erc": 3684,
  "ercent": 25879,
  "ercetin": 26647,
  "ercial": 9901,
  "ercise": 13879,
  "ercul": 23884,
  "erculosis": 26071,
  "erd": 22456,
  "ere": 4698,
  "erek": 14635,
  "erem": 12773,
  "eremy": 18952,
  "erg": 4544,
  "ergarten": 19227,
  "erge": 27066,
  "erground": 24541,
  "ergy": 4612,
  "eri": 22457,
  "eria": 16995,
  "eric": 15044,
  "eries": 24214,
  "ering": 3462,
  "erity": 29834,
  "erm": 3716,
  "erma": 18143,
  "erman": 6474,
  "ermis": 28379,
  "ermoon": 25173,
  "ern": 2741,
  "ername": 25830,
  "ernand": 19563,
  "ernia": 27407,
  "ero": 3566,
  "eroid": 25872,
  "eron": 16744,
  "eros": 24832,
  "erry": 6120,
  "ers": 1469,
  "ersey": 27301,
  "ership": 3586,
  "ersion": 7606,
  "erson": 4301,
  "ersonal": 4677,
  "ersons": 19500,
  "ersp": 15728,
  "erspective": 26829,
  "ersáĢĢ": 18249,
  "ersáĢĲ": 16137,
  "ersáĢĻ": 17372,
  "ert": 3316,
  "ertainment": 21702,
  "ertation": 27433,
  "ertificate": 15460,
  "erts": 24215,
  "erv": 1765,
  "ervation": 6189,
  "ervative": 20735,
  "ervatory": 25065,
  "erve": 9976,
  "erved": 21628,
  "ervice": 2376,
  "ervices": 3294,
  "ervis": 10876,
  "ervision": 27336,
  "ervisor": 12973,
  "ervoir": 30207,
  "ery": 3306,
  "eráĢĢ": 3117,
  "eráĢĲ": 6952,
  "eráĢĶ": 15643,
  "eráĢĸ": 27065,
  "eráĢĻ": 12453,
  "eráĢĽ": 28817,
  "eráĢľ": 11250,
  "es": 730,
  "esa": 13139,
  "esar": 24877,
  "esban": 29910,
  "esc": 6347,
  "escent": 28446,
  "ese": 2512,
  "esh": 3911,
  "eshi": 30411,
  "eshield": 16409,
  "esia": 27964,
  "esign": 4117,
  "esis": 7055,
  "esium": 17011,
  "esp": 23045,
  "ess": 1148,
  "essa": 16112,
  "essall": 23703,
  "essallien": 25363,
  "esse": 14751,
  "essel": 21124,
  "essing": 26443,
  "ession": 10056,
  "essment": 5297,
  "est": 1354,
  "estar": 30119,
  "ester": 4895,
  "esterday": 27499,
  "estern": 6607,
  "esterone": 25200,
  "esthe": 20708,
  "estic": 8475,
  "estion": 6954,
  "estiv": 5324,
  "estival": 5417,
  "esto": 19864,
  "estock": 15931,
  "estone": 30120,
  "estra": 17933,
  "estream": 25034,
  "estrogen": 26478,
  "estry": 12592,
  "ests": 14760,
  "esture": 29066,
  "esty": 23164,
  "estyle": 15722,
  "esus": 19082,
  "esusáĢĢ": 28872,
  "esáĢĢ": 5655,
  "esáĢĲ": 17855,
  "esáĢĻ": 17310,
  "esáĢľ": 14090,
  "et": 952,
  "eta": 6110,
  "etal": 17339,
  "etan": 28066,
  "etary": 13156,
  "etc": 25666,
  "etch": 17616,
  "ete": 12476,
  "eter": 3078,
  "etermin": 8220,
  "etermination": 15368,
  "etermined": 17180,
  "eth": 2491,
  "ethasone": 17966,
  "ethat": 25821,
  "ethe": 5818,
  "etheDream": 28438,
  "ether": 5706,
  "ething": 13733,
  "ethinking": 20345,
  "ethnic": 23243,
  "ethod": 5114,
  "ethyl": 9825,
  "ethylene": 23986,
  "etin": 19453,
  "eting": 2787,
  "eto": 8942,
  "eton": 15505,
  "etor": 27200,
  "etry": 13842,
  "ets": 5326,
  "etsu": 30490,
  "ett": 3590,
  "etta": 16891,
  "ette": 8652,
  "ettel": 18290,
  "etter": 4097,
  "ettes": 29275,
  "etti": 18493,
  "etting": 6971,
  "ettings": 24514,
  "ettiáĢĢ": 29556,
  "ettlement": 11109,
  "etts": 17617,
  "ettáĢĢ": 30396,
  "etwork": 2687,
  "ety": 2601,
  "etyl": 30301,
  "etz": 19452,
  "etáĢĢ": 12581,
  "eur": 20067,
  "ev": 1325,
  "eva": 14425,
  "evel": 1545,
  "evelop": 1755,
  "evelopment": 1898,
  "evelt": 15304,
  "even": 4864,
  "ever": 3827,
  "evere": 13881,
  "evil": 24368,
  "evin": 19863,
  "evision": 18244,
  "ew": 1198,
  "ewable": 16348,
  "ewart": 21133,
  "ewater": 21585,
  "eway": 15520,
  "ewill": 16815,
  "ewis": 16814,
  "ewith": 24358,
  "ewlett": 25014,
  "ewoo": 16580,
  "ework": 4944,
  "ews": 1564,
  "ex": 1632,
  "exam": 14592,
  "examethasone": 18958,
  "exchange": 29104,
  "exico": 16594,
  "export": 14285,
  "ext": 4539,
  "exual": 18857,
  "exus": 11972,
  "ey": 2628,
  "eya": 18278,
  "eyond": 14151,
  "ez": 14666,
  "eáĢĢ": 6001,
  "f": 74,
  "fP": 24110,
  "fW": 15829,
  "fa": 12020,
  "fac": 18713,
  "face": 12867,
  "facebook": 4422,
  "facebookcom": 14631,
  "fact": 24111,
  "fall": 17795,
  "fam": 13096,
  "family": 22381,
  "far": 20068,
  "fare": 23466,
  "farm": 25424,
  "fast": 13097,
  "father": 21382,
  "fatty": 20928,
  "fattyacid": 26858,
  "fe": 15022,
  "fect": 8634,
  "feed": 8459,
  "feedbur": 19261,
  "feedburner": 19286,
  "feeds": 18935,
  "feng": 28685,
  "fer": 2304,
  "ferenc": 3620,
  "ference": 4210,
  "ferences": 16175,
  "ferencing": 3799,
  "fers": 18084,
  "fess": 3027,
  "fession": 14618,
  "fessional": 3609,
  "fessor": 7312,
  "few": 26149,
  "ff": 1860,
  "ffair": 7195,
  "ffairs": 7966,
  "ffic": 8218,
  "fficking": 21176,
  "ffington": 25075,
  "ffiti": 25773,
  "fi": 17221,
  "fiction": 28686,
  "field": 10411,
  "fil": 19311,
  "file": 11321,
  "film": 26936,
  "fin": 18712,
  "finance": 6465,
  "fire": 13782,
  "first": 15609,
  "fish": 15023,
  "fit": 12760,
  "fl": 2727,
  "flamm": 21675,
  "flat": 9340,
  "flation": 8259,
  "flatoxin": 10136,
  "flife": 29213,
  "flix": 14006,
  "flow": 29212,
  "flower": 13453,
  "flu": 4216,
  "fluence": 19597,
  "fluenz": 5302,
  "fluenza": 5435,
  "fly": 15195,
  "focus": 24112,
  "fol": 10145,
  "folio": 14823,
  "follow": 23467,
  "foo": 26934,
  "food": 8635,
  "for": 2672,
  "forAll": 30308,
  "forPeace": 30307,
  "forc": 11385,
  "force": 15964,
  "forcement": 13087,
  "forces": 29208,
  "ford": 3994,
  "forestry": 15130,
  "form": 2149,
  "formal": 10947,
  "formance": 6461,
  "formation": 3044,
  "former": 20324,
  "forming": 28259,
  "fort": 7287,
  "forthe": 13760,
  "forum": 23830,
  "fr": 3727,
  "frared": 24519,
  "frast": 4468,
  "frastructure": 4574,
  "fre": 29681,
  "free": 15402,
  "friend": 12429,
  "from": 6132,
  "front": 18291,
  "fruit": 26652,
  "ft": 5098,
  "fu": 23465,
  "ful": 6933,
  "full": 26935,
  "fund": 25423,
  "furt": 13783,
  "future": 24113,
  "g": 75,
  "ga": 7067,
  "gae": 16961,
  "gage": 19312,
  "gal": 21871,
  "gall": 22908,
  "game": 20517,
  "gan": 2562,
  "gang": 29682,
  "gaon": 21769,
  "gar": 9574,
  "gas": 28687,
  "gate": 15403,
  "ge": 1628,
  "ged": 21383,
  "gel": 21872,
  "gen": 3315,
  "gency": 26150,
  "gender": 17796,
  "gene": 26151,
  "gener": 12832,
  "general": 19209,
  "generation": 23868,
  "gent": 9295,
  "genta": 16439,
  "gentaFoundation": 18964,
  "geny": 26630,
  "genyTest": 28612,
  "geon": 23761,
  "ger": 5479,
  "gers": 15404,
  "ges": 11515,
  "gest": 17222,
  "gesterone": 25425,
  "get": 5469,
  "gi": 11228,
  "gic": 4915,
  "giene": 19658,
  "gies": 20516,
  "gillus": 19704,
  "gin": 7141,
  "ging": 9523,
  "gins": 29683,
  "gita": 14516,
  "gl": 10823,
  "gle": 2292,
  "gles": 20069,
  "glucos": 28517,
  "gly": 28688,
  "gm": 26937,
  "gmail": 5711,
  "gmailcom": 27530,
  "gn": 12641,
  "go": 5823,
  "gom": 27774,
  "gomery": 29597,
  "goo": 26938,
  "good": 23468,
  "google": 16031,
  "gor": 10969,
  "gorithm": 20862,
  "got": 27775,
  "gov": 6226,
  "government": 9620,
  "governmental": 24619,
  "govmm": 12192,
  "gr": 5543,
  "grade": 11586,
  "graduate": 19619,
  "grain": 27776,
  "gram": 2530,
  "grass": 26713,
  "gre": 18372,
  "great": 29684,
  "green": 19000,
  "gress": 6102,
  "gressive": 21759,
  "grim": 13892,
  "ground": 7455,
  "group": 8885,
  "groups": 21294,
  "growth": 21873,
  "gs": 11229,
  "gu": 12430,
  "guard": 26152,
  "gue": 18085,
  "gy": 2788,
  "gyi": 13190,
  "h": 76,
  "ha": 3588,
  "hab": 19001,
  "habilitation": 27678,
  "had": 13784,
  "hai": 10077,
  "hal": 26153,
  "hall": 28691,
  "ham": 4513,
  "hammad": 14170,
  "han": 4096,
  "hand": 13638,
  "hang": 27778,
  "hanom": 21721,
  "hanouk": 18292,
  "hanoukville": 21835,
  "hanáĢĢ": 17224,
  "har": 5350,
  "hard": 23470,
  "harvest": 22252,
  "has": 13366,
  "hat": 20070,
  "hav": 22910,
  "have": 29687,
  "he": 902,
  "head": 10594,
  "heal": 26385,
  "health": 13553,
  "heart": 14909,
  "heat": 17041,
  "heb": 12694,
  "hebrey": 22310,
  "heck": 5604,
  "hed": 5186,
  "hedule": 13749,
  "hee": 10723,
  "heed": 24319,
  "heel": 6269,
  "heid": 24320,
  "heim": 13414,
  "hel": 22909,
  "helm": 27690,
  "hem": 4672,
  "hema": 10172,
  "hematics": 25994,
  "heme": 18821,
  "hemical": 8587,
  "hemistry": 11790,
  "hen": 15830,
  "heon": 17893,
  "hep": 22036,
  "her": 2008,
  "here": 8258,
  "heráĢĢ": 19182,
  "het": 8120,
  "hetamine": 18642,
  "hew": 23664,
  "hey": 21542,
  "hi": 4652,
  "hib": 6261,
  "hibition": 7348,
  "hide": 29686,
  "high": 19705,
  "hill": 17798,
  "him": 20519,
  "hin": 17797,
  "hine": 29685,
  "hip": 3381,
  "hiro": 22241,
  "his": 15024,
  "hl": 24114,
  "hm": 28689,
  "ho": 14358,
  "hol": 16240,
  "hold": 4235,
  "holder": 21727,
  "holm": 25334,
  "hom": 20518,
  "home": 15611,
  "hon": 17223,
  "hong": 15610,
  "hood": 10753,
  "hop": 10412,
  "hor": 25426,
  "host": 26940,
  "hot": 26939,
  "hou": 8924,
  "hound": 20929,
  "hours": 28692,
  "house": 8143,
  "how": 16241,
  "hr": 22382,
  "hra": 28690,
  "hrel": 22384,
  "ht": 1236,
  "hthe": 17067,
  "html": 2930,
  "http": 1857,
  "https": 9939,
  "hu": 4526,
  "hua": 7016,
  "hub": 22383,
  "hui": 23908,
  "hum": 16697,
  "human": 24115,
  "hur": 23469,
  "hus": 27777,
  "hy": 18086,
  "hya": 16476,
  "hydro": 27779,
  "háĢĢ": 6326,
  "i": 77,
  "iA": 6361,
  "iD": 29688,
  "iPad": 25427,
  "iPhone": 12432,
  "ia": 1160,
  "iab": 20255,
  "iable": 23705,
  "iac": 12868,
  "iacin": 27618,
  "iah": 18516,
  "ial": 1421,
  "ialogue": 5085,
  "ials": 20280,
  "iam": 3401,
  "iamen": 27438,
  "iami": 23280,
  "iamond": 6781,
  "iams": 16242,
  "ian": 1866,
  "iana": 14292,
  "iance": 13925,
  "iang": 3514,
  "iano": 18554,
  "ians": 13226,
  "iant": 17799,
  "ianáĢĢ": 14942,
  "iao": 17917,
  "iar": 14517,
  "ias": 5712,
  "iasis": 10812,
  "iat": 8231,
  "iate": 8550,
  "iation": 4979,
  "iatric": 20436,
  "iav": 17918,
  "iaz": 15089,
  "iaáĢĢ": 12379,
  "iaáĢĻ": 21125,
  "iaáĢľ": 17056,
  "ib": 1617,
  "iba": 23760,
  "ibe": 28193,
  "iber": 3426,
  "iberal": 23189,
  "iberty": 14308,
  "ibilities": 23190,
  "ibility": 5585,
  "ible": 4799,
  "ibo": 10184,
  "ibu": 21164,
  "ibus": 23188,
  "ic": 785,
  "ica": 4871,
  "icable": 29937,
  "icacid": 10921,
  "icago": 21058,
  "ical": 1838,
  "ically": 20628,
  "ican": 29935,
  "icate": 21993,
  "ication": 3066,
  "ications": 8938,
  "icator": 9742,
  "icaáĢĢ": 28891,
  "ice": 1366,
  "iced": 18460,
  "icef": 15293,
  "icel": 27990,
  "icence": 24276,
  "icer": 4857,
  "ices": 3065,
  "ich": 2275,
  "ichai": 22163,
  "ichi": 8625,
  "ichiLife": 19262,
  "ichuan": 23803,
  "ici": 7183,
  "icial": 5638,
  "ician": 15672,
  "icians": 22791,
  "iciary": 27558,
  "icid": 18461,
  "icide": 11348,
  "iciency": 9616,
  "icient": 23063,
  "icies": 21994,
  "icin": 19797,
  "icine": 6161,
  "icing": 24898,
  "icious": 29939,
  "icip": 29936,
  "icit": 13541,
  "ick": 3106,
  "icken": 13326,
  "icking": 19573,
  "ickness": 23851,
  "ickstarter": 21693,
  "icle": 9370,
  "icles": 29938,
  "ico": 8854,
  "icode": 9319,
  "icon": 8855,
  "icro": 2882,
  "ics": 3615,
  "ict": 6696,
  "ictator": 18027,
  "ictim": 13824,
  "iction": 5486,
  "ictionary": 7910,
  "icture": 20194,
  "ictures": 18919,
  "ictus": 23336,
  "icur": 27991,
  "icy": 2987,
  "icylic": 19200,
  "icáĢĢ": 18180,
  "id": 1001,
  "ida": 7187,
  "idad": 26407,
  "idae": 15508,
  "idal": 22560,
  "idar": 11952,
  "idarity": 14185,
  "idas": 17343,
  "iday": 7953,
  "idaáĢĢ": 28978,
  "idd": 5093,
  "idden": 10130,
  "iddle": 8588,
  "ide": 1535,
  "ideen": 25750,
  "idel": 10446,
  "ideline": 14910,
  "idelines": 16207,
  "iden": 12698,
  "idence": 5232,
  "ident": 3892,
  "idential": 12921,
  "ideo": 2416,
  "ideos": 17075,
  "ider": 5144,
  "ides": 6958,
  "idesh": 27210,
  "idge": 7690,
  "idi": 18217,
  "idin": 19824,
  "idity": 30045,
  "idol": 26406,
  "idom": 24967,
  "idomastoid": 28608,
  "idor": 21553,
  "ids": 8992,
  "idt": 8943,
  "idul": 21105,
  "ie": 2050,
  "ied": 5191,
  "ief": 3336,
  "iel": 2756,
  "ield": 3263,
  "ien": 5190,
  "ience": 2945,
  "iences": 6281,
  "iens": 15405,
  "ient": 6399,
  "ienti": 14667,
  "ientific": 13204,
  "ientist": 16459,
  "ier": 3537,
  "ierra": 26639,
  "iers": 11598,
  "ies": 2051,
  "iesel": 14603,
  "iet": 3965,
  "ieties": 11766,
  "ieu": 25086,
  "ieuten": 25787,
  "ieutenant": 26076,
  "iev": 12431,
  "ieve": 24447,
  "iew": 2411,
  "ieáĢĢ": 14944,
  "if": 1572,
  "ife": 2623,
  "ifer": 10380,
  "ifera": 30168,
  "ifesto": 26505,
  "iff": 6991,
  "iffany": 20430,
  "iffe": 29407,
  "iffer": 13307,
  "ifferent": 26807,
  "ifh": 29095,
  "ifi": 9002,
  "ific": 4017,
  "ification": 6240,
  "ified": 11863,
  "iform": 13436,
  "ift": 5791,
  "ify": 16834,
  "ig": 1101,
  "igan": 12804,
  "igar": 15285,
  "igarette": 28556,
  "igation": 13422,
  "ige": 20676,
  "igen": 13704,
  "igence": 21569,
  "igenous": 17479,
  "iger": 8615,
  "igh": 2748,
  "igher": 17632,
  "ight": 1583,
  "ighter": 13189,
  "ighth": 27409,
  "ights": 3211,
  "ighty": 25057,
  "igin": 13848,
  "iginal": 8211,
  "igion": 19473,
  "igious": 24350,
  "igital": 2902,
  "iglia": 29014,
  "igm": 18514,
  "ign": 2032,
  "igne": 21570,
  "ignity": 21645,
  "ignment": 6572,
  "igo": 17631,
  "igrant": 13423,
  "igration": 9807,
  "igs": 25701,
  "igu": 30079,
  "igure": 12153,
  "ih": 6553,
  "ihad": 22785,
  "ii": 17507,
  "ij": 5019,
  "ijay": 14808,
  "ijj": 29336,
  "ik": 1616,
  "ika": 10523,
  "ike": 2596,
  "ikes": 27318,
  "ikh": 10323,
  "iki": 10062,
  "iking": 29103,
  "ikip": 6928,
  "ikipedia": 7263,
  "iko": 9890,
  "ikungunya": 19879,
  "ikáĢĢ": 23759,
  "il": 856,
  "ila": 9133,
  "ilar": 28027,
  "ilas": 27170,
  "ilateral": 3563,
  "ilation": 28028,
  "ilawa": 11948,
  "ild": 2303,
  "ildew": 25093,
  "ile": 1956,
  "ilead": 20746,
  "ilee": 24930,
  "ileik": 7727,
  "iler": 18472,
  "iles": 12578,
  "ilet": 14733,
  "iletral": 22324,
  "ilever": 16604,
  "ili": 11004,
  "ilia": 18816,
  "ilience": 19117,
  "ilight": 17332,
  "ilin": 22529,
  "iling": 14732,
  "ilion": 23094,
  "ilit": 4483,
  "ilitary": 5808,
  "ilitation": 14468,
  "ilitator": 23906,
  "ilities": 6183,
  "ility": 2464,
  "ilk": 13977,
  "ill": 1448,
  "illa": 6336,
  "illage": 7550,
  "illance": 11190,
  "illar": 16135,
  "ille": 5494,
  "illed": 11172,
  "illegal": 25922,
  "iller": 10730,
  "illin": 29081,
  "illion": 3969,
  "illo": 20284,
  "illus": 14430,
  "illustration": 21613,
  "ilm": 9178,
  "ilo": 15894,
  "ilong": 29994,
  "ilot": 5057,
  "ils": 19811,
  "ilt": 14251,
  "ilty": 23646,
  "ily": 11736,
  "iláĢĢ": 24929,
  "im": 1214,
  "ima": 3581,
  "image": 28139,
  "images": 20700,
  "imal": 6273,
  "imals": 25017,
  "iman": 23718,
  "imate": 6146,
  "imation": 10060,
  "imb": 8694,
  "imbun": 16661,
  "ime": 3696,
  "iment": 12642,
  "imer": 30098,
  "imi": 23717,
  "imin": 26460,
  "imination": 28140,
  "imir": 14269,
  "imit": 16817,
  "imited": 3641,
  "imitz": 22085,
  "imm": 14268,
  "imming": 19852,
  "immune": 28552,
  "imo": 15920,
  "ims": 30097,
  "imum": 11010,
  "in": 616,
  "inBurma": 24226,
  "inD": 15464,
  "inMyanmar": 13018,
  "ina": 2087,
  "inafood": 20754,
  "inal": 4145,
  "inance": 5207,
  "inar": 6095,
  "inary": 8564,
  "ination": 4175,
  "inational": 28825,
  "inaáĢĢ": 17396,
  "inburgh": 27922,
  "inc": 3395,
  "incare": 18597,
  "ince": 7129,
  "incess": 9419,
  "incip": 5837,
  "inciple": 17163,
  "inciples": 23326,
  "inclusive": 29844,
  "incoln": 22207,
  "incorail": 23871,
  "inct": 24837,
  "ind": 1954,
  "inda": 9820,
  "inder": 11567,
  "index": 8065,
  "indh": 23780,
  "inding": 9608,
  "indra": 29137,
  "indu": 28234,
  "ine": 1123,
  "inea": 25702,
  "ined": 10655,
  "ineering": 3973,
  "inel": 21945,
  "ineph": 25703,
  "inephrine": 27698,
  "iner": 11925,
  "ines": 3451,
  "iness": 2039,
  "inet": 10162,
  "ineáĢĢ": 13851,
  "ineáĢŀ": 28116,
  "inf": 11156,
  "infection": 23368,
  "information": 11825,
  "ing": 833,
  "ingS": 26364,
  "ingSystem": 28023,
  "ingand": 17884,
  "ingency": 28928,
  "inger": 10719,
  "ingerprint": 26788,
  "ings": 3150,
  "ingsystem": 29244,
  "ingthe": 20643,
  "ingto": 28929,
  "ington": 4099,
  "ingu": 25628,
  "ingáĢĢ": 4435,
  "ingáĢĨ": 15682,
  "ingáĢĲ": 10499,
  "ingáĢĶ": 17883,
  "ingáĢķ": 18815,
  "ingáĢĸ": 28022,
  "ingáĢĻ": 12795,
  "ingáĢĽ": 28021,
  "ingáĢľ": 5314,
  "inh": 7537,
  "ini": 6654,
  "inic": 4492,
  "inical": 10709,
  "inin": 23568,
  "ining": 15466,
  "inion": 7977,
  "inition": 13387,
  "inity": 14700,
  "inium": 25536,
  "iniáĢĢ": 24225,
  "inj": 16067,
  "injara": 24032,
  "ink": 2195,
  "inker": 29160,
  "inking": 4313,
  "inkler": 26559,
  "inn": 5230,
  "inner": 10845,
  "innes": 24562,
  "inness": 29843,
  "ino": 4521,
  "inois": 23309,
  "inol": 19753,
  "inon": 27074,
  "inoáĢĢ": 27075,
  "ins": 2739,
  "insic": 25829,
  "insk": 30313,
  "inski": 13322,
  "inson": 18583,
  "inst": 26274,
  "instein": 20151,
  "insula": 19562,
  "int": 1795,
  "integration": 30213,
  "intelligence": 30212,
  "intendo": 28218,
  "inter": 7626,
  "interest": 19638,
  "international": 21466,
  "internet": 29845,
  "inth": 13128,
  "inthe": 9818,
  "into": 22658,
  "inton": 13445,
  "inu": 11620,
  "iny": 20585,
  "ináĢĢ": 4605,
  "ináĢĲ": 15465,
  "ináĢĵ": 17838,
  "ináĢĶ": 14384,
  "ináĢķ": 27073,
  "ináĢľ": 11712,
  "ináĢŁ": 23567,
  "io": 2016,
  "iod": 6806,
  "iography": 26154,
  "iol": 9915,
  "iolence": 16443,
  "iolent": 25283,
  "iolet": 17102,
  "iology": 19003,
  "ion": 1251,
  "ional": 2503,
  "ioneer": 16123,
  "iong": 19490,
  "ions": 8654,
  "ionáĢĢ": 21589,
  "ior": 3691,
  "ios": 11902,
  "iot": 16698,
  "iotic": 26547,
  "iots": 18714,
  "ious": 5607,
  "ioáĢĢ": 27360,
  "ip": 1395,
  "ipay": 25732,
  "ipe": 10605,
  "iper": 14426,
  "iph": 9998,
  "iphone": 22818,
  "ipir": 23737,
  "ipiravir": 24687,
  "ipl": 4431,
  "ipline": 25037,
  "iplomacy": 23304,
  "ipment": 9052,
  "ipop": 28157,
  "ipp": 5414,
  "ippine": 30499,
  "ippines": 13337,
  "ippo": 17935,
  "ippon": 9563,
  "ips": 8254,
  "ipur": 15524,
  "ipáĢĢ": 17071,
  "ique": 7875,
  "iques": 26155,
  "ir": 1067,
  "ira": 10448,
  "iral": 21567,
  "iram": 24993,
  "irates": 19839,
  "irath": 12700,
  "iration": 14417,
  "irc": 5939,
  "ird": 3841,
  "irder": 14121,
  "ire": 1970,
  "irect": 2876,
  "irection": 14294,
  "irector": 3380,
  "ireless": 14122,
  "ires": 28110,
  "irez": 30237,
  "iri": 9874,
  "iricid": 21568,
  "iring": 23700,
  "irit": 9434,
  "irl": 5505,
  "irm": 6334,
  "irmed": 22578,
  "iro": 5514,
  "iron": 17350,
  "irosis": 26711,
  "irrawaddy": 3118,
  "irs": 21565,
  "irst": 2974,
  "irt": 14263,
  "irth": 11850,
  "irthday": 17473,
  "irty": 22062,
  "irus": 2373,
  "iráĢĢ": 21566,
  "is": 826,
  "isa": 3809,
  "isak": 29965,
  "isal": 25619,
  "isan": 19429,
  "isation": 9427,
  "isb": 21526,
  "isc": 4664,
  "iscal": 8794,
  "isco": 8898,
  "isd": 11945,
  "isdiction": 16450,
  "ise": 2074,
  "isease": 2917,
  "iseases": 13176,
  "ised": 18191,
  "isen": 25618,
  "iser": 11355,
  "ises": 20204,
  "ish": 2105,
  "isha": 19189,
  "ishan": 28257,
  "ished": 22006,
  "isher": 11000,
  "ishi": 8175,
  "ishield": 16857,
  "ishieldáĢĨ": 26839,
  "ishing": 29150,
  "ishment": 15119,
  "ishop": 17105,
  "isi": 24917,
  "ising": 14724,
  "ision": 3121,
  "isk": 4087,
  "isky": 29966,
  "isl": 11171,
  "ism": 1839,
  "isma": 23636,
  "ismic": 30227,
  "ismáĢĢ": 17091,
  "ismáĢľ": 19177,
  "iso": 27157,
  "isode": 29967,
  "ison": 6142,
  "iss": 1738,
  "issan": 6993,
  "issance": 17084,
  "isse": 24918,
  "issimo": 23199,
  "ission": 3627,
  "issue": 8532,
  "issues": 25764,
  "ist": 1338,
  "istamine": 20706,
  "istan": 14758,
  "istance": 9183,
  "istancing": 3598,
  "istant": 12158,
  "isted": 25032,
  "istence": 18846,
  "istential": 20276,
  "ister": 3888,
  "isthe": 25031,
  "istic": 7080,
  "istics": 8351,
  "istle": 23735,
  "istor": 10246,
  "istory": 6881,
  "istos": 14278,
  "istr": 15929,
  "istration": 5172,
  "istrative": 13710,
  "istribution": 12933,
  "istro": 25030,
  "istry": 4601,
  "ists": 6035,
  "istur": 7842,
  "isture": 22092,
  "isturizer": 9564,
  "istáĢĢ": 29065,
  "istáĢĲ": 28152,
  "istáĢľ": 28153,
  "isáĢĢ": 11354,
  "isáĢĻ": 22005,
  "it": 765,
  "itOut": 27977,
  "ita": 5282,
  "itable": 21980,
  "itage": 5693,
  "ital": 2047,
  "itam": 15480,
  "itamet": 21329,
  "itamin": 6856,
  "itan": 6878,
  "itar": 19787,
  "itarian": 8051,
  "itarianism": 29436,
  "itary": 13537,
  "itas": 21979,
  "itation": 7891,
  "itations": 20184,
  "itaw": 28881,
  "itch": 5461,
  "itchen": 13891,
  "ite": 1811,
  "itect": 27126,
  "itecture": 16535,
  "ited": 2518,
  "itel": 21506,
  "item": 19412,
  "iter": 3693,
  "iteracy": 7123,
  "iterary": 25170,
  "iterature": 16892,
  "iterrane": 26651,
  "ites": 6477,
  "iteáĢĢ": 30222,
  "ith": 2660,
  "ithe": 25593,
  "ither": 17312,
  "itheridge": 22330,
  "ithm": 17695,
  "itht": 11080,
  "ithtoolwin": 13212,
  "itháĢĢ": 23249,
  "iti": 1968,
  "itiative": 6059,
  "itic": 9261,
  "itical": 3232,
  "itics": 7068,
  "ities": 2925,
  "itim": 13722,
  "itimacy": 16011,
  "itime": 14445,
  "iting": 6179,
  "ition": 2915,
  "itional": 7554,
  "itis": 8624,
  "itiv": 12505,
  "itive": 8925,
  "itivity": 21322,
  "itiz": 4602,
  "itizen": 5997,
  "itizens": 14805,
  "itizer": 14804,
  "itness": 5448,
  "ito": 10997,
  "itol": 23610,
  "iton": 27976,
  "itor": 3595,
  "itorial": 14623,
  "itoring": 11205,
  "itors": 19585,
  "itr": 12573,
  "itrate": 24884,
  "itre": 29924,
  "itric": 20621,
  "itrogen": 23054,
  "its": 3248,
  "itt": 2997,
  "itten": 14617,
  "ittest": 25837,
  "itting": 25132,
  "ittle": 8134,
  "ituation": 12042,
  "itude": 24885,
  "iture": 16305,
  "ity": 1108,
  "ityand": 13967,
  "itz": 7435,
  "itzWer": 29418,
  "itáĢĢ": 10585,
  "iu": 26941,
  "ium": 2202,
  "ius": 6194,
  "iuseppe": 29379,
  "iv": 1763,
  "ival": 10001,
  "ivan": 23769,
  "ive": 2175,
  "ived": 16371,
  "iveness": 20930,
  "iver": 1570,
  "ivers": 1799,
  "iversary": 20303,
  "iverse": 6445,
  "iversity": 1930,
  "ivery": 5452,
  "ives": 4141,
  "ivid": 7772,
  "ividual": 9253,
  "ivil": 3917,
  "iving": 4966,
  "ivir": 7578,
  "ivision": 17660,
  "ivor": 23770,
  "iw": 13098,
  "ix": 3068,
  "ixed": 8494,
  "ixel": 8874,
  "ixels": 22719,
  "ixon": 24493,
  "ixture": 21692,
  "iy": 8722,
  "iz": 1510,
  "iza": 22112,
  "ization": 2286,
  "izational": 25051,
  "izationáĢĢ": 25807,
  "ize": 5562,
  "ized": 5730,
  "izer": 4114,
  "izers": 23752,
  "izeráĢĢ": 10795,
  "izing": 17650,
  "izo": 24395,
  "izon": 27305,
  "izu": 30160,
  "izz": 3547,
  "izza": 19944,
  "izzim": 9829,
  "izzima": 4171,
  "iáĢĢ": 3175,
  "iáĢĲ": 6262,
  "iáĢĶ": 19002,
  "iáĢĻ": 29689,
  "j": 78,
  "ja": 11903,
  "jak": 28694,
  "jamin": 15025,
  "jan": 24116,
  "jasan": 26157,
  "jay": 20071,
  "jaya": 24118,
  "jazeera": 26943,
  "je": 26942,
  "jec": 19313,
  "ject": 2048,
  "jection": 10754,
  "jective": 18716,
  "jet": 13496,
  "ji": 10146,
  "jiang": 9621,
  "jit": 25428,
  "jo": 20931,
  "job": 18715,
  "jof": 28693,
  "journal": 21874,
  "joy": 28695,
  "jp": 9159,
  "jpg": 9777,
  "ju": 12433,
  "jud": 24117,
  "jun": 26156,
  "jung": 29690,
  "jur": 15196,
  "jurul": 21326,
  "jury": 25429,
  "just": 17508,
  "k": 79,
  "kV": 14844,
  "ka": 6466,
  "kal": 13099,
  "kan": 26944,
  "kar": 13368,
  "ke": 4818,
  "keep": 18907,
  "keeping": 29562,
  "kei": 9204,
  "kel": 11413,
  "keley": 17764,
  "ken": 8886,
  "ker": 10824,
  "key": 12112,
  "keáĢĢ": 27496,
  "kg": 12544,
  "kh": 7641,
  "kha": 19004,
  "ki": 5719,
  "kid": 26158,
  "kill": 3004,
  "kin": 5960,
  "king": 7288,
  "kins": 8144,
  "kit": 14668,
  "kking": 10755,
  "km": 15406,
  "kn": 12869,
  "know": 16032,
  "known": 19276,
  "ko": 13367,
  "koa": 27780,
  "kok": 5720,
  "kokpost": 23939,
  "kong": 7428,
  "kor": 24119,
  "kov": 16477,
  "ks": 9296,
  "ku": 28696,
  "ky": 2522,
  "kyung": 23825,
  "káĢĢ": 12992,
  "l": 80,
  "la": 3391,
  "lab": 14669,
  "lad": 7534,
  "ladesh": 13345,
  "lah": 24120,
  "laing": 6337,
  "lam": 4444,
  "laming": 20400,
  "lamyine": 22759,
  "lan": 1713,
  "land": 2744,
  "landPost": 22178,
  "lands": 13188,
  "landáĢĢ": 24478,
  "lang": 27782,
  "lantic": 16842,
  "lar": 6871,
  "laration": 8453,
  "las": 11054,
  "lass": 21385,
  "late": 17225,
  "latest": 15198,
  "lation": 16699,
  "lator": 12113,
  "laus": 22737,
  "lav": 8268,
  "law": 10025,
  "lay": 9722,
  "laáĢĢ": 29694,
  "ld": 1679,
  "lders": 16596,
  "le": 892,
  "leader": 27187,
  "lean": 11544,
  "lear": 6624,
  "learning": 21284,
  "lec": 9806,
  "lect": 2928,
  "lection": 4829,
  "lective": 16201,
  "lectual": 12951,
  "led": 3505,
  "ledge": 4926,
  "lee": 25647,
  "leep": 9495,
  "leg": 8393,
  "lege": 3518,
  "lei": 23660,
  "leic": 17040,
  "lem": 22542,
  "lement": 7133,
  "len": 16962,
  "ler": 4951,
  "lerk": 25915,
  "leráĢĢ": 17510,
  "les": 2658,
  "less": 6784,
  "let": 3974,
  "lets": 21094,
  "lett": 18004,
  "letter": 23894,
  "leus": 22543,
  "lev": 20223,
  "level": 10171,
  "leven": 1689,
  "lex": 3972,
  "ley": 3452,
  "leyball": 26636,
  "leyáĢĢ": 13601,
  "leáĢĢ": 15903,
  "li": 3019,
  "lia": 21384,
  "liament": 9103,
  "liance": 5066,
  "liang": 28328,
  "lib": 28697,
  "lic": 1701,
  "lica": 29108,
  "lication": 3318,
  "lications": 16841,
  "lick": 7696,
  "lict": 7448,
  "licts": 30196,
  "lider": 27784,
  "lie": 8460,
  "lied": 11874,
  "lif": 22386,
  "life": 8753,
  "light": 7846,
  "lik": 18373,
  "like": 15197,
  "lim": 8189,
  "limited": 27783,
  "lin": 5868,
  "line": 2017,
  "lines": 5980,
  "ling": 5979,
  "link": 14518,
  "liot": 23261,
  "lis": 9160,
  "lish": 3491,
  "lished": 11892,
  "lishing": 21235,
  "list": 6577,
  "lit": 17800,
  "lite": 22387,
  "liv": 29692,
  "live": 29693,
  "ll": 6076,
  "lo": 6807,
  "load": 5146,
  "lob": 1995,
  "lobal": 2111,
  "lock": 8376,
  "lockdown": 23471,
  "log": 2444,
  "logy": 16866,
  "lon": 12761,
  "long": 10268,
  "look": 12993,
  "lop": 17509,
  "lor": 4288,
  "lord": 25430,
  "los": 12434,
  "losan": 21817,
  "lot": 18087,
  "lov": 26945,
  "low": 22385,
  "loyd": 28698,
  "ls": 24747,
  "ltd": 22911,
  "lu": 11322,
  "luck": 25431,
  "lum": 29691,
  "lwin": 24121,
  "ly": 1722,
  "lycer": 21624,
  "lyn": 22648,
  "lywood": 17947,
  "láĢĢ": 27781,
  "m": 81,
  "mAh": 11516,
  "ma": 1612,
  "machine": 29701,
  "mad": 7677,
  "made": 19707,
  "mag": 25432,
  "mah": 20726,
  "mai": 30177,
  "mail": 3686,
  "main": 25434,
  "maj": 25758,
  "mak": 29696,
  "make": 29698,
  "maker": 17511,
  "making": 24123,
  "mal": 19314,
  "mall": 7823,
  "mallow": 21288,
  "man": 2291,
  "management": 17110,
  "manager": 30274,
  "mand": 14049,
  "manent": 15750,
  "mann": 10900,
  "mans": 16243,
  "manuel": 13730,
  "many": 27381,
  "manáĢĢ": 9824,
  "map": 13926,
  "mar": 950,
  "mark": 3939,
  "market": 6167,
  "marketing": 25889,
  "marque": 22553,
  "mart": 2943,
  "mary": 6204,
  "maráĢĢ": 28065,
  "mas": 12870,
  "mask": 15407,
  "master": 21876,
  "mat": 19706,
  "matic": 14765,
  "mative": 30178,
  "matter": 26161,
  "may": 27785,
  "maz": 5848,
  "maáĢĢ": 11761,
  "mb": 14048,
  "mc": 26159,
  "mdn": 24748,
  "me": 2441,
  "meal": 20768,
  "med": 4749,
  "media": 6313,
  "mediate": 11887,
  "meeting": 20341,
  "men": 9575,
  "ment": 1166,
  "mented": 21576,
  "ments": 25000,
  "mer": 2134,
  "merase": 26554,
  "merce": 5300,
  "mercial": 14947,
  "merg": 6743,
  "meric": 3432,
  "mers": 26947,
  "mes": 12114,
  "mess": 18374,
  "met": 9462,
  "meter": 29700,
  "method": 24122,
  "mg": 9113,
  "mh": 29695,
  "mi": 13227,
  "midt": 10026,
  "mil": 26946,
  "military": 20072,
  "mill": 21875,
  "million": 27787,
  "min": 2652,
  "minal": 7310,
  "mind": 16963,
  "mine": 25433,
  "ming": 5387,
  "mini": 17120,
  "minster": 22174,
  "mir": 9723,
  "miral": 18655,
  "mirror": 20009,
  "miss": 26160,
  "mission": 5529,
  "mit": 2408,
  "mith": 7280,
  "mitháĢĢ": 26577,
  "mitment": 17115,
  "mitry": 30287,
  "mitt": 5682,
  "mittee": 6594,
  "mittent": 29368,
  "mitter": 21667,
  "mium": 15612,
  "mizzim": 10636,
  "mizzimab": 12422,
  "mizzimaburmese": 28534,
  "mizzimaburmesecom": 15176,
  "ml": 2813,
  "mm": 2918,
  "mmcybermedia": 11655,
  "mo": 10269,
  "mobile": 29699,
  "mod": 11055,
  "mode": 26949,
  "modium": 29702,
  "moemaka": 4184,
  "moh": 26948,
  "mon": 5981,
  "monary": 21757,
  "mond": 9576,
  "monella": 20843,
  "money": 26950,
  "mont": 28699,
  "month": 29377,
  "mor": 16478,
  "more": 8104,
  "mosphere": 28700,
  "most": 27786,
  "mouth": 19005,
  "mp": 11805,
  "ms": 12215,
  "mu": 18717,
  "mul": 23472,
  "mun": 5147,
  "mund": 29697,
  "munication": 8666,
  "munications": 15355,
  "munity": 4339,
  "music": 18088,
  "my": 2792,
  "myanmar": 5841,
  "myanmarlatest": 15783,
  "myanmarlatestnews": 16674,
  "n": 82,
  "nCoV": 8971,
  "nCoVáĢĢ": 29451,
  "na": 5125,
  "nail": 28703,
  "nak": 24750,
  "nal": 2456,
  "nam": 6116,
  "name": 20520,
  "nan": 12643,
  "nar": 25435,
  "nas": 23473,
  "nation": 28701,
  "national": 10637,
  "nav": 28704,
  "nb": 24749,
  "nd": 7509,
  "ne": 1745,
  "nect": 18375,
  "ned": 28702,
  "need": 30203,
  "ner": 2422,
  "nergy": 7398,
  "ners": 10210,
  "nership": 4839,
  "neráĢĢ": 11572,
  "nes": 7642,
  "nesium": 17175,
  "ness": 3304,
  "nest": 6043,
  "nesty": 6962,
  "nestyáĢĢ": 30519,
  "net": 5632,
  "network": 18718,
  "neum": 15306,
  "neumonia": 18961,
  "new": 12435,
  "news": 3786,
  "newsasia": 20808,
  "newsmyanmar": 20807,
  "ney": 5709,
  "ng": 7098,
  "ni": 5684,
  "nia": 15613,
  "nian": 27788,
  "nic": 5647,
  "nie": 26162,
  "night": 16700,
  "nik": 10270,
  "nin": 26952,
  "ning": 2483,
  "nitive": 27529,
  "nitoring": 24125,
  "nity": 26954,
  "nization": 27789,
  "nn": 26951,
  "no": 8232,
  "nom": 26953,
  "non": 29704,
  "normal": 17226,
  "north": 24124,
  "not": 8800,
  "note": 21877,
  "now": 3429,
  "nowledge": 5104,
  "ns": 19315,
  "nt": 13228,
  "nu": 29703,
  "number": 26955,
  "nut": 17801,
  "ny": 7479,
  "nyeinchanaye": 20073,
  "o": 83,
  "oD": 16964,
  "oS": 27790,
  "oT": 16479,
  "oV": 17512,
  "oa": 10147,
  "oad": 2564,
  "oam": 8723,
  "oan": 4332,
  "oanews": 21249,
  "oard": 3551,
  "oat": 8145,
  "oate": 28705,
  "oating": 16244,
  "ob": 1367,
  "oba": 26479,
  "obac": 10521,
  "obacco": 12972,
  "obacter": 19866,
  "obank": 22618,
  "obao": 25731,
  "obby": 14584,
  "obe": 15932,
  "ober": 10794,
  "obia": 7770,
  "obic": 19865,
  "obil": 9437,
  "obile": 2618,
  "obilization": 20441,
  "obium": 21602,
  "obl": 27285,
  "obs": 11471,
  "oby": 15523,
  "oc": 1076,
  "oca": 10175,
  "ocacy": 14123,
  "ocal": 4251,
  "ocarp": 27242,
  "ocate": 27241,
  "ocation": 9875,
  "occ": 9234,
  "ocent": 16337,
  "och": 5746,
  "ocha": 22065,
  "oche": 18225,
  "ochemistry": 19471,
  "oci": 2355,
  "ocial": 1984,
  "ociation": 3388,
  "ocide": 4797,
  "ociety": 3750,
  "ock": 1639,
  "ockdown": 2295,
  "ocking": 20295,
  "ockingbird": 26855,
  "ockpit": 27321,
  "ocl": 13421,
  "ocle": 27240,
  "ocleidomastoid": 28613,
  "oclonal": 21823,
  "oclonalAntibody": 25358,
  "oco": 22063,
  "ococc": 14574,
  "ococcus": 23392,
  "ocol": 6718,
  "ocolate": 27552,
  "ocom": 22064,
  "ocon": 12484,
  "oconut": 28536,
  "ocr": 3453,
  "ocra": 5642,
  "ocracy": 3782,
  "ocratic": 6225,
  "ocredit": 11281,
  "ocus": 4768,
  "ocust": 13988,
  "ocyan": 15284,
  "ocyt": 20249,
  "od": 1329,
  "oda": 8127,
  "oday": 5790,
  "odd": 15718,
  "ode": 2622,
  "oderma": 22091,
  "odge": 26475,
  "odi": 27282,
  "odia": 13431,
  "odine": 24369,
  "oding": 25029,
  "odium": 8441,
  "odiversity": 17932,
  "odo": 15719,
  "odor": 11964,
  "odore": 21149,
  "odoroki": 16451,
  "odrome": 15096,
  "ods": 29063,
  "ody": 3561,
  "oe": 3086,
  "oeing": 8294,
  "oek": 17990,
  "oem": 3324,
  "oemaka": 3976,
  "oen": 7558,
  "oenix": 14331,
  "oenáĢĢ": 19316,
  "oes": 17513,
  "of": 1031,
  "ofB": 17052,
  "ofBurma": 14262,
  "ofCon": 15084,
  "ofConduct": 17197,
  "ofD": 22573,
  "ofDoingBusiness": 17627,
  "ofIndia": 19468,
  "ofInterest": 30059,
  "ofL": 16109,
  "ofLaw": 13847,
  "ofM": 12150,
  "ofMyanmar": 10783,
  "ofP": 27230,
  "ofSciences": 27231,
  "ofTh": 30058,
  "ofa": 29002,
  "off": 3928,
  "offee": 6060,
  "office": 21243,
  "official": 22751,
  "ofi": 26425,
  "ofil": 26426,
  "oflav": 13417,
  "oflavin": 19662,
  "ofs": 24981,
  "oft": 2547,
  "ofth": 24982,
  "ofthe": 4398,
  "oftheYear": 26672,
  "oftware": 8536,
  "og": 1314,
  "oga": 14275,
  "ogan": 29060,
  "ogen": 8530,
  "ogenic": 17462,
  "ogether": 6147,
  "ogl": 27278,
  "oglob": 16820,
  "oglobulin": 26837,
  "oglu": 17364,
  "ogn": 13302,
  "ognition": 20025,
  "ognitive": 29061,
  "ogram": 15927,
  "ograph": 4816,
  "ographer": 25199,
  "ographic": 10808,
  "ographical": 26682,
  "ography": 7065,
  "ogue": 4705,
  "ogy": 12492,
  "oh": 1985,
  "ohe": 12545,
  "ohei": 14830,
  "ohing": 7256,
  "ohingya": 7817,
  "ohn": 2993,
  "ohol": 12506,
  "ohyd": 19532,
  "ohydrate": 22333,
  "oi": 6077,
  "oice": 1873,
  "oid": 4734,
  "oids": 9015,
  "oil": 4161,
  "oilet": 17431,
  "oin": 18089,
  "oint": 2507,
  "ointment": 20772,
  "oir": 12115,
  "ois": 8507,
  "oise": 21386,
  "oit": 10211,
  "oitte": 12307,
  "oj": 5211,
  "oji": 10395,
  "ojie": 29346,
  "ojo": 9835,
  "ok": 1909,
  "oka": 19898,
  "oke": 6294,
  "oker": 16853,
  "okh": 15314,
  "oki": 12504,
  "okia": 7990,
  "oking": 20744,
  "oko": 12947,
  "oku": 19179,
  "ol": 956,
  "ola": 6859,
  "olan": 17044,
  "oland": 19823,
  "olar": 3838,
  "olarship": 7317,
  "olas": 12259,
  "olate": 12477,
  "olated": 28068,
  "olation": 8394,
  "old": 1899,
  "older": 20311,
  "olds": 25777,
  "ole": 3618,
  "olec": 20385,
  "oleic": 29276,
  "oleon": 27446,
  "oler": 10102,
  "olerance": 15168,
  "olerant": 28508,
  "oles": 9646,
  "olesale": 13211,
  "olester": 19454,
  "olesterol": 20884,
  "oley": 18090,
  "olf": 7689,
  "oli": 12695,
  "olia": 16328,
  "olic": 7720,
  "olid": 28973,
  "olin": 20237,
  "oline": 12582,
  "olk": 7984,
  "olkata": 25255,
  "oll": 2300,
  "olland": 9708,
  "ollar": 14951,
  "ollipop": 30276,
  "ollo": 14784,
  "ollow": 5681,
  "ollower": 7866,
  "ollusc": 27384,
  "ollution": 13591,
  "oln": 20658,
  "olo": 13698,
  "olog": 2046,
  "ological": 5890,
  "ologies": 13175,
  "ologist": 14446,
  "ologists": 26548,
  "ology": 2325,
  "ologyand": 29143,
  "olor": 21547,
  "ols": 16106,
  "olt": 11455,
  "olu": 28067,
  "olution": 3499,
  "olving": 23678,
  "oly": 24962,
  "oláĢĢ": 8121,
  "om": 823,
  "oma": 3040,
  "omacy": 11353,
  "omain": 8164,
  "oman": 5743,
  "omas": 6717,
  "omat": 21070,
  "omatic": 6486,
  "omb": 6404,
  "ome": 1699,
  "omen": 4488,
  "omenon": 28409,
  "omens": 10717,
  "oment": 13278,
  "omes": 28010,
  "omet": 8571,
  "ometer": 9372,
  "omething": 17323,
  "ometric": 11504,
  "omi": 9695,
  "omiasis": 18190,
  "omiasisáĢĽ": 26847,
  "omic": 13277,
  "omin": 17878,
  "omm": 9743,
  "omnia": 23635,
  "omo": 6698,
  "omon": 11452,
  "omonas": 20866,
  "omoney": 24916,
  "omotive": 21285,
  "omp": 12912,
  "oms": 11264,
  "omy": 12684,
  "omyl": 23634,
  "on": 603,
  "onYear": 24216,
  "ona": 5675,
  "onal": 3133,
  "onald": 6646,
  "onavirus": 2775,
  "onb": 23006,
  "onciliation": 10844,
  "ond": 2088,
  "onda": 7161,
  "onder": 10529,
  "onding": 22152,
  "ondition": 15540,
  "ondon": 6191,
  "one": 1508,
  "onel": 13255,
  "onely": 27067,
  "ones": 4894,
  "onesia": 12737,
  "oney": 3373,
  "oneáĢĢ": 14589,
  "ong": 1544,
  "ongk": 14282,
  "ongkorn": 26034,
  "ongo": 20719,
  "ongs": 13998,
  "ongáĢĢ": 7193,
  "onh": 15644,
  "onhap": 24658,
  "oni": 19749,
  "onia": 10039,
  "onial": 23564,
  "onic": 5663,
  "onin": 9534,
  "oning": 16996,
  "onium": 28820,
  "onization": 26264,
  "online": 14877,
  "only": 23007,
  "onment": 4167,
  "onn": 10654,
  "onne": 28819,
  "ono": 16746,
  "onom": 4092,
  "onomous": 13076,
  "onomy": 6359,
  "onor": 29835,
  "ons": 2415,
  "onse": 8603,
  "onsor": 11201,
  "onsored": 29189,
  "onstruction": 26265,
  "ont": 2103,
  "ontal": 13727,
  "onthe": 14297,
  "onto": 30251,
  "ontrol": 19907,
  "onuc": 29836,
  "onus": 18144,
  "ony": 4139,
  "onym": 21010,
  "onymous": 25355,
  "onáĢĢ": 5168,
  "oo": 913,
  "ood": 1707,
  "oof": 15692,
  "oogle": 2369,
  "ook": 1098,
  "ookiat": 21119,
  "ookmin": 24997,
  "ool": 2078,
  "ools": 17674,
  "oolwin": 12825,
  "oom": 3024,
  "oon": 2860,
  "oonáĢĢ": 19567,
  "oop": 12800,
  "ooper": 9700,
  "ooperation": 4500,
  "oor": 4564,
  "oos": 10504,
  "oose": 18486,
  "oosevelt": 16668,
  "oost": 9181,
  "oot": 4608,
  "ooth": 6203,
  "ooting": 15985,
  "ooáĢĢ": 22545,
  "op": 1129,
  "opal": 29018,
  "opamine": 14749,
  "opath": 29021,
  "ope": 5189,
  "open": 23139,
  "oper": 21573,
  "operation": 29022,
  "opes": 21121,
  "opez": 30487,
  "oph": 3406,
  "ophan": 27439,
  "opharm": 19211,
  "opharynge": 24507,
  "opharyngeal": 26871,
  "ophen": 19938,
  "opher": 11182,
  "ophobia": 11300,
  "ophyll": 15972,
  "opia": 29020,
  "opic": 29019,
  "opl": 13562,
  "oplasm": 26028,
  "ople": 3560,
  "oples": 6056,
  "opo": 27245,
  "opol": 11748,
  "opolitan": 24001,
  "oport": 30082,
  "opper": 8435,
  "opping": 9049,
  "opro": 23702,
  "ops": 9876,
  "opsy": 23140,
  "opter": 10107,
  "optera": 23360,
  "opy": 5487,
  "oqu": 13100,
  "oquine": 18674,
  "or": 691,
  "ora": 6966,
  "orage": 7717,
  "orail": 21485,
  "oral": 6855,
  "oram": 15655,
  "orama": 21957,
  "oration": 6538,
  "oratory": 12353,
  "ord": 1756,
  "ordan": 27335,
  "order": 4312,
  "ordin": 30206,
  "ordon": 23768,
  "ore": 1685,
  "orea": 4838,
  "ored": 4387,
  "oredoo": 5017,
  "oreign": 10384,
  "orer": 9315,
  "ores": 15475,
  "oresc": 24864,
  "orescens": 28607,
  "oreáĢĢ": 23195,
  "orff": 26299,
  "org": 2179,
  "organ": 5564,
  "organic": 22778,
  "organism": 24570,
  "orge": 4922,
  "orges": 23227,
  "orgh": 28264,
  "orghum": 27366,
  "ori": 12677,
  "orial": 7334,
  "oride": 26298,
  "ories": 7434,
  "original": 23586,
  "orities": 27946,
  "ority": 4388,
  "ork": 1580,
  "orld": 1832,
  "orm": 1560,
  "ormal": 3568,
  "orman": 24397,
  "ormone": 22117,
  "orn": 3222,
  "ornia": 10065,
  "ornáĢĢ": 16885,
  "oro": 18442,
  "oron": 29884,
  "orough": 29885,
  "orp": 17301,
  "orph": 11343,
  "orphins": 18667,
  "orrow": 3327,
  "orry": 16758,
  "ors": 3985,
  "orse": 21486,
  "ort": 1390,
  "ortex": 13576,
  "orth": 4373,
  "ortion": 23585,
  "ortium": 8688,
  "orture": 19867,
  "ory": 2137,
  "oráĢĢ": 12136,
  "oráĢĲ": 27107,
  "os": 1223,
  "osa": 9995,
  "osan": 25018,
  "osayarwon": 28141,
  "osc": 8527,
  "oscope": 22806,
  "oscow": 16659,
  "ose": 3362,
  "osed": 19151,
  "oser": 14920,
  "osh": 8126,
  "oshi": 11094,
  "osi": 2435,
  "osin": 26461,
  "osis": 5801,
  "osit": 9808,
  "osite": 19487,
  "osition": 6357,
  "ositive": 2665,
  "oslav": 21138,
  "osm": 19486,
  "oson": 30099,
  "osoph": 10108,
  "osophy": 11036,
  "osp": 4351,
  "ospace": 28402,
  "osph": 5578,
  "osphate": 17445,
  "osphere": 16417,
  "osphor": 8959,
  "osphorous": 25983,
  "osphorus": 11310,
  "ospital": 4983,
  "ospor": 17636,
  "oss": 4001,
  "ossain": 25892,
  "ossier": 23896,
  "ost": 1650,
  "oster": 10325,
  "osterone": 13624,
  "oston": 14931,
  "ostridium": 30187,
  "osun": 26462,
  "osystem": 11961,
  "osáĢĢ": 19853,
  "ot": 1060,
  "ota": 3668,
  "otainment": 27239,
  "otal": 7341,
  "otation": 25698,
  "otaáĢĢ": 24347,
  "ote": 2607,
  "otech": 15512,
  "otechnology": 15514,
  "otel": 2178,
  "oten": 14573,
  "otene": 10930,
  "oter": 19006,
  "otes": 30069,
  "oth": 3840,
  "othariáĢĢ": 22748,
  "othe": 7359,
  "other": 4164,
  "otherapy": 12734,
  "others": 17716,
  "othing": 13074,
  "othutaw": 13335,
  "oti": 5767,
  "otic": 12871,
  "otient": 13893,
  "otin": 24990,
  "otine": 16809,
  "oting": 8995,
  "otion": 3550,
  "otism": 17228,
  "oto": 2344,
  "otonin": 17348,
  "otor": 13159,
  "otos": 5465,
  "otourism": 23696,
  "otroph": 24348,
  "ots": 6900,
  "ott": 4308,
  "otting": 25192,
  "ottle": 27473,
  "ottom": 10463,
  "otton": 12151,
  "otype": 15513,
  "ou": 916,
  "oub": 17042,
  "ouble": 6122,
  "ouc": 28965,
  "ouch": 5522,
  "oud": 4152,
  "oug": 5679,
  "ouge": 23666,
  "ough": 9837,
  "ought": 11890,
  "ouk": 14739,
  "oul": 5798,
  "ould": 7154,
  "oum": 30027,
  "oun": 1413,
  "ounc": 29075,
  "ounce": 30133,
  "ound": 2113,
  "oundation": 2848,
  "ounder": 7729,
  "ounds": 22157,
  "oung": 6188,
  "ounge": 27290,
  "ouns": 25041,
  "ounsaturated": 23168,
  "ount": 2062,
  "ountain": 17956,
  "ountry": 3940,
  "oup": 16326,
  "our": 1318,
  "ourEarth": 18524,
  "oura": 24951,
  "ourable": 26873,
  "ourage": 16584,
  "ourc": 17641,
  "ource": 2896,
  "ources": 5171,
  "ourcing": 26054,
  "ourg": 16821,
  "ouri": 25654,
  "ourism": 9051,
  "ourite": 25727,
  "ournal": 2582,
  "ours": 6187,
  "ourse": 6012,
  "ourself": 17452,
  "ourses": 25937,
  "ourt": 4321,
  "ous": 2495,
  "ousand": 21207,
  "ouse": 2640,
  "ousecom": 12725,
  "ouses": 25110,
  "ousing": 8956,
  "ouss": 22546,
  "ousse": 30292,
  "out": 2549,
  "outer": 24323,
  "outh": 2637,
  "outi": 28058,
  "outube": 6037,
  "ouver": 30028,
  "ov": 1461,
  "ova": 9054,
  "ovac": 13049,
  "ovago": 17371,
  "oval": 25740,
  "ovann": 23176,
  "ovation": 5561,
  "ove": 3621,
  "ovel": 30146,
  "ovement": 6023,
  "oven": 17648,
  "over": 1717,
  "overe": 22127,
  "overeign": 23420,
  "overment": 24414,
  "overn": 2095,
  "overnance": 5587,
  "overnment": 2308,
  "overty": 12818,
  "overy": 9281,
  "ovic": 25741,
  "ovich": 29083,
  "ovid": 2186,
  "ovie": 9756,
  "ovirus": 30147,
  "ovmm": 20286,
  "ováĢĢ": 27299,
  "ow": 979,
  "owa": 22557,
  "owder": 22558,
  "oween": 21103,
  "owel": 21551,
  "ower": 1850,
  "owers": 9277,
  "owitz": 28075,
  "owment": 20661,
  "own": 1681,
  "ows": 6354,
  "owski": 21281,
  "owáĢĢ": 27207,
  "ox": 1870,
  "oxer": 30231,
  "oxiang": 12945,
  "oxic": 15742,
  "oxid": 6630,
  "oxidant": 9454,
  "oxidants": 15569,
  "oxide": 8489,
  "oxin": 7580,
  "oxins": 25775,
  "oxy": 18260,
  "oy": 1935,
  "oya": 18262,
  "oyal": 3183,
  "oyalty": 23858,
  "oyarlay": 19529,
  "oyce": 10527,
  "oyd": 14444,
  "oz": 9406,
  "oáĢĢ": 3837,
  "oáĢĲ": 17227,
  "oáĢĶ": 25436,
  "oáĢĻ": 24751,
  "oáĢŁ": 29705,
  "p": 84,
  "pH": 14845,
  "pa": 14050,
  "pack": 22913,
  "pact": 6044,
  "pad": 18719,
  "pag": 26957,
  "page": 12116,
  "pages": 27792,
  "pai": 20075,
  "paid": 27791,
  "pal": 22912,
  "pale": 26164,
  "pan": 10825,
  "panel": 26790,
  "pap": 20074,
  "paper": 9022,
  "papers": 26061,
  "par": 3723,
  "paration": 27451,
  "pared": 16893,
  "paredness": 18966,
  "parency": 6377,
  "parent": 23886,
  "parents": 20805,
  "part": 12994,
  "party": 28539,
  "pass": 12022,
  "past": 29706,
  "pat": 15199,
  "pathy": 22914,
  "pay": 14670,
  "payment": 27640,
  "pe": 1943,
  "peac": 26539,
  "peace": 13314,
  "peak": 29135,
  "pean": 7936,
  "peare": 23209,
  "pect": 7510,
  "pel": 19007,
  "pen": 17514,
  "people": 12171,
  "per": 1747,
  "peration": 3440,
  "perature": 15110,
  "peria": 16370,
  "perial": 8021,
  "perience": 18544,
  "period": 22129,
  "perm": 15307,
  "peror": 14768,
  "pers": 25438,
  "person": 11323,
  "personal": 18091,
  "pert": 14289,
  "perty": 5525,
  "pes": 25437,
  "pet": 15408,
  "peti": 8444,
  "petition": 10748,
  "ph": 1676,
  "pha": 15305,
  "phal": 14136,
  "phaly": 22125,
  "phan": 26514,
  "phant": 17381,
  "phase": 23194,
  "phen": 30193,
  "phenol": 13442,
  "phere": 20733,
  "phin": 26516,
  "phon": 26515,
  "phone": 11018,
  "phos": 13585,
  "phosate": 14491,
  "phot": 14137,
  "photo": 6992,
  "photocredit": 18346,
  "photos": 23763,
  "php": 8403,
  "phy": 19887,
  "phys": 30194,
  "phyáĢĢ": 30195,
  "pi": 9205,
  "pillar": 23476,
  "pin": 26956,
  "ping": 3720,
  "pir": 6785,
  "piration": 16650,
  "piratory": 16425,
  "pire": 24127,
  "pired": 21789,
  "pirin": 22788,
  "pit": 21387,
  "pl": 2524,
  "plac": 13185,
  "place": 11871,
  "placed": 20876,
  "plain": 16868,
  "plaint": 21671,
  "plan": 8461,
  "planet": 21783,
  "plant": 9610,
  "plants": 21208,
  "plasia": 30296,
  "plate": 25822,
  "play": 7089,
  "ple": 3286,
  "plement": 8026,
  "plete": 19208,
  "plex": 7505,
  "plic": 28706,
  "plier": 19919,
  "plorer": 12516,
  "ploy": 8362,
  "ployment": 11121,
  "plus": 14302,
  "ply": 4582,
  "pm": 8413,
  "po": 4909,
  "poem": 24128,
  "point": 9916,
  "pol": 6934,
  "police": 22277,
  "policy": 28455,
  "political": 20849,
  "pond": 14519,
  "pong": 24126,
  "pons": 10347,
  "ponse": 15831,
  "ponsibility": 18658,
  "pool": 23474,
  "pop": 13639,
  "pophobia": 26958,
  "popular": 27628,
  "por": 2712,
  "porary": 15548,
  "porate": 8708,
  "poration": 3920,
  "porn": 14154,
  "port": 1764,
  "portal": 12942,
  "porter": 10886,
  "porters": 29211,
  "porteráĢĢ": 20356,
  "portional": 20774,
  "ports": 5477,
  "pos": 5549,
  "posal": 9108,
  "position": 20076,
  "positive": 20521,
  "posium": 23932,
  "poss": 16480,
  "possible": 24036,
  "post": 5685,
  "posure": 14473,
  "pot": 12546,
  "power": 7785,
  "pp": 1539,
  "pper": 13997,
  "pping": 15302,
  "ppm": 12712,
  "pr": 1979,
  "pre": 12021,
  "preneur": 6612,
  "pres": 11198,
  "president": 23370,
  "press": 3204,
  "pression": 8792,
  "pressure": 25144,
  "pri": 26163,
  "pril": 9102,
  "print": 18565,
  "pris": 9443,
  "prise": 6190,
  "prises": 14484,
  "prisonment": 21792,
  "pro": 3517,
  "process": 14622,
  "production": 23879,
  "profit": 17138,
  "program": 15763,
  "project": 21709,
  "prom": 13056,
  "promise": 17194,
  "prot": 12833,
  "protected": 18344,
  "prov": 13193,
  "provement": 17770,
  "ps": 4293,
  "psych": 26670,
  "psychology": 29590,
  "pt": 3349,
  "ption": 7227,
  "ptocracy": 15341,
  "public": 17515,
  "pul": 19708,
  "pull": 26165,
  "pulse": 25349,
  "pur": 16245,
  "purpose": 23475,
  "put": 8508,
  "pute": 21388,
  "py": 8972,
  "pyid": 24611,
  "pyidaw": 26872,
  "q": 85,
  "qP": 11135,
  "qa": 16965,
  "qi": 22388,
  "qiang": 16966,
  "qing": 21389,
  "qu": 1614,
  "quake": 19508,
  "quality": 16838,
  "quar": 19877,
  "quarantine": 24404,
  "quare": 5849,
  "quarter": 27317,
  "que": 4085,
  "quence": 15106,
  "quency": 16592,
  "quer": 17944,
  "ques": 11562,
  "quest": 10381,
  "quet": 23757,
  "queáĢĢ": 18898,
  "qui": 28192,
  "quid": 25061,
  "quila": 26510,
  "quir": 9889,
  "quire": 19878,
  "quiry": 12630,
  "quis": 16363,
  "quisition": 24662,
  "quito": 30179,
  "r": 86,
  "ra": 1177,
  "raZ": 9140,
  "raZenec": 9565,
  "rab": 3949,
  "rac": 14051,
  "rach": 28707,
  "rack": 21878,
  "ract": 5291,
  "raction": 26167,
  "racy": 27793,
  "rad": 9114,
  "rade": 20077,
  "rae": 27254,
  "rael": 16579,
  "raer": 25007,
  "raf": 14578,
  "raft": 7393,
  "rafting": 23342,
  "rag": 16481,
  "rah": 9050,
  "raham": 21580,
  "rahim": 14820,
  "raig": 21128,
  "rain": 2305,
  "raine": 18834,
  "raining": 3303,
  "rait": 19844,
  "rak": 3732,
  "rakan": 5145,
  "rake": 12411,
  "raking": 16894,
  "ral": 2801,
  "ram": 1820,
  "rama": 14771,
  "rame": 14938,
  "ramework": 12276,
  "ramid": 25771,
  "rammar": 15740,
  "ran": 4927,
  "ranational": 17155,
  "ranch": 23917,
  "rand": 3921,
  "rane": 15200,
  "raner": 15146,
  "rang": 8509,
  "range": 29707,
  "rangement": 10692,
  "rans": 20523,
  "rant": 6156,
  "rap": 7306,
  "raph": 3544,
  "rary": 5431,
  "ras": 10272,
  "rase": 18093,
  "rast": 26166,
  "rat": 10413,
  "rate": 3128,
  "rated": 13927,
  "ratio": 20260,
  "ration": 3251,
  "rative": 9095,
  "rator": 22915,
  "raulic": 26448,
  "rav": 8213,
  "rave": 21129,
  "ravel": 8821,
  "ravity": 18931,
  "raw": 2359,
  "rawaddy": 2600,
  "ray": 5882,
  "raz": 7159,
  "razil": 20431,
  "razy": 19633,
  "raáĢĢ": 20259,
  "rd": 7969,
  "re": 843,
  "rea": 4266,
  "reach": 22528,
  "read": 9986,
  "readlock": 25284,
  "reak": 6731,
  "real": 13281,
  "ream": 3405,
  "reas": 10443,
  "reat": 3134,
  "reation": 23645,
  "reativity": 10619,
  "reatment": 7869,
  "rec": 12577,
  "record": 28025,
  "rect": 16097,
  "rectness": 27654,
  "red": 1835,
  "redit": 2054,
  "ree": 2212,
  "reed": 3311,
  "reeding": 21232,
  "reedom": 3592,
  "reek": 17107,
  "reement": 3535,
  "reen": 2140,
  "rees": 17885,
  "reet": 3986,
  "ref": 4430,
  "reg": 5475,
  "region": 22777,
  "reh": 8427,
  "rehensive": 9839,
  "rel": 6723,
  "rella": 28709,
  "rem": 14904,
  "reme": 8322,
  "ren": 4055,
  "renaline": 26664,
  "rence": 16967,
  "rency": 11904,
  "rene": 28708,
  "rength": 21879,
  "rens": 25439,
  "rent": 8671,
  "report": 20212,
  "rept": 19810,
  "res": 3008,
  "resh": 20363,
  "resources": 29233,
  "respond": 19929,
  "ress": 2678,
  "ressed": 30309,
  "ression": 7961,
  "rest": 12023,
  "ret": 4291,
  "reta": 22231,
  "rete": 15070,
  "rew": 6406,
  "rey": 7686,
  "rez": 29989,
  "reáĢĢ": 14730,
  "rh": 11230,
  "ri": 1255,
  "ria": 9524,
  "riage": 13298,
  "rial": 4275,
  "rian": 11557,
  "riation": 24364,
  "rib": 3916,
  "ribe": 16177,
  "riber": 21590,
  "ribery": 28592,
  "ribusiness": 19589,
  "ribut": 28389,
  "ribute": 30412,
  "ribution": 7092,
  "ric": 2028,
  "rica": 22148,
  "rical": 12117,
  "rice": 12872,
  "rich": 8534,
  "rick": 7991,
  "rict": 11199,
  "ricultural": 7277,
  "riculture": 5375,
  "riculum": 8830,
  "rid": 3538,
  "ridge": 6338,
  "ridium": 26640,
  "ridor": 12410,
  "rie": 13571,
  "ried": 9436,
  "rief": 11095,
  "rien": 19156,
  "riend": 4393,
  "rier": 8529,
  "ries": 5847,
  "rif": 12156,
  "rification": 21316,
  "rift": 23725,
  "rig": 6514,
  "rigation": 14177,
  "right": 7824,
  "rights": 20933,
  "rik": 12268,
  "rike": 11855,
  "ril": 20522,
  "rill": 24752,
  "rim": 7376,
  "riminal": 18637,
  "rimination": 13761,
  "rin": 8414,
  "rinate": 25262,
  "rine": 15832,
  "ring": 10271,
  "rint": 18720,
  "riod": 18522,
  "rip": 4712,
  "rips": 30108,
  "ript": 15093,
  "ription": 15352,
  "ris": 3195,
  "rise": 22390,
  "rish": 10212,
  "rishna": 23362,
  "risis": 8366,
  "rison": 11657,
  "rist": 4819,
  "risti": 22725,
  "ristian": 7091,
  "rit": 9959,
  "rite": 22389,
  "riter": 11231,
  "riti": 5239,
  "ritic": 27271,
  "ritical": 5497,
  "riting": 16482,
  "ritis": 15714,
  "ritish": 5717,
  "ritten": 19317,
  "rium": 12489,
  "riv": 3098,
  "rivacy": 10192,
  "rival": 10614,
  "rivate": 3987,
  "rive": 7342,
  "river": 11368,
  "riving": 24496,
  "rix": 19155,
  "riáĢĢ": 21143,
  "ro": 853,
  "roach": 8477,
  "road": 7759,
  "rob": 15071,
  "roc": 14731,
  "rock": 8118,
  "rod": 28026,
  "rof": 17886,
  "rofen": 20476,
  "roft": 25630,
  "rog": 12916,
  "rogen": 6987,
  "roid": 4637,
  "roject": 24928,
  "roke": 9869,
  "rol": 2533,
  "role": 10303,
  "rolet": 13031,
  "roleum": 12421,
  "roll": 10683,
  "rolley": 26595,
  "roly": 19115,
  "rom": 2765,
  "romat": 29214,
  "rome": 10555,
  "romotion": 10191,
  "ron": 2903,
  "rong": 6133,
  "ronic": 4925,
  "ronics": 14157,
  "room": 4462,
  "root": 27169,
  "roots": 26365,
  "rop": 3173,
  "roph": 11270,
  "ropical": 11492,
  "ropol": 10536,
  "ropolitan": 13765,
  "ropping": 29992,
  "ror": 3281,
  "rorism": 8447,
  "ros": 6459,
  "rose": 13976,
  "ross": 4454,
  "rot": 8087,
  "rough": 9870,
  "round": 4307,
  "roup": 1598,
  "rous": 29990,
  "rov": 17331,
  "roval": 28931,
  "rove": 13975,
  "rovir": 29991,
  "row": 2170,
  "rowd": 30261,
  "rowing": 17959,
  "rown": 4832,
  "rowse": 13179,
  "rowser": 16383,
  "rowth": 6447,
  "royal": 29993,
  "rrawaddy": 4757,
  "rs": 13640,
  "rt": 26959,
  "ru": 4990,
  "ruRice": 20826,
  "ruary": 23316,
  "rub": 6689,
  "ruc": 2423,
  "ruck": 11299,
  "ruct": 10951,
  "ructose": 24632,
  "ructural": 17762,
  "ructure": 3352,
  "rug": 14846,
  "ruggle": 23394,
  "ruit": 14807,
  "rul": 19008,
  "rule": 22916,
  "rum": 9072,
  "rup": 4264,
  "rupt": 22228,
  "ruption": 4891,
  "rus": 19709,
  "rust": 20932,
  "ry": 1600,
  "rypt": 12072,
  "ryption": 17078,
  "ryst": 9383,
  "rystal": 10019,
  "ráĢĢ": 18092,
  "s": 87,
  "sa": 10756,
  "safety": 28711,
  "said": 26961,
  "sak": 28710,
  "san": 13497,
  "sand": 6808,
  "saturated": 15202,
  "say": 21391,
  "says": 20935,
  "saysay": 28589,
  "sb": 24753,
  "sberg": 17802,
  "sburg": 26963,
  "sc": 3524,
  "scape": 19942,
  "scar": 18599,
  "sch": 12436,
  "sche": 17417,
  "school": 14671,
  "schooling": 24020,
  "science": 18600,
  "scious": 19584,
  "screen": 9105,
  "scription": 29271,
  "sd": 9917,
  "sdorff": 28505,
  "se": 1548,
  "sea": 15940,
  "sean": 9707,
  "search": 21618,
  "sec": 11687,
  "second": 24637,
  "section": 25440,
  "seed": 11561,
  "seeing": 28183,
  "seen": 17077,
  "sein": 15104,
  "self": 21394,
  "sem": 26960,
  "sen": 12216,
  "sequ": 27308,
  "ser": 5305,
  "server": 14022,
  "service": 26168,
  "set": 4035,
  "seud": 13999,
  "sex": 15103,
  "sey": 10322,
  "seáĢĢ": 20290,
  "sfrom": 19712,
  "sg": 17229,
  "sh": 1792,
  "sha": 23772,
  "shad": 29116,
  "shan": 22132,
  "share": 29117,
  "she": 21880,
  "shi": 21631,
  "shine": 24423,
  "ship": 2598,
  "shire": 12820,
  "shop": 6014,
  "shore": 17951,
  "shot": 13311,
  "show": 15947,
  "si": 10638,
  "sia": 3487,
  "sid": 12217,
  "side": 9960,
  "sight": 29710,
  "sim": 21392,
  "sin": 6913,
  "sing": 14847,
  "sis": 18094,
  "size": 26962,
  "sk": 16701,
  "ski": 21395,
  "skill": 11688,
  "sky": 16702,
  "sl": 15201,
  "slide": 22325,
  "sm": 14520,
  "so": 20524,
  "social": 21393,
  "sof": 9206,
  "soft": 4880,
  "sol": 12995,
  "son": 3047,
  "sonian": 22718,
  "sonáĢĢ": 9765,
  "sor": 10639,
  "soriasis": 21307,
  "sorption": 26001,
  "source": 23478,
  "sp": 3176,
  "space": 23856,
  "spe": 17516,
  "species": 30359,
  "spect": 14620,
  "sper": 12321,
  "sperity": 15806,
  "spir": 19207,
  "spot": 5526,
  "ss": 2176,
  "sses": 29157,
  "sson": 13728,
  "ssue": 7196,
  "st": 964,
  "stable": 26397,
  "stage": 18494,
  "stand": 20238,
  "standard": 26398,
  "standing": 9326,
  "star": 14258,
  "starter": 20239,
  "state": 8575,
  "stay": 21548,
  "ste": 22555,
  "sted": 26396,
  "stein": 10307,
  "step": 19455,
  "ster": 6353,
  "sterdam": 27544,
  "sth": 7441,
  "sthash": 9906,
  "sthat": 29419,
  "sthe": 26395,
  "sti": 29708,
  "stit": 1949,
  "stitu": 29136,
  "stitut": 10610,
  "stitute": 2388,
  "stitution": 3522,
  "sto": 12696,
  "stock": 18495,
  "ston": 11742,
  "stone": 17340,
  "stop": 17900,
  "store": 18215,
  "storm": 19131,
  "storming": 26059,
  "story": 24963,
  "str": 10724,
  "stra": 28069,
  "stract": 14741,
  "strain": 22043,
  "strap": 26399,
  "stream": 16794,
  "stress": 27201,
  "stroke": 22556,
  "strom": 21102,
  "strong": 23680,
  "struc": 4287,
  "struction": 4661,
  "structive": 25900,
  "structor": 27472,
  "structure": 24964,
  "stud": 21549,
  "study": 16795,
  "style": 27202,
  "su": 11232,
  "sub": 23477,
  "sud": 14848,
  "sudi": 24024,
  "sule": 25441,
  "sum": 29709,
  "sup": 17230,
  "sur": 20934,
  "suw": 22392,
  "sw": 19009,
  "sy": 4722,
  "sych": 6429,
  "sylvan": 18376,
  "sylvania": 21338,
  "system": 11233,
  "sáĢ¡áĢĸ": 20525,
  "sáĢĢ": 3525,
  "sáĢħ": 19711,
  "sáĢĨ": 12320,
  "sáĢĲ": 4541,
  "sáĢĶ": 10901,
  "sáĢķ": 19710,
  "sáĢĻ": 4559,
  "sáĢĽ": 21390,
  "sáĢľ": 7241,
  "sáĢŁ": 22391,
  "t": 88,
  "ta": 10472,
  "table": 20937,
  "tain": 4127,
  "tainment": 5174,
  "talk": 12874,
  "tan": 27794,
  "tand": 18095,
  "tandawsint": 20033,
  "tar": 12996,
  "tax": 20526,
  "td": 1916,
  "tdown": 30236,
  "te": 2345,
  "teach": 25096,
  "team": 27386,
  "tec": 10556,
  "tech": 12873,
  "technology": 24129,
  "tein": 9445,
  "tel": 4231,
  "ten": 14052,
  "tension": 10273,
  "ter": 985,
  "terdam": 30042,
  "terfly": 21552,
  "teria": 25668,
  "term": 13556,
  "tern": 1434,
  "ternal": 7863,
  "ternational": 1607,
  "ternative": 24385,
  "ternet": 6394,
  "terra": 30041,
  "terres": 20240,
  "ters": 8019,
  "tery": 13037,
  "teráĢĢ": 8396,
  "tes": 26169,
  "test": 10414,
  "teáĢĢ": 25095,
  "th": 1196,
  "tha": 15918,
  "thai": 25013,
  "thal": 15519,
  "than": 16117,
  "that": 8949,
  "the": 2173,
  "theast": 10801,
  "thel": 23150,
  "them": 17679,
  "then": 29039,
  "ther": 4511,
  "thereg": 30457,
  "theriver": 14633,
  "therivernews": 16458,
  "thers": 13708,
  "thes": 15711,
  "thetic": 22158,
  "thevoic": 24457,
  "thevoicemyanmar": 25365,
  "thew": 11102,
  "they": 30262,
  "thing": 30093,
  "thinking": 30094,
  "this": 16118,
  "thithtoolwin": 18233,
  "thon": 14755,
  "thor": 13707,
  "through": 26454,
  "thunger": 25717,
  "thungerh": 26075,
  "thy": 28135,
  "ti": 667,
  "tia": 12900,
  "tial": 8014,
  "tian": 6005,
  "tic": 1376,
  "tica": 13166,
  "tical": 2438,
  "tice": 3579,
  "ticip": 9755,
  "ticism": 12065,
  "tick": 6702,
  "ticket": 23337,
  "ticle": 5964,
  "ticles": 7222,
  "tics": 3041,
  "ticulate": 25035,
  "ticultural": 17644,
  "ticulture": 30123,
  "tie": 15874,
  "tier": 7491,
  "ties": 6941,
  "tif": 2661,
  "tific": 3503,
  "tificate": 4573,
  "tification": 7452,
  "tificial": 7137,
  "tified": 12285,
  "tiful": 13067,
  "tify": 11653,
  "tig": 5287,
  "tige": 17569,
  "tigo": 25919,
  "tiium": 15471,
  "til": 3887,
  "tilateral": 17143,
  "tile": 17844,
  "tility": 16896,
  "tilizer": 13604,
  "till": 8876,
  "tillage": 27584,
  "tim": 3299,
  "timate": 16887,
  "time": 5898,
  "timedia": 13876,
  "times": 11881,
  "timiglia": 30370,
  "tin": 28713,
  "ting": 16704,
  "tio": 9539,
  "tion": 781,
  "tional": 10586,
  "tions": 29934,
  "tir": 23580,
  "tire": 29875,
  "tis": 3680,
  "tism": 9393,
  "tisol": 13602,
  "tist": 5161,
  "tit": 1734,
  "tition": 21477,
  "titis": 29876,
  "title": 29112,
  "titude": 7423,
  "tity": 5338,
  "tium": 7755,
  "tiv": 2307,
  "tivate": 24466,
  "tivation": 9006,
  "tive": 1488,
  "tiveness": 27099,
  "tives": 9388,
  "tivities": 8909,
  "tivity": 4063,
  "tization": 28847,
  "to": 2690,
  "toG": 8024,
  "toM": 16615,
  "tod": 28714,
  "today": 19318,
  "tof": 26964,
  "together": 25442,
  "tok": 14359,
  "tom": 16703,
  "ton": 2310,
  "tone": 27795,
  "tong": 21396,
  "tonáĢĢ": 20333,
  "top": 3787,
  "topic": 11029,
  "tor": 3427,
  "torial": 18892,
  "tory": 17803,
  "tos": 24754,
  "tothe": 17517,
  "touch": 21881,
  "tourism": 18722,
  "town": 11905,
  "tp": 1833,
  "tr": 4076,
  "tra": 6063,
  "tract": 18006,
  "train": 27796,
  "trans": 13198,
  "tras": 22218,
  "trasound": 24051,
  "tre": 5419,
  "treasure": 26707,
  "treasureof": 27701,
  "treatment": 22393,
  "treme": 21753,
  "trepreneur": 7262,
  "trine": 30422,
  "tro": 29711,
  "try": 14202,
  "ts": 2936,
  "tu": 19713,
  "tual": 5164,
  "ture": 2868,
  "tv": 18721,
  "tw": 28712,
  "twitter": 26170,
  "ty": 2401,
  "type": 12610,
  "táĢĢ": 20936,
  "u": 89,
  "uM": 9297,
  "uMojo": 12002,
  "ua": 7614,
  "ual": 2442,
  "uala": 30289,
  "ually": 24130,
  "uan": 4147,
  "uana": 23481,
  "uang": 6380,
  "uangporn": 21282,
  "uard": 10078,
  "uary": 11324,
  "uation": 6872,
  "ub": 1392,
  "uba": 30125,
  "ubation": 24377,
  "ubb": 23166,
  "ubble": 10111,
  "ube": 3220,
  "ubeni": 25036,
  "ubin": 22619,
  "ubishi": 9098,
  "ublic": 2182,
  "uc": 1301,
  "ucation": 6442,
  "uccess": 16124,
  "uce": 8001,
  "uch": 5721,
  "uchi": 14813,
  "uck": 3486,
  "ucker": 10741,
  "uckerberg": 13911,
  "uckland": 23284,
  "ucky": 7422,
  "uclear": 19161,
  "ucos": 18241,
  "ucose": 18844,
  "uct": 17640,
  "uction": 14126,
  "ucurb": 13575,
  "ucurbit": 14339,
  "ucurbitac": 15807,
  "ucurbitacins": 21330,
  "ucáĢĢ": 20271,
  "ud": 1550,
  "uda": 16358,
  "udd": 4253,
  "uddh": 5765,
  "uddha": 12185,
  "uddhism": 13339,
  "uddhist": 7284,
  "uddin": 20817,
  "ude": 4656,
  "udential": 10608,
  "udget": 6444,
  "udh": 30161,
  "udi": 26503,
  "udra": 24396,
  "uds": 30162,
  "udwin": 29092,
  "udy": 8581,
  "ue": 1817,
  "uel": 5138,
  "uela": 29340,
  "uer": 15614,
  "ues": 6026,
  "uesday": 21277,
  "uet": 8190,
  "uetooth": 9775,
  "uez": 23203,
  "ueáĢĢ": 20741,
  "uf": 4967,
  "ufact": 9151,
  "ufacturing": 10629,
  "uff": 5551,
  "uffer": 24569,
  "ug": 2214,
  "uga": 23230,
  "ugar": 10251,
  "uge": 7970,
  "ugee": 14448,
  "ugees": 12098,
  "ugg": 9823,
  "uggage": 29470,
  "uggestion": 23985,
  "ugh": 5762,
  "ught": 21654,
  "ughter": 22254,
  "ugi": 27371,
  "ugs": 11482,
  "ugu": 21193,
  "uh": 8801,
  "uheng": 25980,
  "ui": 5855,
  "uild": 3677,
  "uilding": 4064,
  "uin": 24755,
  "uit": 6282,
  "uition": 23479,
  "uits": 23480,
  "uitton": 25222,
  "uj": 5550,
  "ujah": 16190,
  "uji": 12296,
  "uk": 2440,
  "uka": 22693,
  "uke": 12282,
  "uket": 30288,
  "ukh": 14789,
  "uki": 6242,
  "ul": 1173,
  "ula": 6761,
  "ulance": 13565,
  "ular": 3542,
  "ulate": 16578,
  "ulated": 27253,
  "ulation": 5328,
  "ulations": 10057,
  "ulator": 10602,
  "ulatory": 16345,
  "ulb": 23708,
  "ule": 3435,
  "ules": 7899,
  "ulf": 7861,
  "uli": 23143,
  "ulic": 21579,
  "ulife": 20258,
  "ulin": 9500,
  "ulk": 26447,
  "ull": 3652,
  "ullah": 11206,
  "ulline": 25708,
  "ully": 7158,
  "ullying": 14026,
  "ulner": 20686,
  "ulp": 17920,
  "ulph": 8325,
  "ulphate": 18934,
  "ulphur": 13082,
  "ulpture": 28572,
  "uls": 15516,
  "ulsory": 24027,
  "ult": 1901,
  "ultan": 15951,
  "ultural": 4345,
  "ulture": 3062,
  "ulty": 8704,
  "ulu": 16344,
  "ulum": 8287,
  "ulus": 9599,
  "ulvert": 10603,
  "uly": 4310,
  "um": 1184,
  "uma": 9501,
  "uman": 2710,
  "umann": 23146,
  "umar": 7142,
  "umat": 27256,
  "umatic": 29032,
  "umb": 6057,
  "umber": 6738,
  "umbia": 16422,
  "ume": 7446,
  "ument": 4178,
  "umentary": 19596,
  "uments": 14316,
  "umer": 7692,
  "umers": 23145,
  "umi": 11553,
  "umin": 10727,
  "uminium": 25294,
  "umm": 17921,
  "umn": 22595,
  "umni": 24355,
  "umor": 19848,
  "ump": 4028,
  "umping": 25008,
  "umption": 14974,
  "umpty": 12184,
  "ums": 20690,
  "umt": 28127,
  "umáĢĢ": 22075,
  "umáĢĶ": 28128,
  "umáĢĻ": 22596,
  "un": 1037,
  "una": 10312,
  "unc": 12481,
  "unch": 7929,
  "unction": 6860,
  "und": 2068,
  "undai": 10388,
  "unday": 10611,
  "under": 7366,
  "undred": 30245,
  "une": 3699,
  "ung": 1730,
  "unger": 11101,
  "ungi": 21166,
  "ungla": 25763,
  "ungunya": 18860,
  "ungáĢĢ": 17083,
  "uni": 22574,
  "union": 29003,
  "unishment": 23693,
  "unit": 21562,
  "unities": 13558,
  "unity": 2434,
  "unk": 15085,
  "unn": 9432,
  "unnel": 22812,
  "unner": 10599,
  "unning": 15912,
  "unningham": 29534,
  "uno": 22057,
  "unsaturated": 27232,
  "unt": 6644,
  "untary": 15787,
  "unte": 5000,
  "unteer": 5349,
  "unteers": 21263,
  "untu": 29390,
  "unya": 17347,
  "unáĢĢ": 12060,
  "uo": 9525,
  "uong": 21397,
  "up": 1240,
  "upara": 30105,
  "uprofen": 21142,
  "upt": 14422,
  "upta": 26466,
  "uptaáĢĢ": 16941,
  "upáĢķ": 17361,
  "upáĢľ": 30104,
  "ur": 1027,
  "urOise": 24977,
  "ura": 6089,
  "ural": 2798,
  "uralism": 30318,
  "uran": 20669,
  "urance": 4570,
  "uration": 28998,
  "urb": 6625,
  "urban": 27550,
  "urch": 5789,
  "urd": 15702,
  "ure": 1468,
  "ureau": 9381,
  "ured": 22109,
  "urein": 9937,
  "urement": 30149,
  "urer": 23129,
  "ures": 3317,
  "ureth": 30150,
  "urg": 4754,
  "urgency": 25198,
  "urgery": 23314,
  "urgical": 17728,
  "uri": 6899,
  "uring": 6355,
  "urities": 7442,
  "urity": 3379,
  "urm": 2820,
  "urma": 2065,
  "urmas": 16168,
  "urmes": 10255,
  "urmese": 3213,
  "urmesecom": 15169,
  "urn": 4555,
  "uro": 3958,
  "uron": 16568,
  "urop": 19319,
  "urp": 8946,
  "urpose": 10261,
  "urs": 8123,
  "ursday": 28472,
  "urt": 8357,
  "uru": 14115,
  "ury": 4849,
  "us": 1061,
  "usa": 14120,
  "usal": 22577,
  "usc": 9597,
  "use": 4170,
  "user": 23134,
  "uses": 26438,
  "useum": 14629,
  "ush": 3912,
  "ushan": 29295,
  "ushi": 11784,
  "usic": 5992,
  "usiness": 3811,
  "usion": 13560,
  "usman": 26439,
  "usn": 30070,
  "uson": 30071,
  "usp": 8819,
  "uss": 4437,
  "ussia": 11550,
  "ussion": 9664,
  "ust": 1538,
  "ustain": 4452,
  "ustainable": 4741,
  "ustan": 23180,
  "uster": 12814,
  "ustic": 23697,
  "ustice": 4696,
  "ustom": 3300,
  "ustomer": 4042,
  "ustrated": 22113,
  "ustration": 12498,
  "ustrial": 27307,
  "ustry": 11969,
  "usáĢĢ": 9378,
  "usáĢĲ": 20673,
  "usáĢĶ": 20674,
  "usáĢĻ": 16571,
  "usáĢľ": 23133,
  "ut": 1248,
  "uta": 25024,
  "utant": 30107,
  "utathion": 19855,
  "utation": 18237,
  "utaw": 12488,
  "utch": 10453,
  "ute": 2156,
  "utein": 19540,
  "uten": 12704,
  "uter": 2499,
  "uters": 3341,
  "uterte": 22694,
  "utes": 17637,
  "uth": 3337,
  "utha": 26631,
  "uthentic": 22734,
  "uther": 27434,
  "uthor": 7813,
  "uthority": 5710,
  "uti": 16483,
  "utic": 20938,
  "utin": 22088,
  "uting": 11751,
  "ution": 2217,
  "utnik": 12155,
  "uto": 14921,
  "utoki": 29051,
  "utor": 15713,
  "utorial": 12154,
  "utra": 27270,
  "utral": 17638,
  "utri": 6011,
  "utrient": 18628,
  "utrients": 13208,
  "utrition": 9018,
  "uts": 23157,
  "utt": 5903,
  "uttaw": 20840,
  "utter": 18238,
  "utting": 16419,
  "uttle": 10891,
  "uture": 5428,
  "utures": 29050,
  "uty": 4131,
  "uw": 5070,
  "uwun": 7283,
  "ux": 4283,
  "uxe": 27471,
  "uy": 3983,
  "uyen": 6865,
  "uz": 5894,
  "uzz": 10688,
  "uzzy": 22823,
  "uáĢĢ": 5982,
  "v": 90,
  "va": 10027,
  "vaccine": 27797,
  "vae": 28716,
  "val": 7643,
  "value": 26171,
  "van": 7825,
  "var": 15203,
  "vard": 7876,
  "vas": 29712,
  "vation": 11414,
  "vb": 19320,
  "ve": 1175,
  "ved": 14672,
  "veh": 25006,
  "veillance": 11853,
  "vel": 3185,
  "ven": 1481,
  "vend": 26496,
  "vendish": 29589,
  "veness": 13050,
  "venience": 23749,
  "vening": 15297,
  "vent": 8191,
  "vention": 3236,
  "ventive": 18251,
  "venue": 13712,
  "ver": 1157,
  "verage": 15707,
  "vern": 24351,
  "vers": 5617,
  "versation": 18911,
  "verse": 20682,
  "version": 10890,
  "verss": 24352,
  "verssurOise": 25364,
  "vert": 7766,
  "verter": 21574,
  "vertis": 13294,
  "very": 9598,
  "ves": 5968,
  "vest": 2851,
  "vester": 21882,
  "vestig": 8098,
  "vestment": 3369,
  "vet": 15410,
  "vetas": 21328,
  "vey": 4831,
  "veyáĢĢ": 25709,
  "vi": 15409,
  "vic": 28715,
  "vid": 29713,
  "video": 26966,
  "videos": 26967,
  "view": 4583,
  "ville": 11136,
  "vin": 10473,
  "ving": 9353,
  "violet": 26968,
  "vir": 3970,
  "vironment": 4341,
  "virus": 20079,
  "vis": 3494,
  "visional": 4646,
  "visit": 26637,
  "visor": 10617,
  "visory": 14970,
  "vit": 24131,
  "vival": 14521,
  "vo": 9207,
  "voanews": 25443,
  "voic": 22810,
  "voice": 26965,
  "vol": 15411,
  "volution": 20940,
  "vor": 20078,
  "vory": 24756,
  "voy": 22394,
  "vre": 20939,
  "vt": 19321,
  "vy": 13785,
  "vyn": 22917,
  "w": 91,
  "wa": 5809,
  "wab": 13928,
  "wagen": 25445,
  "wal": 15026,
  "walk": 16705,
  "wall": 15027,
  "wan": 8072,
  "wang": 26969,
  "want": 20527,
  "war": 5398,
  "ward": 2843,
  "ware": 3416,
  "wareness": 9836,
  "warf": 19972,
  "was": 11906,
  "wash": 19714,
  "watch": 19715,
  "water": 9918,
  "wave": 22918,
  "way": 3188,
  "ways": 6244,
  "waáĢĢ": 24758,
  "we": 2958,
  "wealth": 28321,
  "wear": 26172,
  "web": 11415,
  "website": 17804,
  "weed": 21883,
  "week": 13641,
  "ween": 13069,
  "weet": 8873,
  "weg": 16484,
  "wegian": 19282,
  "wei": 16485,
  "weight": 28320,
  "well": 8377,
  "wer": 10415,
  "west": 25444,
  "western": 21884,
  "wh": 6018,
  "what": 30517,
  "where": 28717,
  "which": 22782,
  "white": 29378,
  "wich": 10826,
  "wick": 24134,
  "wid": 15615,
  "wide": 6433,
  "width": 16673,
  "wig": 24133,
  "wiki": 19716,
  "wikipedia": 20080,
  "will": 9961,
  "win": 3984,
  "wind": 24757,
  "wings": 22395,
  "wise": 27798,
  "wit": 1924,
  "with": 5680,
  "without": 26715,
  "withthe": 19528,
  "witter": 2115,
  "wo": 5268,
  "woman": 29715,
  "women": 29714,
  "won": 24132,
  "wood": 7940,
  "word": 5321,
  "words": 27517,
  "work": 2470,
  "works": 26587,
  "world": 9622,
  "worm": 12997,
  "worth": 15412,
  "ww": 1690,
  "www": 2590,
  "wwwfacebookcom": 18276,
  "wwwmizzimaburmesecom": 20349,
  "x": 92,
  "xi": 9962,
  "xia": 26173,
  "xiety": 22299,
  "xim": 11599,
  "ximity": 13213,
  "xin": 20941,
  "xit": 9407,
  "xon": 29717,
  "xx": 2106,
  "xxx": 8868,
  "xxxx": 5563,
  "xxxxxxxx": 15782,
  "xy": 9262,
  "xychlor": 21790,
  "xychloroquine": 21838,
  "xáĢķ": 29716,
  "y": 93,
  "yIW": 19011,
  "yIWV": 19285,
  "ya": 3419,
  "yal": 16033,
  "yan": 966,
  "yana": 26400,
  "yand": 5772,
  "yang": 6270,
  "yangon": 11793,
  "yani": 28974,
  "yanmar": 986,
  "yanova": 28070,
  "yar": 15204,
  "yard": 23482,
  "yb": 19010,
  "yc": 4188,
  "ych": 19322,
  "ycin": 20815,
  "ycle": 6428,
  "ycop": 14978,
  "ycopene": 15587,
  "yd": 3196,
  "ydia": 29254,
  "ydney": 18591,
  "ydro": 5283,
  "ye": 3310,
  "year": 15834,
  "years": 15413,
  "yein": 7122,
  "yeinchan": 9668,
  "yeinchanaye": 10020,
  "yen": 21398,
  "yeong": 21231,
  "yer": 12322,
  "yes": 13498,
  "yg": 20528,
  "ygen": 10557,
  "yi": 5148,
  "yin": 24135,
  "yine": 21885,
  "ying": 13229,
  "yl": 3059,
  "yle": 4916,
  "ylene": 17988,
  "yll": 10125,
  "yllab": 21305,
  "ylori": 23848,
  "ylus": 28331,
  "ylv": 25135,
  "ylvan": 15337,
  "ylward": 30346,
  "ym": 3096,
  "yme": 24136,
  "ymet": 24495,
  "ymph": 13325,
  "ympt": 12290,
  "ymptomatic": 16212,
  "ymptoms": 26805,
  "yn": 2828,
  "yndrome": 6665,
  "ynth": 10955,
  "ynthesis": 13913,
  "yo": 4465,
  "you": 9963,
  "your": 15833,
  "yout": 16246,
  "youtu": 17774,
  "youtube": 16034,
  "yp": 6770,
  "ype": 4303,
  "yroid": 16706,
  "ys": 2720,
  "ysis": 7038,
  "yss": 27799,
  "yssey": 26603,
  "yst": 1864,
  "ysteine": 22661,
  "ystem": 1934,
  "yster": 29127,
  "ystery": 25774,
  "yt": 5257,
  "ytechn": 17443,
  "ytechnic": 20031,
  "yth": 7941,
  "ything": 13905,
  "ythm": 14995,
  "ytoc": 15357,
  "ytochemical": 26825,
  "ytocin": 27647,
  "ytok": 26701,
  "yton": 13642,
  "ytonutrients": 17771,
  "yu": 10079,
  "yáĢĢ": 4029,
  "yáĢĲ": 25446,
  "z": 94,
  "za": 7099,
  "zan": 16968,
  "zation": 15835,
  "zaw": 28719,
  "ze": 5106,
  "zef": 29719,
  "zen": 15616,
  "zep": 21886,
  "zer": 8192,
  "zerland": 18643,
  "zh": 14203,
  "zheim": 23483,
  "zhou": 13643,
  "zi": 17805,
  "zo": 12024,
  "zona": 24759,
  "zone": 12323,
  "zt": 29718,
  "zy": 28718,
  "zz": 18096,
  "záĢĢ": 11600,
  "{": 95,
  "|": 96,
  "}": 97,
  "~": 98,
  "~~": 2927,
  "~~~~": 4383,
  "~~~~~~~~": 6948,
  "~~~~~~~~~~~~~~~~": 11794,
  "~~~~~~~~~~~~~~~~~~~~~~~~~~~~~~~~": 27606,
  "¡": 99,
  "¡ï¸ı": 14204,
  "¢": 100,
  "£": 101,
  "¤": 102,
  "¤ï¸ı": 23484,
  "¥": 103,
  "¦": 104,
  "§": 105,
  "¨": 106,
  "©": 107,
  "©º": 24137,
  "ª": 108,
  "«": 109,
  "¬": 110,
  "®": 111,
  "¯": 112,
  "°": 113,
  "°ĳ": 25447,
  "±": 114,
  "±±": 28720,
  "²": 115,
  "³": 116,
  "´": 117,
  "µ": 118,
  "¶": 119,
  "¶Ľ": 9964,
  "·": 120,
  "¸": 121,
  "¸ı": 6283,
  "¹": 122,
  "º": 123,
  "ºï¸ı": 20081,
  "»": 124,
  "»¿": 1664,
  "»ï¸ı": 29720,
  "¼": 125,
  "½": 126,
  "¾": 127,
  "¿": 128,
  "¿¼": 26174,
  "¿¿": 23485,
  "À": 129,
  "Á": 130,
  "Â": 131,
  "Â©": 24138,
  "Â®": 21887,
  "Â¯": 14849,
  "Â°": 3413,
  "Â°Â°": 17997,
  "Â±": 7709,
  "Â±Â±": 8745,
  "Â±Â±Â±Â±": 16434,
  "Â´": 3552,
  "Â´Â´": 25162,
  "Âµ": 15205,
  "Âµg": 22848,
  "Â·": 10970,
  "Âº": 23486,
  "Â»": 18723,
  "Âł": 3298,
  "ÂłÂł": 8179,
  "ÂłÂłÂłÂł": 16431,
  "ÂŃ": 8754,
  "Ã": 132,
  "Ã¡": 17231,
  "Ã¢": 13499,
  "Ã¢t": 16938,
  "Ã¢teau": 20030,
  "Ã£": 29721,
  "Ã¤": 23487,
  "Ã¥": 24139,
  "Ã§": 12762,
  "Ã¨": 9623,
  "Ã©": 6596,
  "Ãª": 18097,
  "Ã«": 19323,
  "Ã±": 9263,
  "Ã±oláĢĢ": 11404,
  "Ã³": 12218,
  "Ã´": 13644,
  "Ã¶": 26175,
  "Ã·": 29722,
  "Ã¸": 20082,
  "Ãī": 29723,
  "Ãĵ": 4812,
  "ÃĹ": 2256,
  "ÃĹÃĹ": 3582,
  "ÃĹÃĹÃĹ": 19216,
  "ÃĹÃĹÃĹÃĹ": 8448,
  "ÃĹÃĹÃĹÃĹÃĹÃĹÃĹÃĹ": 21782,
  "Ãĺ": 22919,
  "ÃĿ": 29724,
  "Ä": 133,
  "Ä«": 27800,
  "Ä±": 24760,
  "Äģ": 15414,
  "Å": 134,
  "ÅĤ": 26176,
  "Åį": 21399,
  "Æ": 135,
  "Ç": 136,
  "È": 137,
  "É": 138,
  "ÉĽ": 27801,
  "Ê": 139,
  "Ë": 140,
  "ËĲ": 25448,
  "Ëļ": 23488,
  "Ì": 141,
  "Ìĭ": 20083,
  "Ìı": 21400,
  "Í": 142,
  "Î": 143,
  "Î±": 27802,
  "Î¼": 29725,
  "Î¿": 21401,
  "Ï": 144,
  "ÏĢ": 16486,
  "Ïģ": 27803,
  "ÏĤ": 20942,
  "ÏĦ": 28721,
  "ÏĮ": 27804,
  "Ð": 145,
  "Ð°": 18098,
  "Ðµ": 19012,
  "ÐµÐ": 29563,
  "Ð¸": 21888,
  "Ðº": 26177,
  "Ð¾": 16487,
  "Ð¾Ð": 26048,
  "Ñ": 146,
  "ÑĢ": 19717,
  "Ñģ": 25449,
  "ÑĤ": 25450,
  "Ò": 147,
  "Ó": 148,
  "Ô": 149,
  "Õ": 150,
  "Ö": 151,
  "×": 152,
  "Ø": 153,
  "Ø§": 27805,
  "Ù": 154,
  "Ú": 155,
  "Û": 156,
  "Ü": 157,
  "Ý": 158,
  "Þ": 159,
  "ß": 160,
  "à": 161,
  "à¤": 3962,
  "à¤¤": 28390,
  "à¤¨": 29299,
  "à¤°": 17144,
  "à¤¾": 14314,
  "à¤¿": 19590,
  "à¥": 9161,
  "à¥Ģ": 22293,
  "à¥ĩ": 25986,
  "à¥į": 21788,
  "àª": 20529,
  "à®": 21402,
  "à¸": 2425,
  "à¸¡": 16387,
  "à¸¢": 17688,
  "à¸£": 11652,
  "à¸¥": 23817,
  "à¸§": 18880,
  "à¸ª": 25104,
  "à¸«": 23240,
  "à¸°": 25819,
  "à¸±": 15326,
  "à¸²": 8177,
  "à¸²à¸": 9020,
  "à¸²à¸¢": 28492,
  "à¸´": 23241,
  "à¸µ": 17116,
  "à¸¸": 26581,
  "à¸ģ": 17689,
  "à¸Ħ": 26582,
  "à¸ĩ": 14613,
  "à¸Ī": 23818,
  "à¸Ķ": 23242,
  "à¸ķ": 25105,
  "à¸Ĺ": 22691,
  "à¸Ļ": 11771,
  "à¸ļ": 23819,
  "à¸ŀ": 29190,
  "à¸Ń": 15754,
  "à¹": 5258,
  "à¹Ģ": 12960,
  "à¹Ģà¸": 13352,
  "à¹ģ": 23925,
  "à¹Ħ": 25204,
  "à¹Ī": 11889,
  "à¹ī": 13890,
  "à¿¿": 23489,
  "á": 162,
  "á¹": 23490,
  "á»": 22396,
  "áĢ": 261,
  "áĢ¡": 317,
  "áĢ¡áĢ¡": 925,
  "áĢ¡áĢ¥": 7207,
  "áĢ¡áĢ¦": 1309,
  "áĢ¡áĢ¦áĢĢ": 6393,
  "áĢ¡áĢ¦áĢĲ": 29059,
  "áĢ¡áĢĢ": 538,
  "áĢ¡áĢĢáĢĦ": 17834,
  "áĢ¡áĢĢáĢĶ": 5369,
  "áĢ¡áĢĢáĢĻ": 15862,
  "áĢ¡áĢĢáĢļ": 1662,
  "áĢ¡áĢģ": 427,
  "áĢ¡áĢģáĢĢ": 2081,
  "áĢ¡áĢģáĢĦ": 1457,
  "áĢ¡áĢģáĢĲ": 3143,
  "áĢ¡áĢģáĢĶ": 1989,
  "áĢ¡áĢģáĢĻ": 2042,
  "áĢ¡áĢĤ": 7973,
  "áĢ¡áĢĤáĢĲ": 3033,
  "áĢ¡áĢĦ": 763,
  "áĢ¡áĢĦáĢĦ": 21978,
  "áĢ¡áĢĦáĢĲ": 18172,
  "áĢ¡áĢĦáĢĶ": 14368,
  "áĢ¡áĢĦáĢļ": 4960,
  "áĢ¡áĢħ": 615,
  "áĢ¡áĢħáĢĢ": 6364,
  "áĢ¡áĢħáĢĢáĢĲáĢĬ": 29382,
  "áĢ¡áĢħáĢĦ": 5988,
  "áĢ¡áĢħáĢħ": 4294,
  "áĢ¡áĢħáĢħáĢ¡áĢĽ": 11495,
  "áĢ¡áĢħáĢī": 741,
  "áĢ¡áĢħáĢĬ": 614,
  "áĢ¡áĢħáĢĲ": 11711,
  "áĢ¡áĢħáĢķ": 3016,
  "áĢ¡áĢħáĢĻ": 11434,
  "áĢ¡áĢħáĢĽ": 10042,
  "áĢ¡áĢħáĢľ": 11619,
  "áĢ¡áĢĨ": 710,
  "áĢ¡áĢĨáĢĢ": 1658,
  "áĢ¡áĢĨáĢĦ": 1219,
  "áĢ¡áĢĨáĢħ": 3805,
  "áĢ¡áĢĨáĢĲ": 23594,
  "áĢ¡áĢĨáĢĶ": 2150,
  "áĢ¡áĢĨáĢĻ": 4130,
  "áĢ¡áĢĨáĢĻáĢĲáĢĶ": 23042,
  "áĢ¡áĢĨáĢľ": 28865,
  "áĢ¡áĢĩ": 11813,
  "áĢ¡áĢī": 20980,
  "áĢ¡áĢĬ": 807,
  "áĢ¡áĢĬáĢħ": 10370,
  "áĢ¡áĢĭ": 15625,
  "áĢ¡áĢĮ": 27848,
  "áĢ¡áĢı": 7246,
  "áĢ¡áĢĲ": 542,
  "áĢ¡áĢĲáĢĢ": 4212,
  "áĢ¡áĢĲáĢĦ": 2273,
  "áĢ¡áĢĲáĢħ": 11706,
  "áĢ¡áĢĲáĢĬ": 1291,
  "áĢ¡áĢĲáĢĲ": 4018,
  "áĢ¡áĢĲáĢĶ": 1490,
  "áĢ¡áĢĳ": 564,
  "áĢ¡áĢĳáĢĢ": 1445,
  "áĢ¡áĢĳáĢĦ": 3654,
  "áĢ¡áĢĳáĢħ": 4554,
  "áĢ¡áĢĳáĢĬ": 753,
  "áĢ¡áĢĳáĢĶ": 1661,
  "áĢ¡áĢĳáĢķ": 5755,
  "áĢ¡áĢĳáĢĻ": 18742,
  "áĢ¡áĢĴ": 6875,
  "áĢ¡áĢĵ": 1288,
  "áĢ¡áĢĵáĢĻ": 2497,
  "áĢ¡áĢĶ": 487,
  "áĢ¡áĢĶáĢĢ": 1631,
  "áĢ¡áĢĶáĢĦ": 21449,
  "áĢ¡áĢĶáĢħ": 18115,
  "áĢ¡áĢĶáĢĬ": 2155,
  "áĢ¡áĢĶáĢĲ": 18413,
  "áĢ¡áĢĶáĢĶ": 9079,
  "áĢ¡áĢĶáĢĸ": 1854,
  "áĢ¡áĢĶáĢĻ": 19361,
  "áĢ¡áĢĶáĢļ": 2863,
  "áĢ¡áĢķ": 443,
  "áĢ¡áĢķáĢĢ": 7382,
  "áĢ¡áĢķáĢĦ": 1427,
  "áĢ¡áĢķáĢħ": 5179,
  "áĢ¡áĢķáĢĨ": 29804,
  "áĢ¡áĢķáĢĲ": 2082,
  "áĢ¡áĢķáĢĶ": 6472,
  "áĢ¡áĢķáĢĻ": 7353,
  "áĢ¡áĢķáĢļ": 25502,
  "áĢ¡áĢķáĢĽ": 25501,
  "áĢ¡áĢķáĢľ": 15451,
  "áĢ¡áĢĸ": 645,
  "áĢ¡áĢĸáĢĢ": 10480,
  "áĢ¡áĢĸáĢĲ": 7300,
  "áĢ¡áĢĸáĢĶ": 5573,
  "áĢ¡áĢĸáĢĻ": 4934,
  "áĢ¡áĢĹ": 14531,
  "áĢ¡áĢĺ": 2157,
  "áĢ¡áĢĺáĢ¦": 17399,
  "áĢ¡áĢĺáĢĢ": 14216,
  "áĢ¡áĢĺáĢĲ": 13797,
  "áĢ¡áĢĺáĢļ": 2752,
  "áĢ¡áĢĻ": 553,
  "áĢ¡áĢĻáĢĢ": 17276,
  "áĢ¡áĢĻáĢĦ": 1988,
  "áĢ¡áĢĻáĢĬ": 1758,
  "áĢ¡áĢĻáĢĲ": 1134,
  "áĢ¡áĢĻáĢĶ": 21459,
  "áĢ¡áĢĻáĢļ": 7827,
  "áĢ¡áĢĻáĢĽáĢķ": 12893,
  "áĢ¡áĢĻáĢľ": 10086,
  "áĢ¡áĢļ": 1122,
  "áĢ¡áĢļáĢĢ": 2838,
  "áĢ¡áĢĽ": 577,
  "áĢ¡áĢĽáĢ¡": 7623,
  "áĢ¡áĢĽáĢ¡áĢĢ": 29831,
  "áĢ¡áĢĽáĢ¡áĢģ": 22450,
  "áĢ¡áĢĽáĢ¡áĢķ": 23562,
  "áĢ¡áĢĽáĢ¡áĢĻ": 22451,
  "áĢ¡áĢĽáĢ¡áĢĽ": 21009,
  "áĢ¡áĢĽáĢ¡áĢľ": 12671,
  "áĢ¡áĢĽáĢ¡áĢŀ": 25528,
  "áĢ¡áĢĽáĢĢ": 2724,
  "áĢ¡áĢĽáĢģ": 17277,
  "áĢ¡áĢĽáĢĦ": 1161,
  "áĢ¡áĢĽáĢħ": 5555,
  "áĢ¡áĢĽáĢĨ": 5261,
  "áĢ¡áĢĽáĢĨáĢĢ": 23002,
  "áĢ¡áĢĽáĢĬ": 1967,
  "áĢ¡áĢĽáĢĲ": 6365,
  "áĢ¡áĢĽáĢĲáĢħ": 27063,
  "áĢ¡áĢĽáĢĲáĢĽ": 13126,
  "áĢ¡áĢĽáĢĳ": 8643,
  "áĢ¡áĢĽáĢĴ": 25527,
  "áĢ¡áĢĽáĢĶ": 5910,
  "áĢ¡áĢĽáĢķ": 1892,
  "áĢ¡áĢĽáĢĸ": 12894,
  "áĢ¡áĢĽáĢĸáĢĻ": 15244,
  "áĢ¡áĢĽáĢĻ": 2745,
  "áĢ¡áĢĽáĢļ": 18420,
  "áĢ¡áĢĽáĢĽ": 8204,
  "áĢ¡áĢĽáĢľ": 7797,
  "áĢ¡áĢĽáĢľáĢĬ": 18762,
  "áĢ¡áĢĽáĢŀ": 3777,
  "áĢ¡áĢĽáĢŁ": 24209,
  "áĢ¡áĢľ": 624,
  "áĢ¡áĢľáĢĢ": 802,
  "áĢ¡áĢľáĢĦ": 1526,
  "áĢ¡áĢľáĢħ": 18766,
  "áĢ¡áĢľáĢĬ": 4193,
  "áĢ¡áĢľáĢĲ": 2221,
  "áĢ¡áĢľáĢĶ": 14701,
  "áĢ¡áĢľáĢĻ": 1633,
  "áĢ¡áĢľáĢļ": 1739,
  "áĢ¡áĢľáĢľ": 11157,
  "áĢ¡áĢĿ": 628,
  "áĢ¡áĢĿáĢĢ": 12561,
  "áĢ¡áĢĿáĢĦ": 712,
  "áĢ¡áĢĿáĢĲ": 3650,
  "áĢ¡áĢĿáĢĶ": 1349,
  "áĢ¡áĢĿáĢļ": 1093,
  "áĢ¡áĢĿáĢĽáĢĽ": 23569,
  "áĢ¡áĢŀ": 658,
  "áĢ¡áĢŀáĢĢ": 1207,
  "áĢ¡áĢŀáĢĦ": 1224,
  "áĢ¡áĢŀáĢħ": 1978,
  "áĢ¡áĢŀáĢĬ": 4675,
  "áĢ¡áĢŀáĢĲ": 1533,
  "áĢ¡áĢŀáĢĶ": 2823,
  "áĢ¡áĢŀáĢķ": 25559,
  "áĢ¡áĢŀáĢĽ": 18434,
  "áĢ¡áĢŁ": 1520,
  "áĢ¡áĢŁáĢĶ": 17537,
  "áĢ£": 4991,
  "áĢ£áĢĲ": 30483,
  "áĢ£áĢĶ": 14019,
  "áĢ¤": 988,
  "áĢ¤áĢ¡áĢģ": 17904,
  "áĢ¤áĢĢ": 5252,
  "áĢ¤áĢħ": 17902,
  "áĢ¤áĢĨ": 17903,
  "áĢ¤áĢĲ": 10309,
  "áĢ¤áĢĶ": 23121,
  "áĢ¤áĢĶáĢĬ": 17046,
  "áĢ¤áĢķ": 18497,
  "áĢ¤áĢĸ": 24332,
  "áĢ¤áĢĻ": 10174,
  "áĢ¤áĢĽ": 26401,
  "áĢ¤áĢľ": 20662,
  "áĢ¤áĢŀ": 3839,
  "áĢ¤áĢŀáĢĬ": 3234,
  "áĢ¥": 569,
  "áĢ¥áĢ©": 12235,
  "áĢ¥áĢ©áĢĨ": 24005,
  "áĢ¥áĢ¿": 21936,
  "áĢ¥áĢ¿áĢĺ": 26862,
  "áĢ¥áĢĢ": 1187,
  "áĢ¥áĢģ": 27905,
  "áĢ¥áĢħ": 5053,
  "áĢ¥áĢı": 23001,
  "áĢ¥áĢĲ": 914,
  "áĢ¥áĢĳ": 26261,
  "áĢ¥áĢĴ": 3766,
  "áĢ¥áĢĶ": 4121,
  "áĢ¥áĢķ": 2913,
  "áĢ¥áĢķáĢħ": 29829,
  "áĢ¥áĢķáĢĴ": 713,
  "áĢ¥áĢķáĢĻ": 1297,
  "áĢ¥áĢĻ": 3748,
  "áĢ¥áĢĻáĢĦ": 12234,
  "áĢ¥áĢļ": 2538,
  "áĢ¥áĢĽ": 2139,
  "áĢ¥áĢĿ": 12771,
  "áĢ¥áĢŀ": 10161,
  "áĢ¥áĢŀáĢħ": 11249,
  "áĢ¥áģ¥": 14693,
  "áĢ¦": 410,
  "áĢ§": 1006,
  "áĢ§áĢĢ": 1355,
  "áĢ§áĢĢáĢĢ": 5223,
  "áĢ§áĢĢáĢĶ": 21554,
  "áĢ§áĢĢáĢķ": 16330,
  "áĢ§áĢĢáĢĻ": 28980,
  "áĢ§áĢĢáĢĽ": 7762,
  "áĢ§áĢĢáĢľ": 12057,
  "áĢ§áĢĢáĢŀ": 30046,
  "áĢ§áĢģ": 25673,
  "áĢ§áĢĬ": 2611,
  "áĢ§áĢķ": 2181,
  "áĢ§áĢĽ": 1464,
  "áĢ§áĢĿ": 22046,
  "áĢ§áĢĿáĢĽáĢĢ": 24050,
  "áĢ©": 1064,
  "áĢ©áĢĢ": 7117,
  "áĢ©áĢģ": 11849,
  "áĢ©áĢĤ": 3017,
  "áĢ©áĢĤáĢĲ": 30072,
  "áĢ©áĢĥ": 17628,
  "áĢ©áĢħ": 15283,
  "áĢ©áĢħáĢĲ": 4309,
  "áĢ©áĢħáĢĽ": 6508,
  "áĢ©áĢĩ": 1404,
  "áĢ©áĢĲ": 14748,
  "áĢ©áĢĳ": 29010,
  "áĢ©áĢĶ": 22061,
  "áĢ©áĢķ": 29009,
  "áĢ©áĢĸ": 9651,
  "áĢ©áĢĸáĢĦ": 28109,
  "áĢ©áĢĺ": 7221,
  "áĢ©áĢĻ": 11278,
  "áĢ©áĢľ": 24991,
  "áĢ©áĢĿ": 6162,
  "áĢ©áĢŀ": 11092,
  "áĢª": 3611,
  "áĢ«": 303,
  "áĢ«\"": 3660,
  "áĢ«'": 16263,
  "áĢ«''": 29765,
  "áĢ«(": 18389,
  "áĢ«)": 12339,
  "áĢ«-": 21904,
  "áĢ«.": 13004,
  "áĢ«..": 3709,
  "áĢ«...": 24518,
  "áĢ«=": 13376,
  "áĢ«áĢ±": 23516,
  "áĢ«áĢ·": 681,
  "áĢ«áĢ¸": 395,
  "áĢ«áĢ¸áģį": 17258,
  "áĢ«áĢ¸áģı": 26237,
  "áĢ«áĢº": 3191,
  "áĢ«áĢ»": 25476,
  "áĢ«áĢ½áĢ¸": 20112,
  "áĢ«áģ¤": 20111,
  "áĢ«áģĬ": 22422,
  "áĢ«áģĭ": 3430,
  "áĢ«áģĮ": 18390,
  "áĢ«áģį": 3149,
  "áĢ«áģı": 5050,
  "áĢ«âĢĭ": 6080,
  "áĢ«âĢĿ": 5099,
  "áĢ¬": 265,
  "áĢ¬\"": 3784,
  "áĢ¬'": 20091,
  "áĢ¬(": 9300,
  "áĢ¬)": 11806,
  "áĢ¬,": 29733,
  "áĢ¬-": 9264,
  "áĢ¬.": 11057,
  "áĢ¬..": 3357,
  "áĢ¬/": 5072,
  "áĢ¬:": 28729,
  "áĢ¬=": 12439,
  "áĢ¬áĢ¬": 6328,
  "áĢ¬áĢ¬áĢ¸": 13231,
  "áĢ¬áĢ¯": 6890,
  "áĢ¬áĢ°": 16969,
  "áĢ¬áĢ±": 9408,
  "áĢ¬áĢ·": 535,
  "áĢ¬áĢ·áĢ±": 27899,
  "áĢ¬áĢ·áĢ·": 18419,
  "áĢ¬áĢ·áĢº": 14673,
  "áĢ¬áĢ¸": 291,
  "áĢ¬áĢ¸\"": 4173,
  "áĢ¬áĢ¸'": 20967,
  "áĢ¬áĢ¸(": 20547,
  "áĢ¬áĢ¸)": 19729,
  "áĢ¬áĢ¸-": 26203,
  "áĢ¬áĢ¸.": 11912,
  "áĢ¬áĢ¸..": 4105,
  "áĢ¬áĢ¸/": 5241,
  "áĢ¬áĢ¸?": 11139,
  "áĢ¬áĢ¸áĢ±": 17534,
  "áĢ¬áĢ¸áĢ»": 20548,
  "áĢ¬áĢ¸áģĬ": 23503,
  "áĢ¬áĢ¸áģĭ": 5895,
  "áĢ¬áĢ¸áģĮ": 26204,
  "áĢ¬áĢ¸áģį": 4952,
  "áĢ¬áĢ¸áģİ": 12336,
  "áĢ¬áĢ¸áģı": 6874,
  "áĢ¬áĢ¸âĢĭ": 4821,
  "áĢ¬áĢ¸âĢĿ": 26205,
  "áĢ¬áĢ¹": 7143,
  "áĢ¬áĢº": 2236,
  "áĢ¬áĢºáĢ¸": 20092,
  "áĢ¬áĢ»": 9208,
  "áĢ¬áĢ¼": 17519,
  "áĢ¬áĢŃáĢ¯": 29734,
  "áĢ¬áģ¤": 8462,
  "áĢ¬áģ§": 14854,
  "áĢ¬áģ±": 12998,
  "áĢ¬áģĬ": 14853,
  "áĢ¬áģĭ": 6209,
  "áĢ¬áģĮ": 1435,
  "áĢ¬áģį": 7511,
  "áĢ¬áģİ": 15619,
  "áĢ¬áģı": 5686,
  "áĢ¬âĢĭ": 4376,
  "áĢ¬âĢĿ": 10150,
  "áĢ®": 298,
  "áĢ®\"": 7409,
  "áĢ®(": 7482,
  "áĢ®)": 6229,
  "áĢ®-": 14068,
  "áĢ®.": 27836,
  "áĢ®..": 11913,
  "áĢ®/": 13942,
  "áĢ®áĢ®": 16715,
  "áĢ®áĢ®áĢ¸": 15216,
  "áĢ®áĢ¯": 4520,
  "áĢ®áĢ¯áĢ¸": 14214,
  "áĢ®áĢ°": 28755,
  "áĢ®áĢ±": 23510,
  "áĢ®áĢ·": 1342,
  "áĢ®áĢ¸": 313,
  "áĢ®áĢ¸\"": 27847,
  "áĢ®áĢ¸(": 29771,
  "áĢ®áĢ¸-": 15222,
  "áĢ®áĢ¸..": 26214,
  "áĢ®áĢ¸áĢ±": 17251,
  "áĢ®áĢ¸áĢ»": 21422,
  "áĢ®áĢ¸áģĬ": 8599,
  "áĢ®áĢ¸áģĭ": 17536,
  "áĢ®áĢ¸áģĮ": 5782,
  "áĢ®áĢ¸áģį": 21423,
  "áĢ®áĢ¸áģı": 21907,
  "áĢ®áĢ¸âĢĭ": 8676,
  "áĢ®áĢº": 7071,
  "áĢ®áĢºáĢ¹": 17245,
  "áĢ®áĢ»": 8846,
  "áĢ®áĢ»áĢ¸": 27837,
  "áĢ®áĢ½": 3131,
  "áĢ®áĢ½áĢ¸": 22722,
  "áĢ®áĢŃ": 8598,
  "áĢ®áĢŃáĢ¸": 19338,
  "áĢ®áģ¤": 20109,
  "áĢ®áģĬ": 19026,
  "áĢ®áģĭ": 26998,
  "áĢ®áģĮ": 21901,
  "áĢ®áģı": 3642,
  "áĢ®âĢĭ": 5883,
  "áĢ¯": 266,
  "áĢ¯\"": 10641,
  "áĢ¯(": 17520,
  "áĢ¯-": 13932,
  "áĢ¯..": 14522,
  "áĢ¯áĢ¬": 11326,
  "áĢ¯áĢ¬áĢ¸": 17521,
  "áĢ¯áĢ¯": 3099,
  "áĢ¯áĢ¯áĢ¯áĢ¯": 5347,
  "áĢ¯áĢ¯áĢ¯áĢ¯áĢ¯áĢ¯áĢ¯áĢ¯": 8225,
  "áĢ¯áĢ¯áĢ¯áĢ¯áĢ¯áĢ¯áĢ¯áĢ¯áĢ¯áĢ¯áĢ¯áĢ¯áĢ¯áĢ¯áĢ¯áĢ¯": 12968,
  "áĢ¯áĢ¯áĢ¯áĢ¯áĢ¯áĢ¯áĢ¯áĢ¯áĢ¯áĢ¯áĢ¯áĢ¯áĢ¯áĢ¯áĢ¯áĢ¯áĢ¯áĢ¯áĢ¯áĢ¯áĢ¯áĢ¯áĢ¯áĢ¯áĢ¯áĢ¯áĢ¯áĢ¯áĢ¯áĢ¯áĢ¯áĢ¯": 20874,
  "áĢ¯áĢ¯áĢ¶": 15419,
  "áĢ¯áĢ¯áĢ¶áĢ·": 22401,
  "áĢ¯áĢ¯áĢ¶áĢ¸": 2002,
  "áĢ¯áĢ¯áĢ·áĢŃ": 29735,
  "áĢ¯áĢ¯áĢŃ": 24766,
  "áĢ¯áĢ°": 6850,
  "áĢ¯áĢ°áĢ¸": 11606,
  "áĢ¯áĢ²": 20093,
  "áĢ¯áĢ¶": 322,
  "áĢ¯áĢ¶\"": 13241,
  "áĢ¯áĢ¶(": 24177,
  "áĢ¯áĢ¶)": 24797,
  "áĢ¯áĢ¶-": 3042,
  "áĢ¯áĢ¶..": 20981,
  "áĢ¯áĢ¶/": 19734,
  "áĢ¯áĢ¶[": 11523,
  "áĢ¯áĢ¶áĢ¯": 4143,
  "áĢ¯áĢ¶áĢ¯áĢ¸": 8074,
  "áĢ¯áĢ¶áĢ±": 12658,
  "áĢ¯áĢ¶áĢ²": 7514,
  "áĢ¯áĢ¶áĢ¶": 10219,
  "áĢ¯áĢ¶áĢ¶áĢ·": 18395,
  "áĢ¯áĢ¶áĢ¶áĢ¸": 9076,
  "áĢ¯áĢ¶áĢ·": 813,
  "áĢ¯áĢ¶áĢ¸": 340,
  "áĢ¯áĢ¶áĢ¸\"": 21428,
  "áĢ¯áĢ¶áĢ¸(": 24805,
  "áĢ¯áĢ¶áĢ¸..": 16050,
  "áĢ¯áĢ¶áĢ¸áģĮ": 8761,
  "áĢ¯áĢ¶áĢ¸áģį": 9413,
  "áĢ¯áĢ¶áĢ¸áģı": 21429,
  "áĢ¯áĢ¶áĢ¸âĢĭ": 12444,
  "áĢ¯áĢ¶áĢ¼": 14069,
  "áĢ¯áĢ¶áĢŃáĢ¯": 13509,
  "áĢ¯áĢ¶áģĭ": 22427,
  "áĢ¯áĢ¶áģĮ": 27851,
  "áĢ¯áĢ¶áģį": 4624,
  "áĢ¯áĢ¶áģı": 18744,
  "áĢ¯áĢ¶âĢĭ": 13943,
  "áĢ¯áĢ·": 2460,
  "áĢ¯áĢ·áĢ¶": 12177,
  "áĢ¯áĢ·áĢŃ": 3591,
  "áĢ¯áĢ¸": 2169,
  "áĢ¯áĢ¸áĢ¶": 9609,
  "áĢ¯áĢ¹": 21892,
  "áĢ¯áĢº": 7847,
  "áĢ¯áĢºáĢ¯": 17522,
  "áĢ¯áĢºáĢ¸": 25455,
  "áĢ¯áĢ»": 6914,
  "áĢ¯áĢŃ": 2784,
  "áĢ¯áĢŃáĢ¯": 7616,
  "áĢ¯áĢŃáĢ¯áĢ·": 1846,
  "áĢ¯áĢŃáĢ¯áĢ·áģı": 19722,
  "áĢ¯áĢŃáĢ¯áĢ¸": 26976,
  "áĢ¯áĢŃáĢ¯áĢº": 11235,
  "áĢ¯áĢŃáĢ±": 14958,
  "áĢ¯áĢŃáĢ·": 5608,
  "áĢ¯áĢŃáĢ·áĢ±": 27528,
  "áĢ¯áĢŃáĢ¸": 9624,
  "áĢ¯áĢŃáĢ»": 17977,
  "áĢ¯áģĬ": 26977,
  "áĢ¯áģĭ": 24145,
  "áĢ¯áģĮ": 24146,
  "áĢ¯áģį": 25456,
  "áĢ¯áģİ": 8233,
  "áĢ¯áģı": 6453,
  "áĢ¯âĢ¬": 2529,
  "áĢ¯âĢĭ": 8637,
  "áĢ°": 308,
  "áĢ°\"": 8150,
  "áĢ°(": 20115,
  "áĢ°)": 22425,
  "áĢ°-": 27845,
  "áĢ°.": 27005,
  "áĢ°..": 10034,
  "áĢ°/": 6810,
  "áĢ°áĢ¯": 9075,
  "áĢ°áĢ¯áĢ¸": 15433,
  "áĢ°áĢ°": 4423,
  "áĢ°áĢ°áĢ°áĢ°": 29322,
  "áĢ°áĢ°áĢ¸": 5950,
  "áĢ°áĢ±": 21420,
  "áĢ°áĢ¶": 20116,
  "áĢ°áĢ¶áĢ¸": 5052,
  "áĢ°áĢ·": 435,
  "áĢ°áĢ·áĢ·": 24194,
  "áĢ°áĢ·âĢĭ": 27881,
  "áĢ°áĢ¸": 345,
  "áĢ°áĢ¸\"": 4847,
  "áĢ°áĢ¸'": 29783,
  "áĢ°áĢ¸-": 19033,
  "áĢ°áĢ¸.": 13513,
  "áĢ°áĢ¸..": 4486,
  "áĢ°áĢ¸/": 19737,
  "áĢ°áĢ¸áģĭ": 4405,
  "áĢ°áĢ¸áģį": 6493,
  "áĢ°áĢ¸áģı": 13656,
  "áĢ°áĢ¸âĢĭ": 9789,
  "áĢ°áĢ¸âĢĿ": 5674,
  "áĢ°áĢº": 29769,
  "áĢ°áĢ»": 14367,
  "áĢ°áĢ»áĢ¸": 23517,
  "áĢ°áĢŃ": 10832,
  "áĢ°áģĭ": 20555,
  "áĢ°áģį": 1280,
  "áĢ°áģı": 1189,
  "áĢ°âĢĭ": 7023,
  "áĢ±": 267,
  "áĢ±\"": 4189,
  "áĢ±'": 20094,
  "áĢ±(": 12999,
  "áĢ±)": 4681,
  "áĢ±-": 18101,
  "áĢ±.": 7918,
  "áĢ±..": 4048,
  "áĢ±/": 15030,
  "áĢ±:": 17235,
  "áĢ±Â´": 26978,
  "áĢ±áĢ«": 338,
  "áĢ±áĢ«áĢ·": 503,
  "áĢ±áĢ«áĢ·\"": 7050,
  "áĢ±áĢ«áĢ·.": 21452,
  "áĢ±áĢ«áĢ·..": 6752,
  "áĢ±áĢ«áĢ·áĢº": 13654,
  "áĢ±áĢ«áĢ·áģĭ": 7249,
  "áĢ±áĢ«áĢ·âĢĭ": 25511,
  "áĢ±áĢ«áĢ·âĢĿ": 15638,
  "áĢ±áĢ«áĢ¸": 2811,
  "áĢ±áĢ«áĢº": 363,
  "áĢ±áĢ«áĢº\"": 24807,
  "áĢ±áĢ«áĢº)": 10647,
  "áĢ±áĢ«áĢºáĢ·": 9528,
  "áĢ±áĢ«áĢºáģĭ": 23526,
  "áĢ±áĢ«áĢºáģĮ": 2225,
  "áĢ±áĢ«áĢºáģį": 21434,
  "áĢ±áĢ«áĢºâĢĭ": 13378,
  "áĢ±áĢ«áĢºâĢĮ": 17824,
  "áĢ±áĢ«áĢ»": 12443,
  "áĢ±áĢ«áģı": 29780,
  "áĢ±áĢ¬": 277,
  "áĢ±áĢ¬\"": 6515,
  "áĢ±áĢ¬(": 28740,
  "áĢ±áĢ¬.": 17240,
  "áĢ±áĢ¬..": 8037,
  "áĢ±áĢ¬=": 22409,
  "áĢ±áĢ¬áĢ¬": 6079,
  "áĢ±áĢ¬áĢ¬áĢ·": 16039,
  "áĢ±áĢ¬áĢ¬áĢº": 26196,
  "áĢ±áĢ¬áĢ¶": 20539,
  "áĢ±áĢ¬áĢ·": 346,
  "áĢ±áĢ¬áĢ·\"": 6093,
  "áĢ±áĢ¬áĢ·.": 16267,
  "áĢ±áĢ¬áĢ·..": 5409,
  "áĢ±áĢ¬áĢ·...": 27521,
  "áĢ±áĢ¬áĢ·áĢ·": 22433,
  "áĢ±áĢ¬áĢ·áĢº": 818,
  "áĢ±áĢ¬áĢ·áģĭ": 18400,
  "áĢ±áĢ¬áĢ·áģı": 15038,
  "áĢ±áĢ¬áĢ·âĢĭ": 13119,
  "áĢ±áĢ¬áĢ·âĢľ": 20986,
  "áĢ±áĢ¬áĢ¸": 5192,
  "áĢ±áĢ¬áĢ¹": 15425,
  "áĢ±áĢ¬áĢº": 327,
  "áĢ±áĢ¬áĢº\"": 8512,
  "áĢ±áĢ¬áĢº(": 10700,
  "áĢ±áĢ¬áĢº)": 17820,
  "áĢ±áĢ¬áĢº.": 25483,
  "áĢ±áĢ¬áĢº..": 6636,
  "áĢ±áĢ¬áĢº/": 11240,
  "áĢ±áĢ¬áĢºÂ´": 28767,
  "áĢ±áĢ¬áĢºáĢ°": 29777,
  "áĢ±áĢ¬áĢºáĢ·": 1254,
  "áĢ±áĢ¬áĢºáĢ·áĢº": 26220,
  "áĢ±áĢ¬áĢºáĢ¸": 18732,
  "áĢ±áĢ¬áĢºáĢº": 18117,
  "áĢ±áĢ¬áĢºáģĭ": 15037,
  "áĢ±áĢ¬áĢºáģĮ": 20120,
  "áĢ±áĢ¬áĢºáģİ": 20121,
  "áĢ±áĢ¬áĢºáģı": 6811,
  "áĢ±áĢ¬áĢºâĢĭ": 9359,
  "áĢ±áĢ¬áĢ»": 7292,
  "áĢ±áĢ¬áĢ»áĢº": 24151,
  "áĢ±áĢ¬áģ¤": 7646,
  "áĢ±áĢ¬áģĬ": 16492,
  "áĢ±áĢ¬áģĭ": 18380,
  "áĢ±áĢ¬áģİ": 27818,
  "áĢ±áĢ¬áģı": 20540,
  "áĢ±áĢ¬âĢĭ": 24150,
  "áĢ±áĢ®": 20951,
  "áĢ±áĢ¯": 5567,
  "áĢ±áĢ¯áĢ¸": 24768,
  "áĢ±áĢ°": 6809,
  "áĢ±áĢ±": 10758,
  "áĢ±áĢ±áĢ¬": 14362,
  "áĢ±áĢ±áĢ¬áĢ·": 18379,
  "áĢ±áĢ±áĢ¬áĢº": 22403,
  "áĢ±áĢ²": 24147,
  "áĢ±áĢ²áĢ·": 12026,
  "áĢ±áĢµ": 13105,
  "áĢ±áĢµáĢ¬": 21323,
  "áĢ±áĢµáĢ¬áĢº": 26021,
  "áĢ±áĢ¶": 11807,
  "áĢ±áĢ·": 360,
  "áĢ±áĢ·\"": 14863,
  "áĢ±áĢ·..": 10837,
  "áĢ±áĢ·áĢ«": 1555,
  "áĢ±áĢ·áĢ«áģĬ": 25751,
  "áĢ±áĢ·áĢ«áģĭ": 3573,
  "áĢ±áĢ·áĢ¬": 4515,
  "áĢ±áĢ·áĢ¬áĢº": 28775,
  "áĢ±áĢ·áĢ·": 15629,
  "áĢ±áĢ·áĢº": 18727,
  "áĢ±áĢ·áĢ½": 14217,
  "áĢ±áĢ·áģĮ": 25492,
  "áĢ±áĢ·âĢĭ": 13515,
  "áĢ±áĢ¸": 306,
  "áĢ±áĢ¸\"": 6002,
  "áĢ±áĢ¸'": 29766,
  "áĢ±áĢ¸(": 17535,
  "áĢ±áĢ¸)": 16046,
  "áĢ±áĢ¸-": 20114,
  "áĢ±áĢ¸.": 18392,
  "áĢ±áĢ¸..": 6999,
  "áĢ±áĢ¸/": 10423,
  "áĢ±áĢ¸áĢ¯": 21419,
  "áĢ±áĢ¸áĢ±": 15221,
  "áĢ±áĢ¸áģĬ": 29767,
  "áĢ±áĢ¸áģĭ": 4634,
  "áĢ±áĢ¸áģĮ": 8380,
  "áĢ±áĢ¸áģį": 6651,
  "áĢ±áĢ¸áģı": 6893,
  "áĢ±áĢ¸âĢĭ": 4801,
  "áĢ±áĢ¸âĢĿ": 21906,
  "áĢ±áĢ¹": 13786,
  "áĢ±áĢº": 6830,
  "áĢ±áĢºáĢ¬": 6618,
  "áĢ±áĢºáĢ¸": 18726,
  "áĢ±áĢºáĢ¹": 24767,
  "áĢ±áĢ»": 6771,
  "áĢ±áĢ»áĢ¬": 17236,
  "áĢ±áĢ»áĢ¾áĢ¬áĢº": 16490,
  "áĢ±áĢ¼": 5420,
  "áĢ±áĢ¼áĢ·": 27522,
  "áĢ±áĢ½": 22402,
  "áĢ±áĢ½áĢ¸": 24769,
  "áĢ±áĢ¾": 17523,
  "áĢ±áĢŃ": 6915,
  "áĢ±áĢŃáĢ¯": 12548,
  "áĢ±áģ": 20950,
  "áĢ±áģĬ": 12118,
  "áĢ±áģĭ": 7101,
  "áĢ±áģį": 4793,
  "áĢ±áģı": 4047,
  "áĢ±áģŀ": 21340,
  "áĢ±áĤĽ": 28730,
  "áĢ±âĢĭ": 5595,
  "áĢ±âĢĿ": 16488,
  "áĢ±âģł": 16489,
  "áĢ²": 296,
  "áĢ²\"": 5243,
  "áĢ²'": 24783,
  "áĢ²(": 19025,
  "áĢ²)": 24784,
  "áĢ².": 6468,
  "áĢ²..": 3342,
  "áĢ²...": 23869,
  "áĢ²/": 16261,
  "áĢ²=": 29758,
  "áĢ²?": 10974,
  "áĢ²Â´": 29760,
  "áĢ²áĢ¯áĢ·": 29759,
  "áĢ²áĢ²": 8038,
  "áĢ²áĢ²áĢ·": 3867,
  "áĢ²áĢ¶": 6064,
  "áĢ²áĢ¶áĢ·": 8004,
  "áĢ²áĢ·": 309,
  "áĢ²áĢ·\"": 16720,
  "áĢ²áĢ·.": 12655,
  "áĢ²áĢ·..": 3556,
  "áĢ²áĢ·áĢ¯": 23518,
  "áĢ²áĢ·áĢ±": 12656,
  "áĢ²áĢ·áĢ²": 7127,
  "áĢ²áĢ·áĢ²áĢ·": 12340,
  "áĢ²áĢ·áĢ¶": 27006,
  "áĢ²áĢ·áĢ·": 3199,
  "áĢ²áĢ·áĢ»": 15842,
  "áĢ²áĢ·áĢ½": 15434,
  "áĢ²áĢ·áģĬ": 19342,
  "áĢ²áĢ·áģĭ": 6081,
  "áĢ²áĢ·áģį": 7618,
  "áĢ²áĢ·áģı": 2080,
  "áĢ²áĢ·âĢĭ": 4391,
  "áĢ²áĢ¸": 7378,
  "áĢ²áĢ¹": 22418,
  "áĢ²áĢ»": 12123,
  "áĢ²áĢ»áĢ·": 16262,
  "áĢ²áĢ»áĢ½": 18739,
  "áĢ²áĢ¼": 18738,
  "áĢ²áģĬ": 22419,
  "áĢ²áģĭ": 4207,
  "áĢ²áģĮ": 2594,
  "áĢ²áģį": 6491,
  "áĢ²áĤļ": 12881,
  "áĢ²áĤĽ": 15431,
  "áĢ²âĢĭ": 8845,
  "áĢ²âĢĿ": 7678,
  "áĢ³": 5768,
  "áĢ³áĢ¸": 22255,
  "áĢ´": 29731,
  "áĢµ": 3843,
  "áĢµáĢ¬áĢ¸": 8539,
  "áĢµáĢŃáĤĤáĢ¸": 17141,
  "áĢµáĤĤ": 20811,
  "áĢµáĤĤáĢŃáĢ¸": 27684,
  "áĢ¶": 305,
  "áĢ¶\"": 9469,
  "áĢ¶(": 15841,
  "áĢ¶)": 24793,
  "áĢ¶-": 6492,
  "áĢ¶..": 16045,
  "áĢ¶/": 17249,
  "áĢ¶áĢ¯": 7458,
  "áĢ¶áĢ¯áĢ¶": 15432,
  "áĢ¶áĢ¯áĢ¶áĢ¸": 13507,
  "áĢ¶áĢ¯áĢ¸": 7328,
  "áĢ¶áĢ¯áĢ¸áĢ±": 29413,
  "áĢ¶áĢ±": 21418,
  "áĢ¶áĢ¶": 5213,
  "áĢ¶áĢ¶áĢ·": 12654,
  "áĢ¶áĢ·": 439,
  "áĢ¶áĢ·áĢ·": 19742,
  "áĢ¶áĢ¸": 2750,
  "áĢ¶áĢ¸áĢ¯": 30314,
  "áĢ¶áĢ¹": 20977,
  "áĢ¶áĢ»": 9788,
  "áĢ¶áĢ»áĢ¯áĢ¸": 18740,
  "áĢ¶áģĬ": 16498,
  "áĢ¶áģĭ": 22951,
  "áĢ¶áģĮ": 9412,
  "áĢ¶áģį": 2584,
  "áĢ¶áģı": 1316,
  "áĢ¶âĢĭ": 8276,
  "áĢ·": 273,
  "áĢ·áĢ«": 5156,
  "áĢ·áĢ¬": 17811,
  "áĢ·áĢ®": 16038,
  "áĢ·áĢ¯áĢ¶": 27816,
  "áĢ·áĢ°": 13649,
  "áĢ·áĢ±": 29742,
  "áĢ·áĢ²": 28737,
  "áĢ·áĢ¶": 10151,
  "áĢ·áĢ·": 6692,
  "áĢ·áĢ·áĢ¶": 15154,
  "áĢ·áĢ·áĢ·áĢ·": 23952,
  "áĢ·áĢ·áĢº": 6873,
  "áĢ·áĢ¹": 14061,
  "áĢ·áĢº": 319,
  "áĢ·áĢº\"": 15438,
  "áĢ·áĢº(": 18743,
  "áĢ·áĢº)": 26217,
  "áĢ·áĢº..": 26218,
  "áĢ·áĢº/": 11914,
  "áĢ·áĢºáĢ·": 5061,
  "áĢ·áĢºáĢ·áĢº": 20118,
  "áĢ·áĢºáĢ¸": 14060,
  "áĢ·áĢºáĢº": 22953,
  "áĢ·áĢºáģĬ": 11522,
  "áĢ·áĢºáģĭ": 29772,
  "áĢ·áĢºáģį": 18116,
  "áĢ·áĢºáģİ": 21912,
  "áĢ·áĢºáģı": 24796,
  "áĢ·áĢºâĢĭ": 6598,
  "áĢ·áĢ»": 4514,
  "áĢ·áĢ½áĢ¶": 17239,
  "áĢ·áĢ¾áĢ¶": 22933,
  "áĢ·áĢŃáĢ¯": 9577,
  "áĢ¸": 264,
  "áĢ¸\"": 12328,
  "áĢ¸(": 2861,
  "áĢ¸)": 4172,
  "áĢ¸-": 14057,
  "áĢ¸.": 10029,
  "áĢ¸..": 18725,
  "áĢ¸/": 12876,
  "áĢ¸áĢ®": 26189,
  "áĢ¸áĢ±": 6490,
  "áĢ¸áĢ¸": 7480,
  "áĢ¸áĢ¸áĢ¸áĢ¸": 16655,
  "áĢ¸áĢº": 3476,
  "áĢ¸áģĬ": 3792,
  "áĢ¸áģĭ": 1773,
  "áĢ¸áģı": 3868,
  "áĢ¸âĢĭ": 3790,
  "áĢ¸âĢĮ": 5480,
  "áĢ¹": 330,
  "áĢ¹áĢ±": 5769,
  "áĢ¹áĢ±áĢ»": 24574,
  "áĢ¹áĢ·": 21914,
  "áĢ¹áĢ¸": 5568,
  "áĢ¹áĢ¸áĢ±": 15360,
  "áĢ¹áĢ»": 18118,
  "áĢ¹áĢ½": 4528,
  "áĢ¹áĢ½áĢ¶áĢ·": 14532,
  "áĢº": 263,
  "áĢº\"": 1914,
  "áĢº'": 7407,
  "áĢº''": 12646,
  "áĢº(": 2619,
  "áĢº)": 2465,
  "áĢº+": 16037,
  "áĢº,": 19325,
  "áĢº-": 3577,
  "áĢº.": 3630,
  "áĢº..": 1622,
  "áĢº..\"": 16593,
  "áĢº...": 11475,
  "áĢº/": 2357,
  "áĢº:": 13104,
  "áĢº;": 18378,
  "áĢº=": 11603,
  "áĢº?": 28727,
  "áĢº[": 8073,
  "áĢº\\": 11604,
  "áĢº]": 19014,
  "áĢº`": 24143,
  "áĢºÂ´": 7786,
  "áĢºÂ´Â´": 29428,
  "áĢºáĢ«": 19326,
  "áĢºáĢ¬": 3197,
  "áĢºáĢ¬áĢ¸": 3854,
  "áĢºáĢ¬áĢ¹": 14798,
  "áĢºáĢ®": 12438,
  "áĢºáĢ®áĢ¸": 22927,
  "áĢºáĢ¯": 1035,
  "áĢºáĢ¯áĢ·": 10598,
  "áĢºáĢ¯áĢ¸": 9137,
  "áĢºáĢ°": 2921,
  "áĢºáĢ±": 3495,
  "áĢºáĢ±áĢ¬": 4459,
  "áĢºáĢ±áĢ¬áĢº": 8636,
  "áĢºáĢ±áĢ°": 30387,
  "áĢºáĢ±áĢ¸": 27810,
  "áĢºáĢ±áĢ»": 15973,
  "áĢºáĢ²": 22926,
  "áĢºáĢ³": 12221,
  "áĢºáĢ³áĢŃáĢ¸": 18946,
  "áĢºáĢ¶": 12645,
  "áĢºáĢ·": 328,
  "áĢºáĢ·\"": 5985,
  "áĢºáĢ·'": 27011,
  "áĢºáĢ·(": 17821,
  "áĢºáĢ·-": 11814,
  "áĢºáĢ·.": 20982,
  "áĢºáĢ·..": 8891,
  "áĢºáĢ·/": 5532,
  "áĢºáĢ·áĢ¯": 18396,
  "áĢºáĢ·áĢ±": 13115,
  "áĢºáĢ·áĢ·": 4081,
  "áĢºáĢ·áĢ·áĢº": 22428,
  "áĢºáĢ·áĢ¸": 10834,
  "áĢºáĢ·áĢº": 3724,
  "áĢºáĢ·áĢºáĢ·": 22744,
  "áĢºáĢ·áģĬ": 2289,
  "áĢºáĢ·áģĭ": 2898,
  "áĢºáĢ·áģį": 12885,
  "áĢºáĢ·áģİ": 9854,
  "áĢºáĢ·áģı": 10909,
  "áĢºáĢ·âĢĭ": 4969,
  "áĢºáĢ·âĢĮ": 5309,
  "áĢºáĢ·âģł": 26221,
  "áĢºáĢ¸": 275,
  "áĢºáĢ¸\"": 3202,
  "áĢºáĢ¸'": 12877,
  "áĢºáĢ¸(": 4142,
  "áĢºáĢ¸)": 6724,
  "áĢºáĢ¸,": 26191,
  "áĢºáĢ¸-": 4708,
  "áĢºáĢ¸.": 9850,
  "áĢºáĢ¸..": 3788,
  "áĢºáĢ¸/": 3762,
  "áĢºáĢ¸=": 26192,
  "áĢºáĢ¸Â´": 22408,
  "áĢºáĢ¸áĢ¯": 14364,
  "áĢºáĢ¸áĢ°": 26193,
  "áĢºáĢ¸áĢ±": 10417,
  "áĢºáĢ¸áĢ·": 12330,
  "áĢºáĢ¸áĢ¸": 19018,
  "áĢºáĢ¸áĢ»": 15211,
  "áĢºáĢ¸áĢ¼": 14523,
  "áĢºáĢ¸áĢŃáĢ¯áĢ·": 26982,
  "áĢºáĢ¸áģĬ": 4438,
  "áĢºáĢ¸áģĭ": 3833,
  "áĢºáĢ¸áģĮ": 1802,
  "áĢºáĢ¸áģį": 1479,
  "áĢºáĢ¸áģİ": 11419,
  "áĢºáĢ¸áģı": 1497,
  "áĢºáĢ¸âĢĭ": 1962,
  "áĢºáĢ¸âĢĭâĢĭ": 25779,
  "áĢºáĢ¸âĢĮ": 14365,
  "áĢºáĢ¸âĢľ": 26983,
  "áĢºáĢ¸âĢĿ": 14676,
  "áĢºáĢ¹": 471,
  "áĢºáĢ¹áĢ¬": 4855,
  "áĢºáĢ¹áĢ¸": 19359,
  "áĢºáĢ¹áĢŃáĢ¯": 6751,
  "áĢºáĢº": 4004,
  "áĢºáĢºáĢ¸": 4277,
  "áĢºáĢºáĢºáĢº": 16410,
  "áĢºáĢ»": 1200,
  "áĢºáĢ»áĢ¬": 3728,
  "áĢºáĢ»áĢ¬áĢ¸": 1233,
  "áĢºáĢ»áĢ¬áĢ¸áģĬ": 13043,
  "áĢºáĢ»áĢ½": 29732,
  "áĢºáĢ»áĢŃ": 20949,
  "áĢºáĢ»áĢŃáĢ¯áĢ¸": 23495,
  "áĢºáĢ»áģĬ": 19850,
  "áĢºáĢ»áģĭ": 26455,
  "áĢºáĢ¼": 7291,
  "áĢºáĢ¼áĢŃ": 27811,
  "áĢºáĢ¾": 6691,
  "áĢºáĢ¾áĢŃáĢ¯": 27812,
  "áĢºáĢŃ": 3658,
  "áĢºáĢŃáĢ¯": 2624,
  "áĢºáĢŃáĢ¯áĢ·": 9299,
  "áĢºáĢŃáĢ¯áĢ¸": 15209,
  "áĢºáĢŃáĢ³": 8958,
  "áĢºáĢŃáĢ³áĢ¸": 11403,
  "áĢºáģ¢": 7787,
  "áĢºáģ¢áĢŃáĢ¯": 8746,
  "áĢºáģ±": 14361,
  "áĢºáģ±áĢŃ": 29517,
  "áĢºáģ²": 21406,
  "áĢºáģ³áĢ®": 21891,
  "áĢºáģĬ": 2162,
  "áĢºáģĭ": 1524,
  "áĢºáģĮ": 2772,
  "áĢºáģį": 795,
  "áĢºáģİ": 5149,
  "áĢºáģı": 1232,
  "áĢºáģł": 24144,
  "áĢºâĢĭ": 1657,
  "áĢºâĢĭáĢ·": 19516,
  "áĢºâĢĭáĢ¸": 6058,
  "áĢºâĢĭáĢ¸âĢĭ": 16367,
  "áĢºâĢĭâĢĭ": 9099,
  "áĢºâĢĮ": 6327,
  "áĢºâĢĮáĢ·": 13755,
  "áĢºâĢľ": 20090,
  "áĢºâĢĿ": 2454,
  "áĢºâģł": 24764,
  "áĢºâĨĶ": 24765,
  "áĢºâĪĴ": 28728,
  "áĢºï»¿": 11605,
  "áĢºï»¿áĢ¸": 24636,
  "áĢ»": 285,
  "áĢ»\"": 10830,
  "áĢ»..": 13501,
  "áĢ»áĢ¬": 466,
  "áĢ»áĢ¬\"": 8848,
  "áĢ»áĢ¬'": 19358,
  "áĢ»áĢ¬.": 24203,
  "áĢ»áĢ¬..": 8892,
  "áĢ»áĢ¬áĢ·": 3725,
  "áĢ»áĢ¬áĢ¸": 316,
  "áĢ»áĢ¬áĢ¸\"": 15223,
  "áĢ»áĢ¬áĢ¸-": 11143,
  "áĢ»áĢ¬áĢ¸..": 8511,
  "áĢ»áĢ¬áĢ¸/": 18114,
  "áĢ»áĢ¬áĢ¸áģĭ": 9214,
  "áĢ»áĢ¬áĢ¸áģĮ": 10975,
  "áĢ»áĢ¬áĢ¸áģı": 1625,
  "áĢ»áĢ¬áĢ¸âĢĭ": 19343,
  "áĢ»áĢ¬áĢº": 2935,
  "áĢ»áĢ¬áĢºáĢ¸": 1704,
  "áĢ»áĢ¬áģ¤": 8469,
  "áĢ»áĢ¬áģ¤áĢ¸": 26758,
  "áĢ»áĢ¬áģĭ": 16508,
  "áĢ»áĢ¬âĢĭ": 29810,
  "áĢ»áĢ®": 608,
  "áĢ»áĢ®áĢ¯áĢ¸": 16280,
  "áĢ»áĢ®áĢ·": 29837,
  "áĢ»áĢ®áĢ¸": 834,
  "áĢ»áĢ®áĢº": 25531,
  "áĢ»áĢ®áģ¤": 19376,
  "áĢ»áĢ®áģį": 10290,
  "áĢ»áĢ¯": 404,
  "áĢ»áĢ¯áĢ¬áĢ¸": 21919,
  "áĢ»áĢ¯áĢ¯áĢŃáĢ¸": 26239,
  "áĢ»áĢ¯áĢ¶": 1174,
  "áĢ»áĢ¯áĢ¶áĢ·": 2340,
  "áĢ»áĢ¯áĢ¶áĢ¸": 1235,
  "áĢ»áĢ¯áĢ·": 5690,
  "áĢ»áĢ¯áĢ·áĢŃ": 23938,
  "áĢ»áĢ¯áĢ¸": 2026,
  "áĢ»áĢ¯áĢ¸áĢŃ": 7344,
  "áĢ»áĢ¯áĤĭ": 5713,
  "áĢ»áĢ°": 677,
  "áĢ»áĢ°áĢ¶": 18440,
  "áĢ»áĢ°áĢ¶áĢ¸": 7462,
  "áĢ»áĢ°áĢ·": 5581,
  "áĢ»áĢ°áĢ¸": 716,
  "áĢ»áĢ°áĢ¸áĢŃ": 26314,
  "áĢ»áĢ°áĢŃ": 9367,
  "áĢ»áĢ°áĢŃáĢ·": 9482,
  "áĢ»áĢ°áĢŃáĢ¸": 3378,
  "áĢ»áĢ±": 631,
  "áĢ»áĢ±áĢ¬": 384,
  "áĢ»áĢ±áĢ¬áĢ·": 674,
  "áĢ»áĢ±áĢ¬áĢ·áĢº": 11916,
  "áĢ»áĢ±áĢ¬áĢ¸": 6437,
  "áĢ»áĢ±áĢ¬áĢº": 417,
  "áĢ»áĢ±áĢ¬áĢº/": 28790,
  "áĢ»áĢ±áĢ¬áĢºáĢ·": 15853,
  "áĢ»áĢ±áĢ¬áĢºáģı": 27877,
  "áĢ»áĢ±áĢ®": 5208,
  "áĢ»áĢ±áĢ®áĢ¸": 29846,
  "áĢ»áĢ±áĢ¯áĢ¶": 24838,
  "áĢ»áĢ±áĢ°": 23018,
  "áĢ»áĢ±áĢ°áĢ¸": 25538,
  "áĢ»áĢ±áĢ±": 21946,
  "áĢ»áĢ±áĢ±áĢ¬áĢº": 16999,
  "áĢ»áĢ±áĢ·": 7069,
  "áĢ»áĢ±áĢ¸": 483,
  "áĢ»áĢ±áĢ½": 19754,
  "áĢ»áĢ±áĢŃ": 21014,
  "áĢ»áĢ±áĢŃáĢ¯": 18767,
  "áĢ»áĢ±áĢŃáĢ¯áĢ¸": 25537,
  "áĢ»áĢ²": 1320,
  "áĢ»áĢ²áĢ·": 866,
  "áĢ»áĢ¶": 758,
  "áĢ»áĢ¶áĢ¯": 14239,
  "áĢ»áĢ¶áĢ¯áĢ·": 29919,
  "áĢ»áĢ¶áĢ¶áĢ·": 25591,
  "áĢ»áĢ¶áĢ·": 1015,
  "áĢ»áĢ·": 4560,
  "áĢ»áĢ·áĢº": 7126,
  "áĢ»áĢ¸": 2171,
  "áĢ»áĢ¸áģĬ": 19541,
  "áĢ»áĢº": 1736,
  "áĢ»áĢºáĢ¬": 8330,
  "áĢ»áĢºáĢ¬áĢ¸": 2635,
  "áĢ»áĢ»": 14525,
  "áĢ»áĢ¼": 27824,
  "áĢ»áĢ½": 390,
  "áĢ»áĢ½áĢ®": 11613,
  "áĢ»áĢ½áĢ±": 1674,
  "áĢ»áĢ½áĢ±áĢ¸": 848,
  "áĢ»áĢ½áĢ²": 1113,
  "áĢ»áĢ½áĢ¶": 1388,
  "áĢ»áĢ½áĢ¶áĢ·": 23531,
  "áĢ»áĢ½áĢ¾": 9965,
  "áĢ»áĢ½áĢŃ": 7921,
  "áĢ»áĢ½áĢŃáĢ¯": 6812,
  "áĢ»áĢ¾": 380,
  "áĢ»áĢ¾áĢ¬": 1525,
  "áĢ»áĢ¾áĢ¬áĢ·": 27306,
  "áĢ»áĢ¾áĢ¬áĢ¸": 1942,
  "áĢ»áĢ¾áĢ¬áĢº": 12940,
  "áĢ»áĢ¾áĢ®": 8006,
  "áĢ»áĢ¾áĢ¯": 13791,
  "áĢ»áĢ¾áĢ°": 14867,
  "áĢ»áĢ¾áĢ°áĢ¸": 2581,
  "áĢ»áĢ¾áĢ±": 25497,
  "áĢ»áĢ¾áĢ±áĢ¬": 622,
  "áĢ»áĢ¾áĢ±áĢ¬áĢ·": 790,
  "áĢ»áĢ¾áĢ±áĢ¬áĢº": 699,
  "áĢ»áĢ¾áĢ¶": 1153,
  "áĢ»áĢ¾áĢ¾": 22970,
  "áĢ»áĢ¾áĢŃ": 5662,
  "áĢ»áĢ¾áĢŃáĢ¯": 1830,
  "áĢ»áĢ¾áĢŃáĢ¯áĢ·": 1352,
  "áĢ»áĢ¾áĢŃáĢ¯áĢ¸": 3126,
  "áĢ»áĢ¾áĢŃáĢ°": 19620,
  "áĢ»áĢ¾áĢŃáĢ°áĢ·": 12741,
  "áĢ»áĢ¾áĢŃáĢ°áĢ¸": 24572,
  "áĢ»áĢ¾áĢŃáĢ·": 23936,
  "áĢ»áĢŃ": 397,
  "áĢ»áĢŃáĢ¯": 635,
  "áĢ»áĢŃáĢ¯/": 21017,
  "áĢ»áĢŃáĢ¯áĢ¯": 21469,
  "áĢ»áĢŃáĢ¯áĢ¯áĢ¸": 11437,
  "áĢ»áĢŃáĢ¯áĢ°": 29851,
  "áĢ»áĢŃáĢ¯áĢ°áĢ¸": 17283,
  "áĢ»áĢŃáĢ¯áĢ·": 519,
  "áĢ»áĢŃáĢ¯áĢ·\"": 26254,
  "áĢ»áĢŃáĢ¯áĢ·áĢ·": 28806,
  "áĢ»áĢŃáĢ¯áĢ¸": 354,
  "áĢ»áĢŃáĢ¯áĢ¸..": 24182,
  "áĢ»áĢŃáĢ¯áĢ¸/": 18123,
  "áĢ»áĢŃáĢ¯áĢ¸áģĭ": 27860,
  "áĢ»áĢŃáĢ¯áĢ¸âĢĭ": 13120,
  "áĢ»áĢŃáĢ°": 5421,
  "áĢ»áĢŃáĢ°áĢ·": 4406,
  "áĢ»áĢŃáĢ°áĢ¸": 1584,
  "áĢ»áĢŃáĢ·": 13951,
  "áĢ»áĢŃáĢ¸": 10352,
  "áĢ»áĢŃáĢº": 12230,
  "áĢ»áĢŃáĢºáĢ¯áĢ¸": 27872,
  "áĢ»áĢŃáĢŃáĢ¯áĢ¸": 15233,
  "áĢ»áģĭ": 4527,
  "áĢ»áģį": 8195,
  "áĢ»âĢĭ": 10905,
  "áĢ¼": 272,
  "áĢ¼\"": 13107,
  "áĢ¼..": 14059,
  "áĢ¼áĢ«": 28736,
  "áĢ¼áĢ«áĢ¸": 22407,
  "áĢ¼áĢ¬": 479,
  "áĢ¼áĢ¬áĢ·": 13519,
  "áĢ¼áĢ¬áĢ¸": 361,
  "áĢ¼áĢ¬áĢ¸..": 27024,
  "áĢ¼áĢ¬áĢ¸áĢ±": 12888,
  "áĢ¼áĢ¬áĢ¸áģĮ": 5411,
  "áĢ¼áĢ¬áĢ¸áģį": 27023,
  "áĢ¼áĢ¬áĢ¸âĢĭ": 12661,
  "áĢ¼áĢ¬áĢº": 25508,
  "áĢ¼áĢ®": 442,
  "áĢ¼áĢ®\"": 7793,
  "áĢ¼áĢ®.": 17264,
  "áĢ¼áĢ®..": 7176,
  "áĢ¼áĢ®áĢ®áĢ¸": 15236,
  "áĢ¼áĢ®áĢ¯": 15634,
  "áĢ¼áĢ®áĢ¯áĢ·": 24198,
  "áĢ¼áĢ®áĢ¯áĢ¸": 21442,
  "áĢ¼áĢ®áĢ°": 28795,
  "áĢ¼áĢ®áĢ·": 21926,
  "áĢ¼áĢ®áĢ¸": 323,
  "áĢ¼áĢ®áĢ¸\"": 11144,
  "áĢ¼áĢ®áĢ¸(": 25480,
  "áĢ¼áĢ®áĢ¸)": 29773,
  "áĢ¼áĢ®áĢ¸.": 28765,
  "áĢ¼áĢ®áĢ¸..": 8277,
  "áĢ¼áĢ®áĢ¸/": 20119,
  "áĢ¼áĢ®áĢ¸áĢ¯": 21425,
  "áĢ¼áĢ®áĢ¸áĢ·": 18745,
  "áĢ¼áĢ®áĢ¸áģĬ": 6469,
  "áĢ¼áĢ®áĢ¸áģĭ": 13510,
  "áĢ¼áĢ®áĢ¸áģİ": 25481,
  "áĢ¼áĢ®áĢ¸áģı": 7828,
  "áĢ¼áĢ®áĢ¸âĢĭ": 7229,
  "áĢ¼áĢ®áĢº": 18754,
  "áĢ¼áĢ®áĢºáĢ¸": 15855,
  "áĢ¼áĢ®áĢŃáĢ¸": 18755,
  "áĢ¼áĢ®áģĭ": 9169,
  "áĢ¼áĢ®âĢĿ": 15635,
  "áĢ¼áĢ¯": 375,
  "áĢ¼áĢ¯áĢ¯": 12344,
  "áĢ¼áĢ¯áĢ¶": 540,
  "áĢ¼áĢ¯áĢ¶áĢ¶": 22448,
  "áĢ¼áĢ¯áĢ¶áĢ·": 3594,
  "áĢ¼áĢ¯áĢ¶áĢ¸": 1021,
  "áĢ¼áĢ¯áĢ¶âĢĭ": 20576,
  "áĢ¼áĢ¯áĢ·": 9581,
  "áĢ¼áĢ¯áĢ¸": 10649,
  "áĢ¼áĢ¯áĢ¸áĢ¶": 26786,
  "áĢ¼áĢ¯áĢº": 10571,
  "áĢ¼áĢ¯áĢ¾": 5599,
  "áĢ¼áĢ¯áģį": 1787,
  "áĢ¼áĢ¯áĤĭ": 28784,
  "áĢ¼áĢ°": 566,
  "áĢ¼áĢ°áĢ¯": 26260,
  "áĢ¼áĢ°áĢ·": 8926,
  "áĢ¼áĢ°áĢ¸": 980,
  "áĢ¼áĢ±": 359,
  "áĢ¼áĢ±\"": 22436,
  "áĢ¼áĢ±(": 25490,
  "áĢ¼áĢ±..": 25491,
  "áĢ¼áĢ±áĢ¬": 326,
  "áĢ¼áĢ±áĢ¬áĢ¬": 24798,
  "áĢ¼áĢ±áĢ¬áĢ·": 2830,
  "áĢ¼áĢ±áĢ¬áĢ¸": 7293,
  "áĢ¼áĢ±áĢ¬áĢº": 828,
  "áĢ¼áĢ±áĢ¬áĢº-": 18192,
  "áĢ¼áĢ±áĢ¬áĢº.": 16548,
  "áĢ¼áĢ±áĢ¬áĢºáģĬ": 17026,
  "áĢ¼áĢ±áĢ¬áĢ»": 25482,
  "áĢ¼áĢ±áĢ¬âĢĭ": 12227,
  "áĢ¼áĢ±áĢ®": 17544,
  "áĢ¼áĢ±áĢ®áĢ¸": 14683,
  "áĢ¼áĢ±áĢ¶": 18124,
  "áĢ¼áĢ±áĢ·": 1549,
  "áĢ¼áĢ±áĢ¸": 515,
  "áĢ¼áĢ±áģı": 26228,
  "áĢ¼áĢ±âĢĭ": 24184,
  "áĢ¼áĢ²": 657,
  "áĢ¼áĢ²áĢ·": 11058,
  "áĢ¼áĢ²áĢ¸": 27097,
  "áĢ¼áĢ¶": 571,
  "áĢ¼áĢ¶áĢ¶": 24208,
  "áĢ¼áĢ¶áĢ·": 992,
  "áĢ¼áĢ·": 7744,
  "áĢ¼áĢ¸": 4481,
  "áĢ¼áĢº": 4750,
  "áĢ¼áĢºáĢ¬": 19724,
  "áĢ¼áĢºáĢ·": 14208,
  "áĢ¼áĢºáĢ¸": 8974,
  "áĢ¼áĢ»": 8148,
  "áĢ¼áĢ¼": 26981,
  "áĢ¼áĢ½": 661,
  "áĢ¼áĢ½áĢ¬": 4485,
  "áĢ¼áĢ½áĢ¬áĢ¸": 1687,
  "áĢ¼áĢ½áĢ®": 17293,
  "áĢ¼áĢ½áĢ±": 982,
  "áĢ¼áĢ½áĢ±áĢ·": 19723,
  "áĢ¼áĢ½áĢ±áĢ¸": 953,
  "áĢ¼áĢ½áĢ²": 25461,
  "áĢ¼áĢ½áĢ¸": 25560,
  "áĢ¼áĢ½áĢº": 14546,
  "áĢ¼áĢ½áĢ¾áĢ¬": 2683,
  "áĢ¼áĢ¾": 675,
  "áĢ¼áĢ¾áĢ¬áĢ¸": 3874,
  "áĢ¼áĢ¾áĢ®áĢ¸": 6708,
  "áĢ¼áĢ¾áĢ¯": 766,
  "áĢ¼áĢ¾áĢ¯áĢ¶áĢ¸": 11159,
  "áĢ¼áĢ¾áĢ°": 4992,
  "áĢ¼áĢ¾áĢ±": 19399,
  "áĢ¼áĢ¾áĢ±áĢ¬": 978,
  "áĢ¼áĢ¾áĢ±áĢ¬áĢ·": 20603,
  "áĢ¼áĢ¾áĢ±áĢ¬áĢº": 4826,
  "áĢ¼áĢ¾áĢ±áĢ¸": 2995,
  "áĢ¼áĢ¾áĢŃ": 2496,
  "áĢ¼áĢ¾áĢŃáĢ¯": 11138,
  "áĢ¼áĢ¾áĢŃáĢ¯áĢ¸": 29883,
  "áĢ¼áĢŃ": 426,
  "áĢ¼áĢŃáĢ®áĢ¸": 17548,
  "áĢ¼áĢŃáĢ¯": 455,
  "áĢ¼áĢŃáĢ¯.": 17265,
  "áĢ¼áĢŃáĢ¯/": 27887,
  "áĢ¼áĢŃáĢ¯áĢ¯": 29807,
  "áĢ¼áĢŃáĢ¯áĢ¯áĢ·": 24819,
  "áĢ¼áĢŃáĢ¯áĢ¶": 27043,
  "áĢ¼áĢŃáĢ¯áĢ·": 497,
  "áĢ¼áĢŃáĢ¯áĢ·áģĮ": 11431,
  "áĢ¼áĢŃáĢ¯áĢ·âĢĭ": 14689,
  "áĢ¼áĢŃáĢ¯áĢ¸": 473,
  "áĢ¼áĢŃáĢ¯áģ¤": 27044,
  "áĢ¼áĢŃáĢ°": 15854,
  "áĢ¼áĢŃáĢ°áĢ·": 26243,
  "áĢ¼áĢŃáĢ°áĢ¸": 10842,
  "áĢ¼áĢŃáĢ·": 6921,
  "áĢ¼áĢŃáĢ·áĢ¯": 22789,
  "áĢ¼áĢŃáĢ¸": 3254,
  "áĢ¼áĢŃáĢº": 9266,
  "áĢ¼áĢŃáĢºáĢ¯áĢ·": 24814,
  "áĢ¼áģĬ": 20537,
  "áĢ¼áģĭ": 22932,
  "áĢ¼áģį": 8595,
  "áĢ¼áģı": 4632,
  "áĢ¼âĢĭ": 12222,
  "áĢ½": 278,
  "áĢ½\"": 8596,
  "áĢ½..": 13650,
  "áĢ½áĢ«": 1910,
  "áĢ½áĢ«áĢ¸": 1601,
  "áĢ½áĢ¬": 387,
  "áĢ½áĢ¬\"": 8558,
  "áĢ½áĢ¬.": 27033,
  "áĢ½áĢ¬..": 10911,
  "áĢ½áĢ¬áĢ·": 7000,
  "áĢ½áĢ¬áĢ¸": 352,
  "áĢ½áĢ¬áĢ¸\"": 20125,
  "áĢ½áĢ¬áĢ¸..": 21433,
  "áĢ½áĢ¬áĢ¸/": 19035,
  "áĢ½áĢ¬áĢ¸áģį": 3403,
  "áĢ½áĢ¬áĢ¸áģı": 15040,
  "áĢ½áĢ¬áĢ¸âĢĭ": 10157,
  "áĢ½áĢ¬âĢĭ": 20129,
  "áĢ½áĢ®": 1106,
  "áĢ½áĢ®áĢ¸": 2394,
  "áĢ½áĢ¯": 8379,
  "áĢ½áĢ°": 27819,
  "áĢ½áĢ±": 320,
  "áĢ½áĢ±\"": 27849,
  "áĢ½áĢ±.": 17539,
  "áĢ½áĢ±..": 6383,
  "áĢ½áĢ±/": 16265,
  "áĢ½áĢ±áĢ¬": 5499,
  "áĢ½áĢ±áĢ¬áĢ¸": 24153,
  "áĢ½áĢ±áĢ±": 5280,
  "áĢ½áĢ±áĢ²": 26219,
  "áĢ½áĢ±áĢ·": 398,
  "áĢ½áĢ±áĢ·áĢ·": 14868,
  "áĢ½áĢ±áĢ·âĢĭ": 24189,
  "áĢ½áĢ±áĢ¸": 362,
  "áĢ½áĢ±áĢ¸..": 27025,
  "áĢ½áĢ±áĢ¸/": 19738,
  "áĢ½áĢ±áĢ¸áĢ·": 22963,
  "áĢ½áĢ±áĢ¸âĢĭ": 10979,
  "áĢ½áĢ±áĢ¹": 27850,
  "áĢ½áĢ±áĢ½": 16048,
  "áĢ½áĢ±áģĭ": 10833,
  "áĢ½áĢ±áģı": 24175,
  "áĢ½áĢ±áĤĬ": 24176,
  "áĢ½áĢ±âĢĭ": 6950,
  "áĢ½áĢ²": 357,
  "áĢ½áĢ²\"": 14371,
  "áĢ½áĢ²)": 26226,
  "áĢ½áĢ².": 16500,
  "áĢ½áĢ²..": 28774,
  "áĢ½áĢ²áĢ²": 5553,
  "áĢ½áĢ²áĢ²áĢ·": 7128,
[...]
